#version: 0.2
t h
i n
th e</w>
a n
r e
e r
e d</w>
e n
o n</w>
o n
a r
t i
o r
in g</w>
s t
d a
e r</w>
i n</w>
t o</w>
o f</w>
o u
da y</w>
a n</w>
i t
a l
r o
r i
a t
e s
an d</w>
e s</w>
i l
a l</w>
s i
u r
i c
e a
u n
a i
c h
o r</w>
a s</w>
o l
e c
en t</w>
e l
r a
# #
o m
a t</w>
' s</w>
i s
a ti
a c
s t</w>
a m
i s</w>
d e
l i
ai d</w>
f or</w>
s aid</w>
l o
# #</w>
n e
e d
o v
s h
e n</w>
a g
es day</w>
o p
l a
er s</w>
t s</w>
u s
ou n
p re
c e</w>
p ro
f i
c on
v e</w>
g h
w h
th at</w>
r b
m on
d i
rb -</w>
f f
a s
l y</w>
e m
w it
b e
s u
c om
wit h</w>
a f
l e</w>
t ed</w>
t er</w>
p o
e x
t u
m a
i st
s e
t h</w>
p or
l ea
er n
si d
ati on</w>
ti on</w>
l e
f or
h a
er e</w>
v i
on s</w>
b y</w>
m in
f ro
a b
fro m</w>
o ff
m ent</w>
th e
p e
l d</w>
s e</w>
r u
at e</w>
i t</w>
o c
w ed
p ar
d ing</w>
it s</w>
w e
t o
tu esday</w>
h as</w>
wed n
wedn esday</w>
ur s
w or
th urs
thurs day</w>
h is</w>
a d
re d</w>
t r
s p
f ri
it y</w>
off ic
pre sid
p ri
in t
mon day</w>
w as</w>
un k
il l</w>
p l
b u
unk ></w>
< unk></w>
- l
m il
p er
fri day</w>
a u
e ar
- r
s ec
l ed</w>
c i
p ol
q u
k e
c oun
es t</w>
i an</w>
a p
c o
min ist
af ter</w>
-l rb-</w>
-r rb-</w>
p u
on al</w>
fi r
i g
presid ent</w>
## #</w>
i a</w>
w ill</w>
ch in
g u
c h</w>
m ar
m o
b o
t ra
ne w</w>
k s</w>
offic i
w a
g ov
e st
ou t</w>
o w
ar y</w>
d u
d s</w>
t w
u .
t ing</w>
i gh
a in
gov ern
ou r
d e</w>
d er</w>
ea r</w>
a k
m e</w>
i r</w>
ar e</w>
m an
g e</w>
al s</w>
` `</w>
c or
d ed</w>
c u
on g</w>
m an</w>
i r
# .
t ur
re n
i c</w>
re por
li on</w>
govern ment</w>
i m
u. s
o re
m or
ic e</w>
the ir</w>
ati onal</w>
b e</w>
c l
s ed</w>
t er
f in
tw o</w>
ov er</w>
ha ve</w>
at ur
ou ld</w>
s un
s en
u.s .</w>
s ou
' '</w>
st r
at t
in g
b an
g i
n o
al l</w>
si on</w>
on e</w>
s er
d is
y ear</w>
th er</w>
e l</w>
h e</w>
e t</w>
r ou
er n</w>
c es</w>
e u
sun day</w>
wor ld</w>
ati ons</w>
an n
## ##</w>
s atur
c ent</w>
satur day</w>
chin a</w>
minist er</w>
u s</w>
i ti
w ere</w>
fir st</w>
t y</w>
com m
wh o</w>
h ere</w>
in e</w>
t ri
v er
th re
l ing</w>
o o
we e
for m
it ed</w>
s a
tr y</w>
l ar
an s</w>
or s</w>
eu ro
j u
st at
g en
k il
pe op
peop le</w>
ag ain
again st</w>
u p</w>
w ar
com p
in v
j o
n ed</w>
am p
mor e</w>
k ing</w>
ri c
re s
r an
f u
th is</w>
d ol
n or
c ed</w>
el ec
b l
ac k</w>
coun try</w>
c en
per cent</w>
ol d</w>
m e
c a
es e</w>
c al
b il
y ear
om e</w>
c al</w>
offici als</w>
er al</w>
ne w
g ed</w>
em b
e v
un ited</w>
h o
c y</w>
y ing</w>
h el
pol ice</w>
s ur
t e</w>
d ec
con t
k e</w>
ai r
lo w
gh t</w>
repor ted</w>
c lo
# -
at ed</w>
i ra
oun d</w>
en ts</w>
c ri
g e
f ore
st ate</w>
s on</w>
ex p
mil lion</w>
ag e</w>
es s</w>
h ea
k ed</w>
in to</w>
y s</w>
as s
p p
t en
ow n</w>
ti ons</w>
on om
i z
sh i
mil it
i es</w>
ch an
a in</w>
la st</w>
bu t</w>
be en</w>
m u
i d
o f
offici al</w>
de f
p h
n ing</w>
int ern
it e</w>
igh t</w>
l and</w>
p a
t e
am er
em ent</w>
th an</w>
ec onom
g o
is ra
un i
the y</w>
m is
is h</w>
s ti
an d
c re
g rou
c ar
r us
an t</w>
ha d</w>
ab out</w>
g er
#. ##</w>
intern ational</w>
st oc
amer ic
ou r</w>
b us
fore ig
e -
en d</w>
de m
w ould</w>
h u
i l</w>
ou s</w>
sou th</w>
t al
no t</w>
re c
thre e</w>
re s</w>
, ###</w>
form er</w>
f a
in ce</w>
v ic
stat es</w>
f l
c an
year s</w>
s ing</w>
s s</w>
foreig n</w>
st ri
m ed</w>
w i
ic h</w>
is t</w>
ec ted</w>
si an</w>
c ity</w>
wee k</w>
o ther</w>
an ce</w>
or y</w>
comp an
b ri
r y</w>
## -
s h</w>
f e
euro pe
g ra
v o
be t
ann oun
th ern</w>
europe an</w>
#. #</w>
ch ar
pri me</w>
wh ich</w>
pro v
c our
n ational</w>
m p
i d</w>
c ol
st e
kil led</w>
es ti
wh en</w>
mar ke
le g
p al
al ly</w>
m s</w>
c ap
d es
grou p</w>
#- #</w>
por t</w>
m ed
b el
f ac
h i
b r
milit ary</w>
en ti
v el
si g
in di
ri v
cl u
am e</w>
d o
p ea
m ov
h e
d own</w>
h igh
lar s</w>
sec ur
ov er
h er</w>
d ers</w>
dol lars</w>
p la
f t</w>
ti me</w>
n u
to day</w>
bil lion</w>
sec on
announ ced</w>
t ak
v e
wa y</w>
el l</w>
b er
of f</w>
g h</w>
ro w
at ing</w>
ing s</w>
new s</w>
ne x
si a</w>
re t
ac c
chin ese</w>
af ric
b ar
v en
en ce</w>
nex t</w>
h ou
b ec
us ed</w>
po in
g re
secur ity</w>
ban k</w>
ac cor
s ch
i e
op er
ira q</w>
re a
ti ve</w>
pri ces</w>
ur ing</w>
ch amp
it al</w>
ti es</w>
cour t</w>
ag en
re st
t ro
n a
il e</w>
champ i
b li
d er
g a
t ers</w>
we en</w>
b a
ist an</w>
p en
ar d</w>
t ea
bet ween</w>
wa r</w>
t a
an g
us e</w>
e g
ag re
pro t
l in
g est</w>
s y
au th
b or
la r</w>
f ed
def en
pu bli
publi c</w>
du c
re gi
st ern</w>
pal est
# ,###</w>
l an
iti es</w>
accor ding</w>
t ai
k ers</w>
k ore
palest in
t or</w>
as e</w>
mon th</w>
s ol
mo st</w>
f ran
pol iti
auth or
or g
v es</w>
p s</w>
compan y</w>
lea der</w>
- -</w>
par ty</w>
po si
v ing</w>
d uring</w>
s us
w om
ar m
americ an</w>
to p</w>
in d
ea st</w>
ma j
econom ic</w>
op en
s an
int er
o il</w>
agen cy</w>
ti c</w>
m i
s es</w>
is h
secon d</w>
ch ed</w>
en g
str al
shi p</w>
au stral
c ould</w>
ou t
ci al</w>
sp ec
s ome</w>
ai r</w>
d el
h ol
l u
f our</w>
k er</w>
stoc k</w>
e ff
tra de</w>
ke y</w>
qu ar
en t
b om
ti sh</w>
inv est
isra el
hea d</w>
cu p</w>
d ea
l at
uni on</w>
st ar
la w
su p
m at
l s</w>
th s</w>
m b
po w
## .
s ea
oo d</w>
tal ks</w>
marke t</w>
d y</w>
ter r
bri tish</w>
c ra
gen eral</w>
lo o
e p
m emb
lo cal</w>
d re
b ack</w>
fed eral</w>
em p
i al</w>
man y</w>
il i
cen tr
w est</w>
f ren
dem oc
cal led</w>
se t</w>
st ru
chan ge</w>
il ed</w>
su m
st s</w>
ser v
b as
ab le</w>
hou se</w>
s el
ac e</w>
a d</w>
pre s
b ro
pu bl
centr al</w>
t a</w>
on g
in de
c lea
a r</w>
poin ts</w>
sh o
l l</w>
bus h</w>
c k</w>
israel i</w>
clo sed</w>
po s
maj or</w>
ma y</w>
m en</w>
gu e</w>
fren ch</w>
h ong</w>
t on</w>
is l
k ong</w>
s co
s po
n ation</w>
d ra
tur e</w>
palestin ian</w>
tai w
f ol
p ak
th ou
al l
b ra
it al
ch ie
for e</w>
re lea
f re
o b
el e
be fore</w>
vi si
s al
org an
tea m</w>
de vel
fi ve</w>
b le</w>
an ts</w>
e t
am ent</w>
politi cal</w>
dec i
t ly</w>
w in
sou thern</w>
ic al</w>
g res
h ar
posi tion</w>
b i
author ities</w>
di ed</w>
t re
clea r</w>
low ing</w>
e red</w>
r on
pea ce</w>
il y</w>
n ations</w>
h ome</w>
ear ly</w>
wi th
y or
c ur
cap ital</w>
sec ret
nor th</w>
ec t</w>
prov ince</w>
rus sian</w>
tri es</w>
in du
cont in
af gh
g es</w>
ag o</w>
sus p
par t
at h</w>
t or
l ine</w>
r ai
h al
dol lar</w>
w at
enti al</w>
hel d</w>
con c
st u
el y</w>
isra el</w>
lea ders</w>
sid e</w>
m id
taiw an</w>
gh ts</w>
hi m</w>
lea st</w>
minist ry</w>
n ight</w>
par t</w>
yor k</w>
chie f</w>
cont ro
fin an
i or</w>
coun tries</w>
democ ra
h un
be g
th ir
l es</w>
mon ths</w>
si ve</w>
un der</w>
in cre
v is
th rou
g y</w>
t le</w>
o k</w>
u m</w>
ra tion</w>
f un
t ors</w>
re l
lo w</w>
op s</w>
pro duc
att ac
devel op
re cor
wh ile</w>
i f</w>
d en
al th</w>
c e
organ iz
y p
pla y
bu il
sec u
u l
jo h
re st</w>
defen se</w>
rus sia</w>
b ur
in clu
s oc
an ti
eff or
visi t</w>
s ince</w>
da ys</w>
c la
an s
kore a</w>
ch il
r ound</w>
ac h</w>
s o
g g
al i
am es</w>
terr or
bus in
a y
n o</w>
comm un
vi ol
wor k</w>
b all</w>
hel p</w>
elec tion</w>
is su
ati ve</w>
es s
y mp
afric an</w>
sh are</w>
st re
ex change</w>
lea gue</w>
regi on</w>
contin u
presid ential</w>
ist s</w>
b an</w>
nu clear</w>
le ft</w>
fin al</w>
inv esti
investi g
ma de</w>
w ea
ol ymp
at es</w>
sh a
g et</w>
c amp
op position</w>
si x</w>
nor thern</w>
op en</w>
the m</w>
h op
par li
throu gh</w>
exp ected</w>
g o</w>
il l
g row
si s</w>
spo k
clo se</w>
fran ce</w>
g lo
be ing</w>
t ory</w>
s n
ver s
w on</w>
ac k
w n</w>
m al
fol lowing</w>
g er</w>
t ou
h ig
am a</w>
re tur
v en</w>
sh ed</w>
de al
ea t</w>
tro ops</w>
de ath</w>
comm it
## #.##</w>
c s</w>
v ed</w>
for ces</w>
an g</w>
ger man</w>
war d</w>
m es</w>
d ru
ec u
he alth</w>
tra c
b al</w>
spok es
secret ary</w>
n er</w>
indi a</w>
c an</w>
repor t</w>
su l
f am
s o</w>
wom en</w>
kil ling</w>
u n</w>
li f
me e
wh ere</w>
high er</w>
ro ss</w>
stoc ks</w>
finan cial</w>
our n
arm y</w>
pp ed</w>
h am
pro gra
offic e</w>
or ge</w>
er ing</w>
vi sion</w>
s k
la un
tak e</w>
pl ans</w>
j e
sa ying</w>
ad minist
t es</w>
p e</w>
elec tions</w>
hig h</w>
cl ai
en s</w>
w in</w>
oper ation</w>
m us
da n</w>
publ ic
lar gest</w>
mee ting</w>
ira q
fu l</w>
a i</w>
econom y</w>
ar rest
fir e</w>
s w
in c
dis c
ge orge</w>
p .</w>
pak istan</w>
low er</w>
on es
lo y
ai g
ic i
o s
sh ar
is m</w>
emb er</w>
ind ones
med ia</w>
quar ter</w>
an other</w>
camp aig
b s</w>
a use</w>
st ed</w>
th ere</w>
ma in
bec ause</w>
u p
sol di
ri ghts</w>
sur e</w>
ne ar
thir d</w>
sig ned</w>
am b
m ents</w>
ro se</w>
br it
champi on
ol o
ed u
- old</w>
ju d
att ack</w>
l ate</w>
we stern</w>
n .</w>
d -
comm is
inclu ding</w>
con gres
sum m
sea son</w>
n '
n' t</w>
su b
sh ow
f our
for ce</w>
sen ior</w>
in ju
b en
ai l</w>
glo bal</w>
o se</w>
a il
se t
ea stern</w>
sa ys</w>
a sian</w>
vic tory</w>
ex ecu
arrest ed</w>
p as
at s</w>
d ent</w>
joh n</w>
ir an</w>
un der
a re
open ed</w>
en ded</w>
m ic
se ar
z a</w>
m as
it ing</w>
ph ili
u. n.</w>
wh at</w>
attac ks</w>
d ro
part ment</w>
pl an</w>
l l
pol ic
afric a</w>
deal ers</w>
fe ren
ex ic
iraq i</w>
wee k
m exic
bo o
am id</w>
isl am
h om
ch ing</w>
d an
pow er</w>
spokes man</w>
acc used</w>
cri sis</w>
memb ers</w>
cur ren
des p
ch n
t ain
c as
de n</w>
recor d</w>
por ts</w>
inde x</w>
austral ian</w>
sup port</w>
cor p.</w>
brit ain</w>
##. #</w>
lea d</w>
s our
fi gh
el l
f ound</w>
pre ss</w>
sti tu
cl int
afgh an
y -
pl an
re public</w>
afghan istan</w>
desp ite</w>
clint on</w>
ma in</w>
g ing</w>
stre et</w>
t ele
sh e</w>
mar k</w>
invest ors</w>
h it</w>
ru p
ger many</w>
to wn</w>
p op
c er</w>
d on</w>
phili pp
v el</w>
ma ke</w>
se e
n ear</w>
f oo
k en
t an
san ds</w>
st er</w>
democra tic</w>
agre ed</w>
repor ts</w>
al -
s la
di rec
## th</w>
k n
u al</w>
sp on
int e
thou sands</w>
no w</w>
relea sed</w>
ing ton</w>
b al
y u
ne t</w>
campaig n</w>
ur ged</w>
d o</w>
be i
g ames</w>
ish ed</w>
ci l</w>
de partment</w>
busin ess</w>
ca r</w>
coun cil</w>
en ding</w>
w il
ju st</w>
agre ement</w>
e i
de al</w>
cen ter</w>
oc i
re public
p ac
stru c
near ly</w>
t -
d om
year -old</w>
v ol
c ro
wor kers</w>
exp lo
administ ration</w>
te e</w>
tr ans
th ers</w>
char ges</w>
develop ment</w>
cri ti
to ok</w>
j ap
f ell</w>
st or
po sed</w>
t ru
a head</w>
## ,###</w>
a z
co a
w .</w>
pro f
d ence</w>
progra m</w>
pos si
cu l
on -
sh ould</w>
on ly</w>
c ru
austral ia</w>
fi el
wa sh
indi an</w>
s m
anti -
o m</w>
serv ice</w>
t ball</w>
bom b
olymp ic</w>
in a</w>
nor th
nu mb
b ig
pre mi
lea ding</w>
str y</w>
e y</w>
se p
sh or
leg al</w>
inju red</w>
ev en</w>
a ff
tra ding</w>
parli ament</w>
ic s</w>
j ing</w>
pre sen
euro pe</w>
r un
jo in
wh ite</w>
ar a
ar riv
us ing</w>
prot est
effor ts</w>
p ed</w>
mor ning</w>
ac ti
e p</w>
ru n</w>
si ons</w>
de red</w>
man ag
b id</w>
a di
sou th
b att
wash ington</w>
p i
ob ama</w>
o -
tri al</w>
t ar
## #,###</w>
f il
l on
n i
bor der</w>
new sp
m ur
ak e</w>
a th
g old</w>
indu stry</w>
newsp ap
bra z
re bel
im m
eg yp
g ar
v er</w>
bei jing</w>
commis sion</w>
es sion</w>
st -
ar ound</w>
de b
dre n</w>
chil dren</w>
la w</w>
hu man</w>
fi t</w>
d ic
vi e
se ven</w>
e th
fi c</w>
commit tee</w>
b eat</w>
w all</w>
ur y</w>
ac ross</w>
marke ts</w>
j i
pro secu
re cent</w>
te chn
at ors</w>
g ame</w>
k a</w>
sti ll</w>
sa y</w>
oun ded</w>
wom an</w>
con trac
ste m</w>
qu i
al li
g ain
compan ies</w>
d oc
o p</w>
ati on
s li
soldi ers</w>
j un
an y</w>
sha res</w>
e u</w>
iz ed</w>
war ned</w>
y a</w>
inc .</w>
se ver
lo c
hal f</w>
ec ts</w>
du e</w>
s on
c ing</w>
v al
t est</w>
c ase</w>
h ear
ne go
incre as
nego ti
pl ann
organiz ation</w>
por t
ho sp
c am
fi ed</w>
is land</w>
in es</w>
emp loy
d ly</w>
co ach</w>
c li
ke t</w>
t old</w>
b ill</w>
re ad
g r
v an
islam ic</w>
com e</w>
pu t</w>
mov e</w>
j an
ass oci
i ans</w>
feren ce</w>
sever al</w>
d ri
m et</w>
dru g</w>
re spon
beg an</w>
n s</w>
s ing
numb er</w>
en er
h ist
at or</w>
sho t</w>
b ab
em er
b re
ch ri
str ong</w>
c ou
wh e
for m</w>
susp ected</w>
g as</w>
co operation</w>
week end</w>
rebel s</w>
l ong
disc us
z e</w>
ne y</w>
m ag
pl ace</w>
congres s</w>
d i</w>
r e</w>
m er
ch air
dea d</w>
cu t</w>
ser ies</w>
champi on</w>
mat ch</w>
v y</w>
f ur
p ing</w>
com ing</w>
em s</w>
gi ant</w>
p at
o thers</w>
re li
pl om
di plom
p r
d a</w>
big gest</w>
mus li
e ight</w>
h an
lo s</w>
ti onal</w>
ang el
r i</w>
l ess</w>
sal es</w>
t ting</w>
u e</w>
n ig
tak ing</w>
le ban
americ a</w>
n am
be l</w>
lif e</w>
ad e</w>
ex per
r ate</w>
sen ten
sy stem</w>
o s</w>
ec h</w>
in s</w>
bo sn
l ong</w>
premi er</w>
al leg
b rea
t on
con ference</w>
wee ks</w>
ch e
bom b</w>
l it
ener gy</w>
pro vi
in fl
sep t
z e
pri son</w>
li ght</w>
bar ack</w>
n ov
star t</w>
ra ce</w>
t al</w>
lat est</w>
mid d
##. ##</w>
pa st</w>
f ood</w>
w al
ital ian</w>
eng land</w>
ec tion</w>
ap pe
newspap er</w>
ma ker</w>
f ra
k u
arriv ed</w>
oo l</w>
ga za</w>
viol ence</w>
en ing</w>
s qu
s ci
y o
lon don</w>
deci sion</w>
li er</w>
y an
can di
rec ei
kore an</w>
i e</w>
inte rest</w>
d in
d ou
com pe
sch ool</w>
w el
chair man</w>
dis pu
s af
candi da
grow th</w>
pri v
clu b</w>
su c
m ing</w>
p an
mal ay
ri s
f ron
re sul
lin es</w>
re main
tele vision</w>
st an
uni vers
ow n
ti ce</w>
b ag
whe ther</w>
b or</w>
read y</w>
jud ge</w>
stri ke</w>
g un
t our</w>
ad a</w>
ti mes</w>
contro l</w>
mexic o</w>
st ar</w>
s om
gu l
cal i
nig er
sour ces</w>
sh u
possi ble</w>
pro c
li ke</w>
pro fit</w>
ag es</w>
s em
ur e</w>
l er</w>
conc ern
vi et
me et</w>
tw o-
shi ps</w>
pa y</w>
sco red</w>
k y
bo th</w>
pla y</w>
am ong</w>
h er
ru ling</w>
a way</w>
ou s
a y</w>
bo ard</w>
b a</w>
retur n</w>
fac e</w>
co .</w>
ser ve</w>
hun dre
ch i
m it
h ur
g ers</w>
soc cer</w>
v ice</w>
open ing</w>
hundre ds</w>
s ri</w>
bas ed</w>
##- year-old</w>
memb er</w>
c o</w>
in j
m ea
n ings</w>
bu d
sear ch</w>
republic an</w>
t ain</w>
t om
s pe
da l</w>
b ac
i ous</w>
si st
thre at
tur key</w>
pro j
ri ght</w>
summ it</w>
ear lier</w>
inv ol
midd le</w>
e z
di st
in sur
relea se</w>
## #-
par ti
execu tive</w>
s il
ro c
ed ly</w>
w e</w>
invest ment</w>
da d</w>
d on
univers ity</w>
y oun
b ir
fi ght</w>
an -
fre e</w>
ab il
t ex
bec ome</w>
struc tion</w>
champion ship</w>
ch es</w>
g ol
spec ial</w>
r s</w>
sho w</w>
s an</w>
ho w</w>
att emp
con fir
# ,
coa st</w>
wi de</w>
mu l
an i</w>
pro mis
in d</w>
sen ate</w>
w ent</w>
ac tion</w>
c el
i -
al le
indu stri
go ing</w>
fam ily</w>
incre ase</w>
h old</w>
ban g
na to</w>
##- ##</w>
m oun
tur k
ital y</w>
techn olo
char ged</w>
t ourn
m ent
f al
mon ey</w>
laun ched</w>
ne t
ke ep
mar ch</w>
f ic
se par
ne igh
sp an
ti tle</w>
ev er</w>
sp ain</w>
with out</w>
our s</w>
us $</w>
d ents</w>
thre e-
sel f</w>
j a
an ian</w>
res ol
ea se</w>
prot est</w>
si c</w>
st ro
sp ace</w>
fur ther</w>
hosp ital</w>
li k
in form
ma king</w>
ze al
associ ation</w>
foo tball</w>
on ed</w>
ar med</w>
t ern
d riv
mis sion</w>
leg isl
milit ants</w>
ex ten
pres sed</w>
air port</w>
terror ism</w>
m un
an ese</w>
ma kers</w>
re fu
tourn ament</w>
rel ations</w>
ver y</w>
ara b</w>
ati c</w>
b ru
indones ia</w>
w r
inde pen
acti v
comp le
cali for
polic y</w>
se a</w>
le vel</w>
ro w</w>
j us
re presen
th ail
thail and</w>
st age</w>
wa ys</w>
m ir</w>
med i
e f</w>
c y
terror ist</w>
gen cy</w>
bo dy</w>
h ours</w>
re j
p ra
k o
ti n</w>
ous ly</w>
ro ad</w>
j er
pre vi
zeal and</w>
a sia</w>
n ia</w>
continu ed</w>
vi l</w>
law y
ed ged</w>
vic es</w>
h us
r a</w>
mu ch</w>
suc c
figh ting</w>
sh oo
wh ose</w>
vo te</w>
z im
s ent</w>
bag h
m c
philipp ine</w>
sh an
y en</w>
s it
gi ve</w>
ed ed</w>
or dered</w>
tr ying</w>
buil ding</w>
califor nia</w>
are a</w>
il ian</w>
jun e</w>
zim bab
su pre
wea p
ati ves</w>
pri ce</w>
re sid
b er</w>
t en</w>
fin ance</w>
pl ac
riv al</w>
musli m</w>
p ic
n ine</w>
bagh dad</w>
en ed</w>
z ens</w>
can ada</w>
la bor</w>
an a</w>
fu ture</w>
comm er
ch all
st ing</w>
st on</w>
fiel d</w>
wat er</w>
p ur
le y</w>
ea ch</w>
c ele
ai med</w>
bu l
pa ren
show ed</w>
set t
dem and</w>
lik ely</w>
fa iled</w>
bo di
e f
i o
ti an</w>
span ish</w>
di d</w>
ra di
w ell</w>
er ation</w>
en vi
mil li
ag ain</w>
turk ish</w>
ci v
b ol
na m</w>
grou ps</w>
vie w</w>
investig ation</w>
rea ched</w>
imm ig
alle ged</w>
pea ce
fun d</w>
envi ron
au l
ap prov
ir e</w>
qu ali
in e
v a
ta x</w>
indones ian</w>
plan e</w>
sch edu
tr ou
m a</w>
su ff
ci p
com pu
c is
fin als</w>
supre me</w>
v al</w>
s ession</w>
four th</w>
n ation
regi onal</w>
deci ded</w>
r ing</w>
x in
min u
vic ti
su pp
de man
sm all</w>
a h
angel es</w>
tal i
ju ly</w>
con vic
m en
ann ual</w>
out side</w>
b ia</w>
on e-
pro mo
w ounded</w>
j or
ear th
ici de</w>
b ian</w>
contrac t</w>
str ai
bi g</w>
l led</w>
da ily</w>
ma r</w>
s of
lo st</w>
a m</w>
or e</w>
hop es</w>
es ses</w>
stat ement</w>
de tain
ber t</w>
o t</w>
al y
s ame</w>
col om
compe ti
a sh
con sid
sig n</w>
can adi
v ill
viet nam</w>
h on
c ab
confir med</w>
re bel</w>
oun ds</w>
o on</w>
grow ing</w>
ci vil</w>
i i</w>
b ed</w>
con struction</w>
ic ations</w>
n ic
ser vices</w>
inter net</w>
ter m</w>
technolo gy</w>
fi f
in ing</w>
minist ers</w>
t est
u tion</w>
r ates</w>
effor t</w>
pas sen
o l</w>
win ning</w>
concern s</w>
st and
l and
afgh an</w>
con sum
u k
cu st
commun ist</w>
s au
ma y
weap ons</w>
p il
ad or</w>
si x
clai med</w>
tre at
su icide</w>
e ur
st ra
f el
w an
stru gg
ke ep</w>
mic ha
join t</w>
re gu
cri min
pak ist
m ac
re f
priv ate</w>
hu a</w>
g s</w>
mov ed</w>
bud get</w>
inform ation</w>
s we
gain s</w>
play ers</w>
m ate</w>
j ourn
st op</w>
res cu
ru s</w>
lan ds</w>
sup por
refu ge
b on
or der</w>
air s</w>
ic t</w>
c le
ste p</w>
med ical</w>
l y
su ch</w>
coun ter
e an</w>
or ity</w>
brea k</w>
micha el</w>
youn g</w>
en d
produc tion</w>
braz il</w>
pow er
e k</w>
s ite</w>
fe w</w>
d own
em ents</w>
z ed</w>
at lan
earth qu
as ked</w>
discus s</w>
ph one</w>
man u
plann ed</w>
di ff
m ight</w>
i ed</w>
car ri
hist ory</w>
oun ding</w>
jap an</w>
eur o</w>
to tal</w>
th en</w>
g ran
in ation</w>
yo u</w>
d ar
bre ak
il legal</w>
emer gency</w>
ch ur
th ing</w>
c ame</w>
k es</w>
gh ai</w>
i o</w>
b est</w>
high -
w ing</w>
c au
poin t</w>
p t</w>
a o</w>
ov ered</w>
in ed</w>
un ti
senten ced</w>
en ter
to ward</w>
ec e</w>
sy ri
t ch</w>
con fi
al ist</w>
da m</w>
ci es</w>
gen t
com b
s ses</w>
canadi an</w>
previ ous</w>
batt le</w>
gr and</w>
ag ed</w>
da ta</w>
i m</w>
unti l</w>
so on</w>
g round</w>
tur ned</w>
champion ships</w>
tex as</w>
d es</w>
con stitu
li ber
pre par
ir anian</w>
bro ad
du ce</w>
champi ons</w>
mur der</w>
lit tle</w>
f all</w>
b lo
je w
jus tice</w>
st ation</w>
c k
th ai</w>
er y</w>
sus pen
palestin ians</w>
ab l
de pu
ex pressed</w>
st ren
ar gent
ky o</w>
su res</w>
cri mes</w>
ro r</w>
k ar
h and
int en
dea dly</w>
to kyo</w>
f er
re serve</w>
pres sure</w>
xin hua</w>
proc ess</w>
stren g
radi o</w>
f loo
n is</w>
lan ka</w>
ro le</w>
al e
ver si
buil d</w>
cor rup
f e</w>
f ear
ar ds</w>
on es</w>
del eg
ri es</w>
ad es</w>
con fl
sau di</w>
c row
n a</w>
mis sing</w>
leban on</w>
de mon
pakist ani</w>
stri p</w>
lat er</w>
in stitu
direc tor</w>
pro ve</w>
shan ghai</w>
pro posed</w>
da vi
and a</w>
issu e</w>
th er
cor por
c ric
be h
issu ed</w>
s lo
jap anese</w>
edu c
con di
b led</w>
th ose</w>
com man
per io
af tern
terr it
ment al</w>
sci enti
la des
bang lades
aftern oon</w>
con dem
m yan
boo st</w>
f ar
represen t
stu dents</w>
kn own</w>
sept ember</w>
ear nings</w>
lo ss</w>
t el</w>
su per
se e</w>
i fic</w>
continu e</w>
dom in
s ad
la h</w>
zimbab we</w>
an aly
see king</w>
d l
mo sco
re su
fir m</w>
hea vy</w>
u el
egyp t</w>
prosecu tors</w>
myan mar</w>
co ali
coali tion</w>
ban ks</w>
c er
quar ter
fi red</w>
gul f</w>
n ers</w>
tali ban</w>
p er</w>
h ic
fa r</w>
n om
aff airs</w>
qu e</w>
ca re
fa il
ch a
st ati
r ally</w>
offic ers</w>
ga ve</w>
with in</w>
rai sed</w>
ru led</w>
thou gh</w>
law makers</w>
d r
beh ind</w>
h im
uk ra
resul ts</w>
stat e-
victi ms</w>
g ir
ha m</w>
-l ed</w>
stati sti
earthqu ake</w>
wor king</w>
al most</w>
perio d</w>
s s
du tch</w>
commun ity</w>
ent ary</w>
bl ack</w>
nam ed</w>
mosco w</w>
ca st</w>
fl u</w>
g ood</w>
po st</w>
c are</w>
par is</w>
schedu led</w>
p au
ci ti
vis iting</w>
rej ected</w>
air lines</w>
re ti
vi a</w>
saf e
des ig
americ ans</w>
del i
r ying</w>
mov ing</w>
u g
offic er</w>
ind ic
ven ez
cab in
cric ket</w>
candida te</w>
niger ia</w>
for ced</w>
a -
ac qu
f o
venez uel
issu es</w>
iz e</w>
abil ity</w>
cal ling</w>
pp ing</w>
al ong</w>
elec ted</w>
corrup tion</w>
r an</w>
g ri
ric t</w>
ow ned</w>
dl rs</w>
over y</w>
at eg
w ai
re qu
davi d</w>
g oo
pro pos
depu ty</w>
low ed</w>
con serv
jan u
ann i
m em
s l
acc ep
a red</w>
est abl
summ er</w>
er ship</w>
p al</w>
convic ted</w>
& amp
malay sia</w>
dom esti
fu l
y ed</w>
st ea
g l
oper ations</w>
c op
mu st</w>
strai ght</w>
con n
tu res</w>
c all</w>
ri sing</w>
dra w</w>
ti al</w>
sec tor</w>
parli am
recei ved</w>
ge org
i re
vo y</w>
is s</w>
dis ease</w>
al i</w>
ish ing</w>
hel ped</w>
cre di
pau l</w>
ro man
fil m</w>
war ds</w>
al ed</w>
ow ed</w>
t op
ri se</w>
si onal</w>
t ol
den ied</w>
ca used</w>
jo bs</w>
egyp tian</w>
al so</w>
ch er</w>
tou ri
n ess</w>
ve hic
pac ific</w>
negoti ations</w>
curren t</w>
janu ary</w>
ro bert</w>
fron t</w>
sett l
b le
ar s</w>
f res
on ce</w>
fear s</w>
domesti c</w>
wor th</w>
b loo
coun ty</w>
k os
industri al</w>
al low</w>
ad van
bu s</w>
mea sures</w>
t in
t elec
re al</w>
res s</w>
philipp ines</w>
x ed</w>
ham as</w>
mov ement</w>
ov o</w>
par k</w>
h or
off er</w>
ter min
t am
par ties</w>
jo in</w>
cabin et</w>
mas sive</w>
bomb ing</w>
rou ght</w>
tak en</w>
ch en</w>
al- q
an e</w>
pop u
fres h</w>
re r</w>
s ov
lo sses</w>
ro y
li m
pro bl
z one</w>
bu y</w>
au gu
chur ch</w>
p it
p ly</w>
four -
po st
fi gu
p lo
fl or
retur ned</w>
ass y</w>
publ ished</w>
detain ed</w>
h en
ne l</w>
pri son
kos ovo</w>
dispu te</w>
cul ture</w>
are as</w>
l in</w>
re ach</w>
gu n</w>
emb assy</w>
long -
id a</w>
ire land</w>
ca th
jo b</w>
dro pped</w>
wi fe</w>
probl ems</w>
l ist</w>
re search</w>
se in</w>
resid ents</w>
vers ary</w>
net work</w>
atur e</w>
tai pe
i ev
y an</w>
produc ts</w>
v e-
m p</w>
un g</w>
cra shed</w>
ar ab
nov ember</w>
olo g
elec tri
compu ter</w>
ac t</w>
ag ri
anni versary</w>
e es</w>
gen ce</w>
t v</w>
author ity</w>
fri en
gre ek</w>
re g
parliam entary</w>
k en</w>
ba y</w>
car rying</w>
it ar
govern or</w>
ch ic
au tom
may or</w>
laun ch</w>
wil li
ten nis</w>
exper ts</w>
ter ror</w>
f le
amb ass
p on
st er
b un
gu ard</w>
lar ge</w>
att or
po ten
manu fac
## s</w>
manag er</w>
soc ial</w>
thre at</w>
z amb
t t</w>
w id
taipe i</w>
bosn ian</w>
s can
pro gres
g a</w>
gu il
al ready</w>
u ation</w>
u m
statisti cs</w>
a pri
ev ent</w>
go sla
sw iss</w>
bil ity</w>
cra ft</w>
hus sein</w>
star ted</w>
flor ida</w>
yu gosla
su it</w>
cele br
pre v
oc to
ro b
tur n</w>
#, ###.##</w>
t able</w>
cen tur
ov ern
overn ight</w>
sur vi
er t</w>
ho st</w>
par ts</w>
in f
san c
attemp t</w>
safe ty</w>
provi de</w>
tra ining</w>
lea ving</w>
proj ect</w>
la di
ac coun
alleg edly</w>
im prov
gre ece</w>
olymp ics</w>
ar ti
octo ber</w>
s a</w>
ec ting</w>
for man
euro s</w>
jew ish</w>
au stri
mon y</w>
figu res</w>
pl ant</w>
ou gh</w>
increas ed</w>
sh ing</w>
stan ding</w>
sp ending</w>
z en</w>
bet ter</w>
f y</w>
beg in</w>
play er</w>
in iti
a vi
infl ation</w>
apri l</w>
centur y</w>
conc ern</w>
peace keep
yu an</w>
e ing</w>
threat ened</w>
go al</w>
t s
la red</w>
exp an
gi ous</w>
f light</w>
ac ci
lea ve</w>
sp ea
b loc
stu dy</w>
bec ame</w>
re cen
power ful</w>
bel iev
dec ades</w>
c z
c ement</w>
t el
inter ior</w>
him self</w>
credi t</w>
cas es</w>
b ase</w>
m .</w>
el li
s ell</w>
curren cy</w>
recen tly</w>
loo k</w>
si on
educ ation</w>
n ic</w>
k ur
braz ilian</w>
approv ed</w>
doc u
e vi
riv er</w>
im medi
war ning</w>
n as
hea d
jor dan</w>
per forman
ru g
ch ers</w>
fa v
fi ve-
st af
confl ict</w>
om ing</w>
r ats</w>
banglades h</w>
tra di
ath le
on ing</w>
succ ess
hom es</w>
str ateg
c ell
s ports</w>
neigh bor
gu er
chri st
li b
trou bled</w>
fed eration</w>
ar ms</w>
ri ll
re form</w>
s pre
fu ll</w>
cust om
cal ly</w>
air line</w>
eth nic</w>
at ely</w>
off en
deb t</w>
milli ons</w>
j am
tra vel</w>
run ning</w>
u l</w>
contro versi
chan ges</w>
f oc
i ri
democra cy</w>
gre at</w>
de l</w>
augu st</w>
gi ven</w>
p le</w>
ti ves</w>
hol i
ic k</w>
air craft</w>
tur al</w>
st ers</w>
dea d
s lu
f ying</w>
al e</w>
protest s</w>
diplom atic</w>
i b
ar ing</w>
ti cs</w>
popu lar</w>
al ity</w>
bosn ia</w>
ed s</w>
en cy</w>
o ol
ad vis
bil li
\ /
hol ding</w>
int elli
separ ati
competi tion</w>
u.s .
shar ply</w>
hu man
id enti
eng l
do es</w>
cam p</w>
## #.#</w>
o ts</w>
ve z</w>
ambass ador</w>
bac ked</w>
dist rict</w>
controversi al</w>
tra in</w>
hur ric
al ists</w>
pa y
in ning</w>
dec lared</w>
prof its</w>
br ing</w>
gh tly</w>
tri ed</w>
dec ember</w>
hear t</w>
mo d
rea ching</w>
li es</w>
for ward</w>
democ rats</w>
e ts</w>
cro ati
f f</w>
f -
im port
on a</w>
prev ent</w>
ev ening</w>
condem ned</w>
di vision</w>
deb ate</w>
consum er</w>
s par
staf f</w>
du ced</w>
v owed</w>
am i</w>
fu el</w>
mexic an</w>
deleg ation</w>
b la
sist ance</w>
ili ans</w>
cz ech</w>
j ail</w>
ren t</w>
insur ance</w>
an im
do zens</w>
se ized</w>
at eral</w>
bro ke</w>
u gh
ol ic</w>
be ating</w>
analy sts</w>
ad v
f is
employ ment</w>
suspen ded</w>
tar ge
intelli gence</w>
rai se</w>
lawy er</w>
vel y</w>
per s
go t</w>
ul ation</w>
pra c
po or</w>
por tu
re -
crimin al</w>
con duc
pre pa
chall en
h ard</w>
ch est
te red</w>
fir st-
to o</w>
plann ing</w>
ful ly</w>
at er</w>
ar rest</w>
ing ing</w>
sch ool
sur ve
ec t
ce re
respon si
sad dam</w>
hist or
ma h
bas ke
pl edged</w>
mi xed</w>
guil ty</w>
ar y-
t em
sen d</w>
confi dence</w>
fra u
ci ties</w>
al ban
m ou
tri bu
w ants</w>
all -
dro p</w>
gi ving</w>
cru de</w>
mul ti
tre as
sen .</w>
der ing</w>
w ood</w>
pl un
p un
milit ant</w>
def e
s er</w>
wai t</w>
ve ter
z h
su dan</w>
k ash
civ ilians</w>
ri ch</w>
care er</w>
se x</w>
sanc tions</w>
high est</w>
sh es</w>
cam bodi
ken ya</w>
wr it
cul tural</w>
en voy</w>
explo sion</w>
baske tball</w>
stor m</w>
a ver
qu es
c ism</w>
da m
&amp ;</w>
chan ged</w>
territ ory</w>
ap pea
vo ters</w>
mu sic</w>
ai ds</w>
rec overy</w>
a h</w>
- based</w>
ic it</w>
parti cip
clai ms</w>
k h
sea s</w>
ton y</w>
f la
sel ling</w>
wor st</w>
se ts</w>
guer rill
exp ect
commer cial</w>
char ge</w>
rescu e</w>
ran ts</w>
e qui
ic op
ass emb
li ghts</w>
y et</w>
h ill
o k
f esti
qu e
dis a
f oun
en ough</w>
tr an
f arm
ha ving</w>
ru le</w>
tur ing</w>
m y</w>
ch em
v ladi
chil d</w>
refuge es</w>
t age</w>
fun ds</w>
us es</w>
p ho
engl ish</w>
str ong
mis s
in k</w>
hel icop
g ian</w>
sec re
alleg ations</w>
st adi
s wit
hop e</w>
row n</w>
g n
vi r
appea red</w>
e qu
mp ed</w>
p ack
star ting</w>
evi dence</w>
south east</w>
pro per
dru gs</w>
in spec
su gg
im prove</w>
ap paren
vo ted</w>
play ed</w>
cu ba</w>
f iled</w>
us h</w>
z er
f at
ad op
al d</w>
sept .</w>
chri sti
st al
attor ney</w>
b rought</w>
fin ish</w>
pro -
gen er
sur pri
## ##s</w>
est ed</w>
ser ious</w>
ac u
a vo
te en
ke ts</w>
c at
a w
ri ed</w>
leban ese</w>
bo ok</w>
wit n
k o</w>
shoo ting</w>
bo ston</w>
minu tes</w>
infl u
p ati
tol l</w>
om e
le t</w>
se ven
diff e
ar t</w>
fac ing</w>
off ered</w>
col la
north west</w>
indepen dent</w>
fin d</w>
au g
v il
cri me</w>
p el
or din
sli ghtly</w>
b it
stru ck</w>
gov .</w>
ji ang</w>
re as
we igh
re b
s mo
ban king</w>
v ar
is e</w>
b and</w>
k an</w>
col l
ex tre
re form
c a</w>
re main</w>
tri p</w>
wan ted</w>
d ings</w>
in t</w>
vladi mir</w>
hea ded</w>
s wed
th -
scan dal</w>
er a</w>
re ven
up coming</w>
propos al</w>
ta x
politi ci
h our</w>
soldi er</w>
i v
b in</w>
quar ters</w>
p lea
im pl
alli ance</w>
n atur
d .</w>
it i</w>
ven tion</w>
s am
l a</w>
remain ed</w>
s in
cra sh</w>
reli ef</w>
is ed</w>
chic ago</w>
fe bru
le t
figh ters</w>
argent ina</w>
de termin
defen ding</w>
febru ary</w>
suppor ters</w>
georg ia</w>
tra vel
ra in</w>
for d</w>
wel com
g or
ass er</w>
manag ement</w>
malay sian</w>
h y
criti ci
wor l
de stro
plac ed</w>
stadi um</w>
bil e</w>
activ ists</w>
ne pal</w>
da te</w>
tr on
tam il</w>
bil ateral</w>
sp ir
f ans</w>
co st</w>
a k</w>
ne ed</w>
in ci
hu ge</w>
bo w
b ou
cal ls</w>
prot ect</w>
rug by</w>
regu lat
ch ec
th y</w>
pac t</w>
em en</w>
t as
l ou
ban ned</w>
ad d
rai sing</w>
n e</w>
n ar
indepen dence</w>
mis sed</w>
progres s</w>
tra ck</w>
tra f
reli gious</w>
hurric ane</w>
traf fic</w>
mas s</w>
ser b</w>
comman der</w>
no .</w>
ex ports</w>
co sts</w>
ti ger</w>
cla s
mit ted</w>
fif th</w>
da mag
un ity</w>
vi de
fac il
min ent</w>
employ ees</w>
aul t</w>
mo ham
environ mental</w>
posi tive</w>
th em
six -
performan ce</w>
ukra ine</w>
y ou
set ting</w>
see k</w>
represent atives</w>
s ex
counter part</w>
prov in
ti on
cath olic</w>
re new
inj uring</w>
k er
me dal</w>
ar af
sit uation</w>
rea u</w>
main land</w>
prot ection</w>
araf at</w>
s cal
loo king</w>
p aid</w>
col le
e very</w>
car s</w>
b ran
ro ad
inj ury</w>
frau d</w>
ed ge</w>
sour ce</w>
settl ement</w>
pop e</w>
maj ority</w>
t un
per son</w>
r y
wor ks</w>
secon d-
l en
des cri
swe den</w>
se y</w>
po se</w>
se en</w>
##- year</w>
sig n
p ment</w>
stre ets</w>
tu red</w>
w s</w>
scienti sts</w>
con clu
ag u
hill ary</w>
ro om</w>
st ly</w>
conserv ative</w>
pol and</w>
win ter</w>
remain s</w>
ru les</w>
o w</w>
sal e</w>
bu reau</w>
sa w</w>
sou ght</w>
r .</w>
ic k
ma dri
n ame</w>
g as
festi val</w>
protest ers</w>
over seas</w>
ph il
elec tron
pe tro
madri d</w>
ma d</w>
can cer</w>
y asser</w>
the red</w>
shi ite</w>
legisl ation</w>
stri ker</w>
s wee
et ary</w>
assemb ly</w>
mu gg
ci r
ne ver</w>
swed ish</w>
c oc
bo y</w>
with dra
miss ile</w>
natur al</w>
plan es</w>
shor t</w>
comp la
un it</w>
p ush</w>
l ling</w>
na vy</w>
ar i
ay ed</w>
prepa red</w>
a wa
## ,
secret ary-
ri ce</w>
ar ch
alli ed</w>
attac ked</w>
m ess
s mugg
condi tions</w>
cy cl
telec om
syri a</w>
pas sed</w>
pol ls</w>
welcom ed</w>
challen ge</w>
fi re
dea ths</w>
s or
ab du
passen gers</w>
ing ly</w>
or ial</w>
br inging</w>
un ve
secretary- general</w>
we ight</w>
colom bia</w>
dec ade</w>
colle ge</w>
mic ro
promo te</w>
mov ie</w>
al-q ai
mon it
qu o
vill age</w>
. ##</w>
am ed</w>
invol ved</w>
h and</w>
cla shes</w>
dam age</w>
demon str
sid es</w>
t esti
i et</w>
prosecu tor</w>
ban k
resol ution</w>
l t
c ea
au t
cas h</w>
promis ed</w>
def icit</w>
oun ce</w>
susp ects</w>
r o</w>
in o</w>
holi day</w>
join ed</w>
p ass
elec t</w>
alli es</w>
tea ms</w>
it er
bas e
comp ared</w>
re ve
lawy ers</w>
c le</w>
h i</w>
f lo
sov iet</w>
e ver
min e</w>
do g</w>
int ro
immig ration</w>
st ay</w>
separati st</w>
fu tures</w>
re duce</w>
eth i
th ese</w>
mon etary</w>
jo se</w>
go als</w>
b i</w>
str on
b at
de p
f lights</w>
base ball</w>
e e</w>
chest er</w>
an ia</w>
d ge</w>
witn esses</w>
att end</w>
th an
di vi
s old</w>
y el
niger ian</w>
m om
li ves</w>
ethi op
a v
kash mir</w>
li ving</w>
venezuel a</w>
au to</w>
n y</w>
gre en
congres sional</w>
gu ar
con sul
ath ens</w>
. m.</w>
ci a</w>
ris m</w>
chan cell
corpor ate</w>
ain ed</w>
cere mony</w>
oc cu
republic ans</w>
ch o
ref used</w>
mar y</w>
poten tial</w>
tou rism</w>
it h</w>
ass ass
candida tes</w>
secu ri
passen ger</w>
explo ded</w>
head quarters</w>
m er</w>
dispu ted</w>
fa ther</w>
south west</w>
h ran</w>
st and</w>
school s</w>
ma int
hea v
st .</w>
securi ties</w>
chancell or</w>
pu tin</w>
n er
ho tel</w>
tra ff
w ounding</w>
import ant</w>
dis h</w>
clo sing</w>
itar ian</w>
arab ia</w>
bu ying</w>
te hran</w>
rel ated</w>
ris k</w>
ap pro
bul gar
win ner</w>
dra ft</w>
p ounds</w>
ti c
aut onom
suff ered</w>
i ously</w>
sco t
to ge
s ar
ugh ter</w>
respon se</w>
ro d
pro mp
toge ther</w>
gu ang
ge red</w>
b ack
de va
frien dly</w>
st op
sen ding</w>
k i</w>
c yp
v a</w>
doc tors</w>
con go</w>
treat y</w>
lo sing</w>
bodi es</w>
to w
on line</w>
bar re
mo ther</w>
bur g</w>
hou sing</w>
cyp rus</w>
p over
chall eng
treat ment</w>
po sted</w>
e igh
iri sh</w>
sof t</w>
lin ed</w>
pla ying</w>
gun men</w>
ac a
ga thered</w>
e y
ri char
ni fic
or ies</w>
ne eded</w>
fam il
comb at</w>
viol ent</w>
al ty</w>
shu t
am s</w>
cu ts</w>
w oo
tru st</w>
investig ating</w>
vi rus</w>
t ag
citi zens</w>
iz ation</w>
m t</w>
colla p
criti cism</w>
in side</w>
al lowed</w>
j ury</w>
b ing</w>
tu al</w>
fac ed</w>
en ted</w>
f air</w>
dri ve</w>
cea se
defe ated</w>
vi ties</w>
supp ly</w>
oc key</w>
w ant</w>
m y
law s</w>
cap tain</w>
at ory</w>
ten sions</w>
al-qai da</w>
a g</w>
du m</w>
shar p</w>
wea ther</w>
m el
tru ck</w>
atlan ta</w>
investig ators</w>
agri culture</w>
x ing</w>
re vol
ge tting</w>
ic a</w>
bir d</w>
roy al</w>
pro spec
j ames</w>
t ons</w>
progra ms</w>
def eat</w>
nation wide</w>
minu te</w>
poin ted</w>
susp ect</w>
ol e</w>
re signed</w>
pri ze</w>
jer us
ale m</w>
bal lo
histor ic</w>
m as</w>
surve y</w>
man chester</w>
t ation</w>
jerus alem</w>
ser bia</w>
do m</w>
med ic
k id
sig nific
ug anda</w>
t y
chan ce</w>
il s</w>
believ ed</w>
worl d
pers onal</w>
cli mate</w>
swit zer
har d
bor n</w>
equi pment</w>
re ly</w>
fal ling</w>
c ross</w>
pre dic
i um</w>
cl er
resu me</w>
l ati
con tribu
mus eu
na z
famil ies</w>
ur al</w>
law suit</w>
cre ate</w>
mo tor</w>
fi g
switzer land</w>
kur dish</w>
ex -
res or
ri ch
critici zed</w>
clo ser</w>
m ass
expect ations</w>
sp r
traff ic
j .</w>
an y
j et</w>
sh el
reg ist
govern ing</w>
ku wait</w>
bomb ings</w>
enter pri
un employment</w>
sem i
squ ad</w>
it ation</w>
avo id</w>
th u
h ood</w>
le vel
cou ra
ab o
lea der
ap p
## #
fiel der</w>
ab or
ex hi
acci dent</w>
touri sts</w>
telecom mun
el i
ov e</w>
ta ke
govern ments</w>
north east</w>
stu dent</w>
sk i</w>
pack age</w>
bo y
da tion</w>
sig ns</w>
cis co</w>
proj ects</w>
s cor
bl air</w>
strugg ling</w>
c tion</w>
increas ing</w>
pl c</w>
clai m</w>
gra ph
le f
cour se</w>
b ern
lati n</w>
or ing</w>
f er</w>
war -
two- day</w>
qu esti
to m</w>
sp ent</w>
ex port</w>
bank rup
z y</w>
ir ates</w>
be an</w>
al a</w>
disa ster</w>
pro minent</w>
ra il
mat es</w>
po int
b rown</w>
carri er</w>
sy st
reform s</w>
ang ol
v is</w>
busin esses</w>
mil iti
## #.
n on-
commer ce</w>
ly wood</w>
pan el</w>
tra ders</w>
aca dem
prison ers</w>
el s</w>
iz ing</w>
op pon
jer sey</w>
le g</w>
deva stat
develop ing</w>
test s</w>
consid ering</w>
h it
immig rants</w>
cre w</w>
acti vities</w>
legisl ative</w>
n ec
per son
l i</w>
comm on</w>
ja iled</w>
al ing</w>
spe ed</w>
renew ed</w>
agen cies</w>
ie ty</w>
tan z
atlan tic</w>
bl ue</w>
offen sive</w>
cra ck
fin ally</w>
fig ure</w>
mar ks</w>
ke pt</w>
g ain</w>
ra d
dre w</w>
human itarian</w>
mo bile</w>
s at
gir l</w>
ro man</w>
tou gh</w>
p ap
st ake</w>
secre t</w>
leader ship</w>
proper ty</w>
show ing</w>
ger y</w>
sof tw
s le
ne ther
e ve</w>
g -
sing le</w>
inter view</w>
riv als</w>
consid er</w>
acc ess</w>
rec ession</w>
p c</w>
ric k</w>
res our
treas ury</w>
l ers</w>
spre ad</w>
cl in
##, ###.##</w>
oper ating</w>
scal e</w>
quali fying</w>
g y
beg inning</w>
bo t
se eded</w>
ore s</w>
pur ch
h ockey</w>
fis cal</w>
constitu tion</w>
exten ded</w>
c ks</w>
gre en</w>
j ac
al ex
trans port</w>
st an</w>
b c</w>
deman ded</w>
vehic les</w>
de ep</w>
softw are</w>
ec tive</w>
pol l</w>
ser iously</w>
world wide</w>
nether lands</w>
pat ri
g ary</w>
c ed
si di
execu tives</w>
commun ications</w>
le e</w>
guerrill as</w>
commis sion
al o
re view</w>
air e</w>
ab use</w>
l or
supp lies</w>
dou b
stri kes</w>
on to</w>
pu lled</w>
t yp
som e
ten s</w>
op ti
la u
er -
on- dollar</w>
kil ome
j acqu
v an</w>
en ces</w>
am oun
museu m</w>
invol ving</w>
out break</w>
fran cisco</w>
wa ve</w>
joh n
civ ilian</w>
ang er</w>
zamb ia</w>
be at
u ally</w>
it ors</w>
tri bun
st rea
devel op</w>
hom el
gra de</w>
lin ked</w>
ex er
regi me</w>
h all</w>
s -
s ac
n in
r are</w>
ad ver
contro lled</w>
ac tor</w>
off ering</w>
hel ping</w>
journ alists</w>
ba d</w>
pri x</w>
crack down</w>
en s
re sig
cru cial</w>
ac y</w>
pro ble
proble m</w>
ss -
ex c
bo at</w>
pol ish</w>
presid ency</w>
dou ble</w>
st y</w>
ab ove</w>
mou d</w>
ann an</w>
re feren
unve iled</w>
farm ers</w>
mon th
g ab
pro be</w>
s cre
si mp
ow ner</w>
fac es</w>
mis s</w>
rest ric
bor is</w>
hop ing</w>
en sure</w>
busin ess
mah moud</w>
ar m</w>
new ly</w>
helicop ter</w>
plun ged</w>
z z
l ic
al ger
in si
re vi
m ig
u es</w>
fa st</w>
is lands</w>
con secu
ow l
do or</w>
tin y</w>
y le</w>
ob serv
consecu tive</w>
richar d</w>
environ ment</w>
in -
plea ded</w>
sup er</w>
christ mas</w>
sh en
telecommun ications</w>
aver age</w>
ou l
dis missed</w>
exp and</w>
mar ine</w>
croati a</w>
autonom ous</w>
mil an</w>
th om
u res</w>
yugosla via</w>
advan ced</w>
vide o</w>
sur gery</w>
chem ical</w>
en coura
peacekeep ing</w>
re rs</w>
syri an</w>
hol lywood</w>
exer cis
st ability</w>
ca using</w>
gain ed</w>
pr ince</w>
do zen</w>
level s</w>
jacqu es</w>
col li
requ est</w>
diplom ats</w>
h ill</w>
neighbor ing</w>
of i</w>
exper i
comple ted</w>
commission er</w>
lo an</w>
er i
institu te</w>
veter an</w>
eng ine
co -
post p
conn ection</w>
star s</w>
driv er</w>
streng then</w>
sub sidi
min ing</w>
spea ker</w>
fic ation</w>
mar tin</w>
cli ents</w>
bl amed</w>
sp ring</w>
g an</w>
disc overed</w>
j ack
ber g</w>
polic ies</w>
abdu l
g al</w>
fu r</w>
fav or
syst ems</w>
shu t</w>
ben ef
fri end</w>
form ed</w>
olog ical</w>
le ar
en tion</w>
lt d.</w>
constitu tional</w>
resul t</w>
state- run</w>
k ofi</w>
we b
autom ak
d ur
ba r</w>
hal t</w>
austri a</w>
lan kan</w>
pen tag
ar gu
re spec
bec oming</w>
b ea
-r an
s cen
neigh b
li gh
in aug
g in
resol ve</w>
promis e</w>
cha vez</w>
mo tors</w>
docu ments</w>
immedi ate</w>
pentag on</w>
em an</w>
re gul
ra p
n ba</w>
ag ing</w>
han ded</w>
and re
re sear
colom bian</w>
wa ke</w>
ap pointed</w>
ad ded</w>
hu go</w>
tor n</w>
vehic le</w>
ever y
sel ves</w>
i on</w>
fre ed
sa ch
cambodi a</w>
tar get</w>
o t
s cra
mi ke</w>
j ones</w>
mil es</w>
enterpri ses</w>
spe ech</w>
refuge e</w>
wat ch
break ing</w>
- up</w>
m ail</w>
opti mis
ne eds</w>
resor t</w>
bar ak</w>
se v
c over
r allied</w>
ste ps</w>
direc t</w>
dec line</w>
re co
la y</w>
three- day</w>
threat ening</w>
w o</w>
inte rest
wat ers</w>
foc us</w>
ab and
ste el</w>
y ang</w>
them selves</w>
fam ous</w>
u t
thir d-
ti gh
su dan
in sul
wea k</w>
ch i</w>
continu ing</w>
del ayed</w>
h k</w>
tem por
sev ere</w>
hear ing</w>
a ward</w>
tele phone</w>
separ ate</w>
p air</w>
il ing</w>
r on</w>
k ing
shor e</w>
christi an</w>
micro soft</w>
referen dum</w>
gol f</w>
al though</w>
pat ro
sudan ese</w>
sat ell
ad di
on ia</w>
o dy</w>
de ta
han ds</w>
s en</w>
op ing</w>
in come</w>
inju ries</w>
at trac
can cel
mar ked</w>
fail ure</w>
con dol
portu gal</w>
curren cies</w>
susp ici
ran t</w>
bi tion</w>
stor ies</w>
d y
clas sic</w>
car ib
avi ation</w>
dar fur</w>
c amer
sk i
f .</w>
carib bean</w>
organ is
ea s
nic ol
li ve</w>
pe ter</w>
est s</w>
fail ing</w>
mc ca
produc er</w>
ch u
prepar ing</w>
ha iti</w>
blo ck</w>
mag az
che chn
re ig
on going</w>
n at
thre ats</w>
chechn ya</w>
p y
char les</w>
bo b</w>
fin ished</w>
organiz ers</w>
pop ulation</w>
spec i
buil t</w>
insur gen
tradi tional</w>
journ alist</w>
roman ia</w>
t i</w>
be t</w>
ben ch
organiz ations</w>
terror ists</w>
ad o</w>
er ial</w>
ter ms</w>
apparen tly</w>
al ties</w>
as sistance</w>
di e</w>
mo stly</w>
leg ally</w>
f em
re mo
w er</w>
goo ds</w>
manufac tu
wil d
as si
r aid</w>
ad mitted</w>
fir ms</w>
mo der
diplom at</w>
resour ces</w>
dep loy
ber to</w>
adv ance</w>
stat us</w>
adver ti
k ic
v in</w>
af p</w>
pati ents</w>
ca use</w>
vi c</w>
oc ean</w>
broad ca
gre w</w>
touri st</w>
defen ded</w>
su bur
senten ce</w>
sha re
mcca in</w>
descri bed</w>
n es
h att
to -
bel ie
t g
por ted</w>
paren ts</w>
mo tor
for um</w>
pp er</w>
commit ted</w>
quali fi
musli ms</w>
t .</w>
sk y</w>
desig ned</w>
ra c
we alth</w>
strateg y</w>
a war
prac tice</w>
ag ents</w>
mess age</w>
ir y</w>
ab b
te en</w>
tri g
gre ater</w>
rod ham</w>
ic ul
ti m
pl es</w>
ex tra
cu ban</w>
ass ault</w>
car los</w>
as sets</w>
add ress</w>
-r ound</w>
ste pped</w>
b o</w>
deman ding</w>
cer tain</w>
it self</w>
qu ick
ac qui
me ters</w>
diff icul
abo ard</w>
o v</w>
willi ams</w>
ad el
provin cial</w>
ba y
ed ing</w>
tribun al</w>
f are</w>
carri ed</w>
we b</w>
on y</w>
cu tting</w>
stea d</w>
re comm
nor way</w>
ba i</w>
att led</w>
ha pp
at ol
li ft</w>
bl ack
spokes woman</w>
b low</w>
ish ment</w>
fel low</w>
sa ve</w>
w ind
da ughter</w>
b ad
eli min
in ated</w>
gu ards</w>
bench mark</w>
b is
st al</w>
###. ##-
ow s</w>
sen ti
v ac
tu ally</w>
bankrup t
o il
da vis</w>
an der</w>
ar sen
u ti
sci ence</w>
di stri
reven ue</w>
po sing</w>
tr a</w>
prof es
en tered</w>
cro s
st a
distri bu
oun ced</w>
-l ong</w>
tran si
north eastern</w>
f ou
res sed</w>
e c</w>
en for
tal k</w>
bom bs</w>
pres ent</w>
im posed</w>
ad ed</w>
nicol as</w>
in stead</w>
man hatt
lu x
b it</w>
lif ted</w>
ar ies</w>
s low
be gun</w>
som al
mun ici
ser bian</w>
lo ans</w>
politi cs</w>
b each</w>
re duc
me da
manhatt an</w>
po ol</w>
s port</w>
prof it
identi fied</w>
com mon
stal led</w>
: ##</w>
sh oc
exten d</w>
cli mb
ev acu
k im</w>
ap point
regulat ors</w>
mat ches</w>
port ation</w>
abdul lah</w>
ch en
destro yed</w>
ag ent</w>
sh op
de ep
freed om</w>
watch dog</w>
responsi ble</w>
resig nation</w>
ed a</w>
euro #</w>
ec tions</w>
take over</w>
ques tions</w>
p ace</w>
n t
b last</w>
an o</w>
ur ging</w>
e z</w>
bon ds</w>
deci de</w>
att le</w>
d ong</w>
mp ing</w>
f ea
ret ail</w>
form ul
ser ving</w>
j i</w>
dan ger
del ay</w>
g ent</w>
mb led</w>
over all</w>
ken yan</w>
accor d</w>
ga y</w>
quick ly</w>
on d</w>
spar ked</w>
k at
r at
moun tain</w>
do w</w>
exhi bition</w>
vic e-
sel f-
lin ks</w>
offici ally</w>
form ally</w>
cou p</w>
cri p
soc i
pri mary</w>
roc ket</w>
c e-
al lowing</w>
dead line</w>
re ment</w>
x i</w>
bankrupt cy</w>
mid fielder</w>
re n</w>
re place</w>
petro le
g ore</w>
to b
don ald</w>
c old</w>
bel gi
c iting</w>
viet nam
vo ting</w>
st aged</w>
sy d
ro ck</w>
g mt</w>
ho stage</w>
sit es</w>
succ ess</w>
driv ing</w>
divi ded</w>
cla sh</w>
ec ti
a wards</w>
willi am</w>
pow ers</w>
ak es</w>
val ue</w>
ra y</w>
ab road</w>
ma chin
yugosla v</w>
col in</w>
low s</w>
pen alty</w>
th o
remo te</w>
sem i-
increas ingly</w>
ven ture</w>
ti cal</w>
j an</w>
t ab
run s</w>
dec lar
car go</w>
ho u</w>
surpri se</w>
im ports</w>
success ful</w>
di g
v i</w>
dra m
di alo
pur su
z en
approv al</w>
im pact</w>
ex am
m ist
ex pl
s ons</w>
lar g
north western</w>
syd ney</w>
l un
insurgen ts</w>
hus band</w>
let ter</w>
squ are</w>
ou sted</w>
de ten
politici ans</w>
es cal
criti cal</w>
elec tor
ser bs</w>
s c
sea t</w>
acc using</w>
bo eing</w>
moun tain
mor oc
t ech</w>
kid n
own ers</w>
bel gian</w>
g le</w>
long er</w>
clai ming</w>
air ways</w>
state- owned</w>
v ement</w>
am o</w>
saf e</w>
ed y</w>
barre l</w>
mo on</w>
men tal
recor ds</w>
ch el
f bi</w>
vietnam ese</w>
m ated</w>
quo ted</w>
t sun
consum ers</w>
traffic king</w>
bl es</w>
u.s. -
f ru
ken ne
att ention</w>
austri an</w>
survi v
electri city</w>
no bel</w>
k az
ch -
six th</w>
one- day</w>
land mark</w>
a ur
su st
magaz ine</w>
sex ual</w>
y a
show s</w>
high way</w>
op port
ail ing</w>
. #</w>
re qui
sw imm
venezuel an</w>
cau ti
hea ds</w>
sy n
conduc t</w>
ber lin</w>
ac tive</w>
liber ation</w>
k y</w>
dis rup
abb as</w>
jud ic
cancel ed</w>
nt $</w>
al an</w>
vol ati
as sa
tra ded</w>
cla ss</w>
accep t</w>
de t
bri dge</w>
s .</w>
au di
at om
bel ow</w>
pu shed</w>
pover ty</w>
co ordin
fem ale</w>
con vention</w>
por ting</w>
o red</w>
sh e
year -
re m
chan nel</w>
x i
ri gh
swe pt</w>
stop ped</w>
j r.</w>
com pl
end or
ti e</w>
ne g
ac tions</w>
appe al</w>
custom s</w>
je ts</w>
car ol
y our</w>
n i</w>
k ind</w>
in ian</w>
corpor ation</w>
inter im</w>
cele bra
argent ine</w>
satell ite</w>
ran ge</w>
uni ons</w>
i z</w>
invol vement</w>
electri c</w>
mac ed
administ ra
foo t</w>
la ke</w>
out put</w>
belgi um</w>
suff ering</w>
l ack</w>
ts in</w>
or ig
contrac ts</w>
yel tsin</w>
electron ics</w>
judic ial</w>
a chi
hol ders</w>
immedi ately</w>
p ain
e h</w>
gi ants</w>
sp end</w>
of ten</w>
ra cing</w>
re ver
rad ical</w>
la den</w>
or ders</w>
v es
somal ia</w>
deten tion</w>
re in
withdra w
hou ses</w>
bomb er</w>
co oper
resear chers</w>
dialo gue</w>
el ing</w>
fore cast</w>
sal v
beat en</w>
row ing</w>
pre li
preli min
comple te</w>
car ry</w>
throu gh
gu an
sig ning</w>
ha ul</w>
sur ged</w>
esti mated</w>
j ak
emb ar
au ction</w>
petrole um</w>
su red</w>
elector al</w>
fac tory</w>
leg is
legis lat
comp ens
an th
produc t</w>
i tion</w>
postp oned</w>
dic k</w>
ar iz
cau ght</w>
reve aled</w>
nor we
formul a</w>
k ans
col or
cust ody</w>
sen ator</w>
offic es</w>
ten ed</w>
blo c</w>
wor ries</w>
k in
b ly</w>
tw ice</w>
figh ter</w>
stu di
mid -
con si
il legally</w>
s ara
mo squ
secon ds</w>
que en</w>
reti red</w>
est ate</w>
k ab
d oping</w>
h ow
bo ys</w>
ti st</w>
techn ical</w>
ter ing</w>
benef its</w>
l ity</w>
newspap ers</w>
rest aur
kans as</w>
you th</w>
se l</w>
k ill</w>
ev ents</w>
we red</w>
assass ination</w>
develop ed</w>
fi er
f a</w>
thou ght</w>
ent al</w>
r ural</w>
diffe rent</w>
down town</w>
c ell</w>
signific ant</w>
hol y</w>
ch ile</w>
cap e</w>
bloo d</w>
far m</w>
thom as</w>
co al</w>
atom ic</w>
l es
ack n
cre ated</w>
teen ag
pol lu
re pe
st ory</w>
me ter</w>
n .
ha iled</w>
ackn owl
represent ative</w>
exp ects</w>
dan i
mar king</w>
f ern
john son</w>
###.##- ###</w>
es p
m ol
ir ing</w>
ste ve</w>
pil ot</w>
deman ds</w>
south eastern</w>
che chen</w>
h il
ter y</w>
spo t</w>
iv ory</w>
car d</w>
activ ist</w>
c over</w>
adel ph
g la
dic t
ap ped</w>
euro ##</w>
euro ###</w>
keep ing</w>
mor tg
de tro
nom ination</w>
#. ###</w>
d or
expan sion</w>
all en</w>
boy co
##- #</w>
peacekeep ers</w>
w ell
conclu ded</w>
con v
ra f</w>
ti v
investig ate</w>
manufac turing</w>
consi dered</w>
h l</w>
recei ve</w>
vo ic
st e</w>
cas u
prelimin ary</w>
pr in
t ack
mar ri
ac ting</w>
l us
cro ss-
administra tive</w>
po st-
a sion</w>
ic an</w>
r w
hea ding</w>
soc iety</w>
tro p
y ers</w>
strong ly</w>
insi sted</w>
p h</w>
en ter</w>
resu med</w>
taiw anese</w>
pu tting</w>
for cing</w>
su s</w>
i x</w>
he z
enfor cement</w>
diffe ren
shar on</w>
sel y</w>
re sistance</w>
test ing</w>
dan ish</w>
cou ple</w>
strateg ic</w>
pro bab
ch ira
si m
le -
adelph ia</w>
pre -
pas s</w>
mac ao</w>
chira c</w>
possi bility</w>
appe ar
stro ke</w>
acc us
lim ited</w>
vi an</w>
pre ced
#, ###-
tan amo</w>
guan tanamo</w>
bel ar
ad ding</w>
peace ful</w>
ukra inian</w>
it or</w>
acc o</w>
st un
en i</w>
gran t</w>
withdraw al</w>
ru b
fore st</w>
alban ian</w>
h o</w>
sar ko
sarko zy</w>
er up
vo tes</w>
st ood</w>
sach us
mas sachus
hez bol
swee ping</w>
ess or</w>
detro it</w>
boo sted</w>
massachus et
c .</w>
den mark</w>
ai rb
do ing</w>
in qu
ben e
oper ator</w>
ni k
k now</w>
to wards</w>
trop ical</w>
bri ef
hou ston</w>
he al
through out</w>
ran gers</w>
o '
massachuset ts</w>
addi tional</w>
ent -
re fl
da y
hu t
sli de</w>
achi ev
pho to
initi al</w>
st a</w>
k a
sur ge</w>
guar an
e ez
person nel</w>
probab ly</w>
mu shar
sol ution</w>
secon d
shut tle</w>
cap tured</w>
y i
per u</w>
em irates</w>
phil adelphia</w>
ph y
dec lined</w>
oppon ents</w>
intern al</w>
alex ander</w>
sl am
i de
targe ts</w>
tob acco</w>
gu age</w>
ph arm
norwe gian</w>
ug an
mushar raf</w>
g ged</w>
o se
fre ed</w>
enter tain
al ized</w>
ra v
pi pel
al ert</w>
stor e</w>
ar ta</w>
ugan dan</w>
doc tor</w>
in king</w>
k ne
smugg ling</w>
jan .</w>
agri cultural</w>
retur ning</w>
naz i</w>
ri ot</w>
an ton
with draw</w>
f ishing</w>
vis ited</w>
awa ited</w>
arsen al</w>
ques tion</w>
ter -
hezbol lah</w>
cre d
per man
sing er</w>
sur r
f s</w>
#- year-old</w>
set tle</w>
sep h</w>
jo seph</w>
belie ve</w>
dis sid
j a</w>
ju mped</w>
lin er</w>
hur t</w>
st ages</w>
is la
p ga</w>
mass ac
g il
ch e</w>
h ai
fin ed</w>
adop ted</w>
tanz ania</w>
th an-
establ ish</w>
b .</w>
week ly</w>
cy pri
semi finals</w>
m al</w>
cir cu
ang ry</w>
jor dan
wor ked</w>
-l ar
ru c
fif a</w>
sy m
ti bet</w>
per vez</w>
jam in</w>
ben jamin</w>
fl ag
volati le</w>
than ks</w>
adv oc
yan ke
eff ect</w>
br on
min ority</w>
s in</w>
bon d</w>
se em
ar i</w>
a eda</w>
bloc ked</w>
mem orial</w>
her o
fa shi
danger ous</w>
fin land</w>
zh en</w>
regi ons</w>
pow ell</w>
cont ain
z hou</w>
inv est</w>
sp i
tax es</w>
ne pal
criti cs</w>
b es
st ores</w>
se ed</w>
sur ing</w>
jack son</w>
extre m
vi du
h ag
fin ding</w>
ver sion</w>
h u</w>
pl us</w>
re ser
bro ken</w>
automak er</w>
custom ers</w>
jak arta</w>
em is
s low</w>
er o
h an</w>
under -
ra ther</w>
scot land</w>
south western</w>
coun t</w>
rest ruc
stand ards</w>
mea sure</w>
ain e</w>
ari el</w>
w ic
pal ace</w>
ba h
kn oc
demonstr ators</w>
val ley</w>
k ok</w>
wat ch</w>
rest ore</w>
de st
ma sters</w>
gen oci
devastat ing</w>
z ing</w>
loo ked</w>
el son</w>
gran ted</w>
industri es</w>
senti ment</w>
emb attled</w>
p .m.</w>
invest or</w>
posi tions</w>
amb iti
th ink</w>
bl u
an ci
remain ing</w>
bulgar ia</w>
ariz ona</w>
a si
mi ami</w>
ai de</w>
floo ds</w>
rel atives</w>
impl em
a ding</w>
com es</w>
pro duce</w>
oil -
tur ning</w>
fou ght</w>
a u</w>
ag gres
g ren
appe als</w>
phy si
g ang</w>
celebr ated</w>
ba by</w>
frien ds</w>
loc ked</w>
shen zhen</w>
un less</w>
de but</w>
n igh
damag ed</w>
com pos
pl ed</w>
ho p</w>
som ali</w>
ve red</w>
ke l</w>
rec overed</w>
ethiop ia</w>
portu gu
et ings</w>
mu barak</w>
gen .</w>
defen der</w>
# n
bu ff
strea k</w>
ab u</w>
angol a</w>
st ations</w>
kaz ak
hon or</w>
maint ain</w>
da ll
av ail
re v
st ration</w>
qualifi er</w>
jo e</w>
vie ws</w>
indi vidu
strugg le</w>
secur e</w>
rel ation
bro ther</w>
polic emen</w>
common wealth</w>
le y
militi a</w>
lo b
reco gn
p in
l ings</w>
trans fer</w>
-lar gest</w>
buil dings</w>
boo ks</w>
v acc
f ear</w>
ret ail
exp en
ent ly</w>
agre ements</w>
us ual</w>
announ ce</w>
trig gered</w>
tor ies</w>
pu l
ev o</w>
than- expected</w>
foun dation</w>
bar cel
profes sional</w>
c overed</w>
ic ation</w>
genoci de</w>
ati s
a c</w>
dem ic</w>
an atol
rail way</w>
en try</w>
er ate</w>
streng th
lou is</w>
inaug ur
concern ed</w>
barcel ona</w>
q at
ho sn
coa stal</w>
commit ment</w>
pl ants</w>
hosn i</w>
join ing</w>
hop ed</w>
part ner</w>
memb ership</w>
low est</w>
carol ina</w>
le gen
b es</w>
y er</w>
c able</w>
plo t</w>
responsi bility</w>
inten si
awar ded</w>
and y</w>
streng th</w>
lic en
p es
crow d</w>
improv ed</w>
ex changes</w>
collap se</w>
es sed</w>
b y
pharm ac
nec ess
gor don</w>
and -
restric tions</w>
z er</w>
gu es</w>
struc ture</w>
ro me</w>
amoun t</w>
dall as</w>
ba il
spec ulation</w>
neighb ors</w>
fl ying</w>
k i
som eth
trans portation</w>
mar ath
war ming</w>
op ec</w>
fiel ds</w>
e hu
wh el
h a</w>
announ cement</w>
web site</w>
gg ing</w>
rw anda</w>
bang kok</w>
us -led</w>
f ly</w>
g one</w>
jordan ian</w>
mid east</w>
someth ing</w>
u mb
u.s. -led</w>
condi tion</w>
- fire</w>
ing -
fin e</w>
activ ity</w>
presen ce</w>
ob j
athle tes</w>
ra ins</w>
democra t</w>
zimbab we
lib ya</w>
fu ll
guang dong</w>
v ati
slam med</w>
con fron
portugu ese</w>
sugg ested</w>
o gra
b ai
shor t
provi ding</w>
nas a</w>
fran k
vati can</w>
accep ted</w>
clea red</w>
comm and</w>
b ak
cycl ing</w>
anton io</w>
a p</w>
presen ted</w>
high ly</w>
law maker</w>
ste ph
g am
e ful</w>
stea dy</w>
surviv ors</w>
bow l</w>
rai l</w>
low -
ehu d</w>
telec om</w>
bo xing</w>
mil ose
wel come</w>
p raised</w>
milose vic</w>
tradi tion</w>
foun der</w>
thre w</w>
ju an</w>
ol ine</w>
lo t</w>
purch ase</w>
str ing</w>
o u</w>
up set</w>
color ado</w>
king dom</w>
qu ality</w>
con sol
sm ith</w>
sing a
strong er</w>
re iter
presid ent-
croati an</w>
israel is</w>
it es</w>
consul t
serv ed</w>
kil ogra
vol un
explo si
lor d</w>
h #n
part n
h#n #</w>
sel s</w>
out look</w>
academ y</w>
over whel
form ing</w>
un preced
anci ent</w>
bloo dy</w>
stand ard</w>
quarter finals</w>
moder ate</w>
reti rement</w>
larg ely</w>
stoc k
avail able</w>
u de</w>
mp tion</w>
determin e</w>
w o
fun ding</w>
g al
institu tions</w>
unpreced ented</w>
marath on</w>
as y
eez za</w>
as k</w>
s ab
re sign</w>
os ama</w>
st one</w>
condol eezza</w>
lo ve</w>
fier ce</w>
sh ad
no thing</w>
j uni
domin ated</w>
j ack</w>
president- elect</w>
col um
tsun ami</w>
cease -fire</w>
prospec ts</w>
lan ding</w>
provi ded</w>
gab e</w>
how ard</w>
sh ak
propos als</w>
discus sed</w>
g ro
am p</w>
slo bo
prac ti
pu shing</w>
san k</w>
emer ged</w>
shu i-
bir th
cla shed</w>
lo ck</w>
abor tion</w>
partn ership</w>
slobo dan</w>
appear ance</w>
tou gh
chi p</w>
shui- bian</w>
est ing</w>
s ars</w>
t edly</w>
ow ing</w>
lef tist</w>
ar ily</w>
n it
mov es</w>
sh ei
li t</w>
comple x</w>
ber y</w>
qu it</w>
mu gabe</w>
me etings</w>
prepar e</w>
coc aine</w>
on aire</w>
pipel ine</w>
gas oline</w>
g on
vol u
break away</w>
agen da</w>
or ation</w>
gir ls</w>
st ric
wor k
gen eration</w>
kilome ters</w>
ch ry
st yle</w>
adverti sing</w>
ira cy</w>
est er
da r</w>
al-q aeda</w>
kne e</w>
bu t
fea red</w>
ear th</w>
lu m</w>
hun gary</w>
es sing</w>
chri s</w>
vir gin
politici an</w>
na val</w>
app ear</w>
b ound</w>
sw ine</w>
fi res</w>
mis sil
eg o</w>
wil ling</w>
pen insul
peninsul a</w>
inqu iry</w>
at ures</w>
part ners</w>
it a</w>
b en</w>
vi o</w>
deta ils</w>
a de
exercis e</w>
fi del</w>
ir a</w>
gra du
associ ated</w>
ah med</w>
em e</w>
apparen t</w>
seven -
d pr
hear d</w>
con ven
improv ing</w>
bit ter</w>
chi ps</w>
sub st
h ang</w>
fa x</w>
f ish
roc ked</w>
ren a</w>
predic ted</w>
writ er</w>
mod ern</w>
dpr k</w>
wh y</w>
four th-
en a</w>
ac t
ed ging</w>
le ts</w>
inclu de</w>
win ds</w>
tur mo
wid es
ec i
chel sea</w>
wides pre
widespre ad</w>
oc t.</w>
ho t</w>
f led</w>
difficul t</w>
bou ght</w>
autom o
w a</w>
turmo il</w>
nom ine
cler ic</w>
parti cu
homel and</w>
v ers</w>
val u
recor ded</w>
visi ons</w>
rec ru
z am
pi on
si mil
relation ship</w>
ed ict</w>
pu ll</w>
comm ents</w>
our ing</w>
in st
aff ected</w>
pa r</w>
iraq is</w>
gol den</w>
ch ain</w>
s ler</w>
pres sing</w>
heav ily</w>
accus ations</w>
sp y</w>
tur n
por e</w>
missil es</w>
k h</w>
k ings</w>
casu alties</w>
s now</w>
sco res</w>
regist ered</w>
sid el
cont est</w>
th ering</w>
y ah
fre e
pil ots</w>
mortg age</w>
cu s</w>
it als</w>
wor ker</w>
ta y
as sist
p aul
do d
ti t
cur b</w>
organiz ed</w>
def end</w>
broad cast</w>
ne u
n elson</w>
poten ti
long- term</w>
agre e</w>
righ t-
x vi</w>
mu tual</w>
gi es</w>
tea m
roman ian</w>
f l</w>
tri bal</w>
off s</w>
contin ent</w>
suspici on</w>
sch e</w>
appe aled</w>
road s</w>
int ended</w>
munici pal</w>
str an
virgin ia</w>
legisl ature</w>
business man</w>
bir th</w>
patro l</w>
lif ting</w>
- taking</w>
bi o
top -
wil d</w>
numb ers</w>
singa pore</w>
indic ted</w>
or an
sti c</w>
favor ite</w>
con i</w>
mosqu e</w>
kil ler</w>
yanke es</w>
ro ger</w>
ac ted</w>
mu si
l o</w>
e j
den ver</w>
perman ent</w>
repor tedly</w>
del a
bis hop</w>
ra ti
su n</w>
ra in
continu es</w>
##- day</w>
prof ile</w>
kic ked</w>
u z
dec .</w>
optimis m</w>
di ego</w>
c air
seven th</w>
negoti ators</w>
ham id</w>
er ra</w>
chry sler</w>
h oo
explosi ves</w>
es sions</w>
pl at
ker ry</w>
fern and
swimm ing</w>
occu p
t ren
third- quarter</w>
facil ities</w>
f c</w>
moun ting</w>
interest s</w>
d one</w>
inci dent</w>
st ret
reiter ated</w>
z em
anti cip
fal ls</w>
lar ly</w>
zimbabwe an</w>
ef a</w>
dani el</w>
pro duced</w>
shar ing</w>
je an-
floo ding</w>
ce ed</w>
cre ating</w>
clo sure</w>
heav y
ben edict</w>
celebr ate</w>
st able</w>
kab ul</w>
invest ments</w>
ex ist
re conc
potenti ally</w>
# :##</w>
hea t</w>
pharmac eu
ne tan
vil le</w>
u efa</w>
cambodi an</w>
athle tics</w>
si erra</w>
reser ves</w>
c off
boyco tt</w>
over ing</w>
ti ght</w>
esp eci
differen ces</w>
p ed
coun ter</w>
ta r</w>
var ious</w>
rou te</w>
o d
especi ally</w>
dis arm
tak es</w>
establ ished</w>
exper t</w>
promp ted</w>
over haul</w>
occu pi
be y
il a</w>
n on
shop ping</w>
lux ury</w>
la st-
se attle</w>
b on</w>
tim or</w>
cle an</w>
tas k</w>
b id
en jo
hom e
in ts</w>
driv ers</w>
ble w</w>
hi jac
af fir
pic ked</w>
bol i
bur un
inv itation</w>
mer ger</w>
ex tra</w>
entertain ment</w>
s man</w>
an a
un rest</w>
tea chers</w>
ov a</w>
im port</w>
re- election</w>
airb us</w>
s wor
isla m</w>
fashi on</w>
wid ely</w>
ac ts</w>
ti s</w>
pres sion</w>
facil ity</w>
floo d</w>
vis itors</w>
crow ded</w>
profit -taking</w>
compens ation</w>
play off</w>
lus coni</w>
billi ons</w>
ber lusconi</w>
repor ters</w>
po p</w>
a side</w>
l am
ju mp</w>
in al</w>
dram atic</w>
a x
advis er</w>
fun eral</w>
travel ing</w>
sa v
regu lar</w>
har v
hun ting</w>
stand off</w>
w ang</w>
bo x</w>
z ai</w>
gain ing</w>
ir o</w>
mar ched</w>
fle w</w>
n ish</w>
ke vin</w>
an tly</w>
in nings</w>
yah u</w>
netan yahu</w>
k istan</w>
sil vio</w>
bac king</w>
k rem
simil ar</w>
ph y</w>
cypri ot</w>
roc kets</w>
re plac
rus h</w>
ra fa
appe ars</w>
or ia</w>
woo ds</w>
min d</w>
g ates</w>
sm all
marri age</w>
a be
ri o</w>
scen e</w>
ou l</w>
m it</w>
voic ed</w>
foreig ners</w>
wel fare</w>
ho sti
nov .</w>
gre at
da ted</w>
f ed</w>
crow n</w>
w ol
m our
belar us</w>
kenne dy</w>
l y-
ur an
st ol
hit ting</w>
j int
eff ective</w>
jint ao</w>
ea sed</w>
occupi ed</w>
ev a</w>
cease fire</w>
p ound</w>
chan ces</w>
pre ven
eas y</w>
co m</w>
re fin
road side</w>
promis ing</w>
bu ried</w>
va st</w>
kil lings</w>
as ean</w>
fernand o</w>
dr .</w>
hosp ital
re moved</w>
success fully</w>
ge ts</w>
bro ad</w>
ed -
un its</w>
shor tly</w>
fa st
hol der</w>
indi es</w>
rav aged</w>
de struction</w>
li ver
deli vered</w>
electron ic</w>
anatol ia</w>
py ong
hand ling</w>
con f
sur ren
cho ice</w>
batt ered</w>
inv asion</w>
cair o</w>
g ate</w>
d est</w>
accoun ting</w>
th row</w>
sli pped</w>
asy lum</w>
mun ich</w>
f ili
n fl</w>
ethiop ian</w>
confl ic
pyong yang</w>
tion ary</w>
sh r
previ ously</w>
el led</w>
go al
test ed</w>
re move</w>
intro duced</w>
bac ks</w>
wal es</w>
jud ges</w>
anim al</w>
ali ve</w>
zem in</w>
su d
influ ence</w>
massac re</w>
kar zai</w>
da wn</w>
ar ri
well -
disc overy</w>
climb ed</w>
zamb ian</w>
b our
tack le</w>
ken ed</w>
anti- government</w>
off set</w>
n ames</w>
gu i
des ert</w>
laun ching</w>
w en</w>
rel ess</w>
produc ers</w>
form al</w>
re construction</w>
ji m</w>
ic ally</w>
soci alist</w>
bey ond</w>
op in
long time</w>
necess ary</w>
ma kes</w>
tri l
hal f-
be ef</w>
initi ative</w>
s u</w>
mb ling</w>
re duced</w>
re e</w>
four- day</w>
ga r</w>
re vis
liver pool</w>
accoun t</w>
georg ian</w>
mo del</w>
neighbor hood</w>
net works</w>
bri ef</w>
weigh ted</w>
r wan
war- torn</w>
z i
po is
inv ited</w>
an ces</w>
p sy
pat rick</w>
islam ist</w>
rwan dan</w>
c pc</w>
act ress</w>
h si
tru ce</w>
ho stages</w>
o ta</w>
. j.</w>
confi dent</w>
gu ine
uran ium</w>
qat ar</w>
mar i
wh it
im age</w>
w to</w>
re gar
com e
man del
-r un
krem lin</w>
g ation</w>
a .m.</w>
ili ation</w>
cop e</w>
y emen</w>
sun ni</w>
manu el</w>
den ounced</w>
maced onia</w>
attemp ts</w>
ap e</w>
pop ul
inspec tors</w>
determin ed</w>
t amp
cle ar
so aring</w>
eigh th</w>
ecu ador</w>
du bai</w>
re marks</w>
as king</w>
acknowl edged</w>
sing les</w>
share holders</w>
main ly</w>
pi er
inter fax</w>
## ##-
fat al</w>
d d
ga thering</w>
colli ded</w>
cre ation</w>
in ter</w>
s atis
scor ing</w>
pa ying</w>
extre mis
f ish</w>
as h</w>
fran k</w>
milli on-dollar</w>
consol i
ide a</w>
presid ents</w>
gr at
im prison
helicop ters</w>
stri king</w>
is ol
bil ls</w>
dis crimin
lin ing</w>
chie fs</w>
pollu tion</w>
vie w
so ared</w>
hol dings</w>
fav or</w>
un changed</w>
restruc turing</w>
fe et</w>
dig ital</w>
chan ging</w>
mil e</w>
fir ing</w>
nin th</w>
compos ite</w>
bloc k
sen ators</w>
wal k</w>
scienti fic</w>
seem ed</w>
questi oned</w>
del ta</w>
# \/
ay an</w>
teenag er</w>
wit ness</w>
he igh
fish er
om s</w>
fl at</w>
eng ine</w>
wa iting</w>
two- year</w>
juni or</w>
fore ca
finan cing</w>
shoo t
b bed</w>
the ater</w>
s wi
t emp
chu an</w>
op posed</w>
believ es</w>
g ross</w>
extrem ists</w>
reb ound</w>
wor ried</w>
lo se</w>
guerrill a</w>
com promise</w>
birth day</w>
a .</w>
u li
wat ched</w>
hu i</w>
h .</w>
ev en
sa r</w>
slu mp</w>
compu ters</w>
s elected</w>
fla g</w>
promo ting</w>
plac es</w>
sen si
five- year</w>
pen ding</w>
ear ned</w>
col umb
ag ers</w>
k ir
b ail</w>
' re</w>
##- month</w>
qu ick</w>
bulgar ian</w>
sch ol
provin ces</w>
ne sty</w>
n an
con ver
am nesty</w>
nar row
compe te</w>
de als</w>
qui et</w>
full -
dis appoint
un anim
mar ines</w>
im pose</w>
b all
wal ked</w>
bo ss</w>
clo sely</w>
y ester
cooper ate</w>
s son</w>
ad ul
em or
arri ve</w>
vo ice</w>
enter ing</w>
trou ble</w>
plo tting</w>
gon z
d p</w>
se ats</w>
w ra
w age</w>
ra mp
establ ishment</w>
bail out</w>
ra m
erup ted</w>
ru m
me tro
revi ve</w>
st abil
enti re</w>
g amb
der ly</w>
med iter
cl ar
al berto</w>
str o</w>
&amp ;
v ak
yester day</w>
sov e
sove reig
j our
att ered</w>
ap ping</w>
victi m</w>
sch eme</w>
quarter -
alger ia</w>
min nes
boo sting</w>
revol u
olog ists</w>
expan ding</w>
lim it</w>
fu gi
e v</w>
mom ent</w>
ck y</w>
mon gol
goo d
possi bly</w>
f ted</w>
schedu le</w>
mediter ran
am ing</w>
kat r
tril lion</w>
tamp a</w>
se oul</w>
fun da
tu s</w>
me ans</w>
auth or</w>
strugg led</w>
m ir
billi on-dollar</w>
sti mul
fu j
t y-
en ix</w>
ep i
- off</w>
lan guage</w>
ex clu
sp lit</w>
jun ta</w>
fin nish</w>
exp ect</w>
d ow
keep er</w>
pic k</w>
jew s</w>
ha w
sk ating</w>
reconc iliation</w>
moun t</w>
ca stro</w>
ar n
st le</w>
o hi
ch oo
win d</w>
w rec
bun des
### th</w>
sn ow
arm en
ten sion</w>
sco tt</w>
manufactu rer</w>
ur ban</w>
bel grade</w>
acqui si
acc el
vill ages</w>
minnes ota</w>
ing er</w>
de ut
mediterran ean</w>
disarm ament</w>
cal m</w>
premi ership</w>
per su
multi -
fam ili
pho enix</w>
li ed</w>
dis closed</w>
al es</w>
ohi o</w>
bel l</w>
katr ina</w>
ordin ary</w>
protest ed</w>
re p.</w>
bor ders</w>
tow ns</w>
strai t</w>
th ings</w>
al ways</w>
pay ments</w>
ex press</w>
ju ven
first- quarter</w>
em o
acqu ire</w>
near by</w>
z u
ch amb
####- ####</w>
att ended</w>
stra tions</w>
char ac
sh in
ky r
fac tion</w>
di am
bl ed
g row</w>
loo ks</w>
it ual</w>
st ressed</w>
uti lity</w>
monit oring</w>
vi k
suspen sion</w>
al ize</w>
nigh t
lea gues</w>
inclu ded</w>
sil ver</w>
f ate</w>
on- year</w>
fil led</w>
w on
advan tage</w>
un likely</w>
bro kers</w>
mat eri
slow down</w>
e m</w>
deleg ates</w>
re pu
dict ator</w>
se qu
hon dur
regul ations</w>
ad s</w>
me t
par am
pil gri
an j
aband oned</w>
vol can
bar ri
ba sis</w>
li sted</w>
ed er</w>
demon stration</w>
recei ving</w>
medic ine</w>
kyr gy
ju li
fire fighters</w>
emer ging</w>
de par
shei kh</w>
viol ations</w>
ment -
air ports</w>
ser ge
char ity</w>
subsidi ary</w>
lib eral</w>
l ag
d h
aug .</w>
restaur ant</w>
repor ting</w>
gu at
assist ant</w>
broadca sting</w>
a da
ha ps</w>
ri s</w>
min or</w>
j ar
r ating</w>
nation als</w>
guat em
en ds</w>
particip ate</w>
ov ers</w>
bri an</w>
tru cks</w>
sur plus</w>
of -
la dy</w>
t ted</w>
ap pl
gl oria</w>
to yo
mar t
it ary</w>
in fra
im um</w>
deut sche</w>
mo di
li thu
famili ar</w>
k -
dro ve</w>
ah ma
jo int
camp s</w>
ov ic</w>
con su
kazak h
y em
con voy</w>
ab duc
m o</w>
se ems</w>
ti m</w>
d '
wor ds</w>
th or
stron au
bene fit</w>
a stronau
im f</w>
co sta</w>
j es
un cer
attemp ted</w>
vers y</w>
st ab
contro versy</w>
ic ks</w>
mandel a</w>
ren ce</w>
cros sing</w>
u el</w>
protest ing</w>
heavy weight</w>
deal ing</w>
cauti ous</w>
dis play</w>
challeng es</w>
lib yan</w>
kazakh stan</w>
guine a</w>
nik ke
sara j
prosecu tion</w>
kilogra ms</w>
az er
spec t
hen ry</w>
or i
ma ster
sen g</w>
shoo k</w>
c c</w>
accoun ts</w>
hosp itals</w>
war nings</w>
mor gan</w>
di c</w>
l or</w>
uz be
sear ching</w>
pre hen
moroc co</w>
ar do</w>
shor t-
ri ots</w>
eigh t-
per haps</w>
hun t</w>
chil ean</w>
v in
vik tor</w>
ra ces</w>
off shore</w>
j as
olo gy</w>
an t
wh om</w>
banglades hi</w>
sp ur
exten ding</w>
tempor ary</w>
inf ected</w>
sett led</w>
come back</w>
per f
lan ded</w>
tempor arily</w>
k m</w>
high- level</w>
questi oning</w>
fo x</w>
bur gh</w>
christ op
z ha
pol is</w>
man ila</w>
la bor
toyo ta</w>
bas que</w>
h is
pi ece</w>
pac ked</w>
g ad
deli ver</w>
slo vak
sho p</w>
dod gers</w>
monit or</w>
du ty</w>
oc au
hol ocau
saraj evo</w>
ma u
fe b.</w>
ph ase</w>
rec over</w>
aw i</w>
car din
burun di</w>
tro phy</w>
so x</w>
ej ad</w>
din ejad</w>
demon strations</w>
driv en</w>
p p</w>
col on
ga ret
b hut
su its</w>
ea sing</w>
res tive</w>
ahma dinejad</w>
see ing</w>
kn ess</w>
sho ts</w>
zam bi
ci garet
meda ls</w>
l as</w>
a partment</w>
prepar ations</w>
rai ds</w>
ti bet
prin cip
indic ated</w>
cl ou
ti le</w>
econom ies</w>
clu bs</w>
stol en</w>
cover age</w>
ed ition</w>
lin k</w>
flo or</w>
in n
bro thers</w>
up on</w>
n ai
ar roy
nepal i</w>
nomine e</w>
fourth- quarter</w>
bal ance</w>
l aid</w>
alger ian</w>
rec overing</w>
le one</w>
arroy o</w>
testi fied</w>
revol ution</w>
bu l</w>
fat ah</w>
si ze</w>
hun ger</w>
f ile</w>
surr ounding</w>
cra ck</w>
sp ac
mountain s</w>
suppor ting</w>
c em
equ ity</w>
simp son</w>
exp la
angel a</w>
mat erial</w>
experi ence</w>
steph en</w>
sub j
doub t</w>
de fi
govern ment-
s and
pl edge</w>
lu is</w>
second- quarter</w>
fel d</w>
z o
om ar</w>
beg ins</w>
evacu ated</w>
writ ten</w>
suppor ted</w>
represen ting</w>
ambiti ous</w>
min es</w>
ent ation</w>
execu ted</w>
-l ine</w>
wa ste</w>
el d</w>
organis ation</w>
discus sions</w>
li est</w>
curren tly</w>
ro ll</w>
g est
hun gar
hou se
fac tions</w>
scot tish</w>
promp ting</w>
declar ation</w>
cle vel
slo ven
d ance</w>
respec t</w>
three- year</w>
repor ter</w>
lo t
ale x</w>
far -
## ##-##</w>
bl an
w im
for t</w>
explo sions</w>
holocau st</w>
en em
bran ch</w>
survi ved</w>
ex por
nor mal</w>
de plo
clevel and</w>
veter ans</w>
we st
shi p
gi uli
mar t</w>
volu me</w>
n es</w>
af ter
hop eful</w>
s and</w>
mat ter</w>
k an
azer bai
os car</w>
ger hard</w>
dis ci
no tor
mod est</w>
l ending</w>
de ter
cen ters</w>
ab led</w>
ist an
s burg</w>
to tal
con grat
compla ints</w>
uni versi
rus si
stor ms</w>
al tern
##- hour</w>
am end
gun s</w>
conduc ted</w>
del hi</w>
com prehen
ch os
pre sti
ak i</w>
opport unity</w>
targe ting</w>
dissid ent</w>
conc ert</w>
bel ong
d ying</w>
ur gent</w>
rescu ed</w>
pap er</w>
ey e</w>
c el</w>
ro eder</w>
el ed</w>
br and</w>
de gre
alban ia</w>
wim bled
wimbled on</w>
sa il
low ers</w>
ai des</w>
opin ion</w>
bo x
comb ined</w>
abe th</w>
des per
chec k</w>
ill ness</w>
re y</w>
po ised</w>
mov ies</w>
ep tion</w>
israel i-
h ear</w>
fra g
moham med</w>
in su
cour ts</w>
under standing</w>
go es</w>
zambi que</w>
month ly</w>
mo zambique</w>
fi a</w>
deploy ed</w>
sol ve</w>
particu larly</w>
gu id
goo gle</w>
ris ks</w>
materi als</w>
de e
dra wing</w>
disci pl
al co
or tho
j en
istan bul</w>
down turn</w>
n ative</w>
j on
d son</w>
tan ks</w>
vi er</w>
att ending</w>
eff ects</w>
ar ts</w>
for tun
every thing</w>
pe ter
hero in</w>
f it
appro a
territ ories</w>
sensi tive</w>
ou ts</w>
fur t</w>
euro zone</w>
d rought</w>
citi zen</w>
ab sen
dist ance</w>
tran sp
individu al</w>
wor d</w>
ur u
la kers</w>
quarter back</w>
tor ture</w>
pre ci
pan ic</w>
un usual</w>
param il
de rer</w>
batt les</w>
expan ded</w>
el ite</w>
wea ker</w>
tel ling</w>
stron gh
tu mbled</w>
n hl</w>
marke ting</w>
lit er
u pper</w>
tu m</w>
pass ing</w>
m -
k .</w>
rescu ers</w>
insur gency</w>
eff ici
emis sions</w>
infra structure</w>
ed itor</w>
h ance</w>
wa y
t led</w>
sp ra
mu d</w>
el iz
sh ire</w>
jam a
ul ti
sch roeder</w>
k i-
joh ann
comm emor
ballo ts</w>
#\/ #</w>
le w
f an</w>
tor onto</w>
en hance</w>
susp end</w>
su ed</w>
j az
deploy ment</w>
sp ill</w>
any one</w>
tem per
ret re
revolu tionary</w>
fol lowed</w>
law ed</w>
wat er
dr c</w>
g en</w>
ortho do
min ers</w>
b p</w>
in ations</w>
uru gu
war planes</w>
ic on
hol e</w>
detain ees</w>
appro ach</w>
negoti ator</w>
ta int
her o</w>
je an</w>
mag nit
joint ly</w>
dee pen
commun ities</w>
execu tion</w>
oper a</w>
pre gn
frank furt</w>
fast est</w>
targe ted</w>
ph ones</w>
testi mony</w>
swee p</w>
cont ain</w>
pharmaceu tical</w>
do ors</w>
-ran king</w>
me ant</w>
nation alist</w>
us ers</w>
fl u
le on
yem eni</w>
stor med</w>
n an</w>
el derly</w>
d u</w>
u r</w>
fol low</w>
negoti ating</w>
particip ation</w>
celebra tions</w>
bol ster</w>
al om</w>
c in
b rus
#. #-
h as
mer kel</w>
dis ney</w>
chen ey</w>
sh im
t ell</w>
neg ative</w>
brief ly</w>
tea cher</w>
rai ded</w>
coll ection</w>
show down</w>
ki- moon</w>
an ing</w>
ten se</w>
in ner</w>
dro pping</w>
cu mb
tar i
d un
gen e
##. ###</w>
spe ed
comprehen sive</w>
w u</w>
orthodo x</w>
mo tion</w>
eliz abeth</w>
ar ran
on ian</w>
mur dering</w>
si zed</w>
finan ci
scor e</w>
taint y</w>
pit ts
co s</w>
ab uses</w>
sy l
stimul us</w>
us ually</w>
dol e</w>
prof essor</w>
influ en
il le</w>
hospital ized</w>
e .</w>
and re</w>
tra g
z ar
purch as
polic eman</w>
manag ed</w>
le ans</w>
inten se</w>
dra ma</w>
## st</w>
ra cial</w>
ac eh</w>
mic hel
with drew</w>
sol id</w>
bri ght</w>
cali f.</w>
cor respon
produc ing</w>
be st-
sec tion</w>
a stro
li ved</w>
n ur
photo graph
ku wa
hol ds</w>
cor rec
inn oc
chec k
ex tradition</w>
pro ce
no te</w>
ok la
hun d
rafa el</w>
t an</w>
unk n
epi demic</w>
columb ia</w>
subst anti
in mates</w>
bern ard</w>
smo king</w>
tas s</w>
pri est</w>
open er</w>
observ ers</w>
mo sle
gun man</w>
pl ing</w>
influ ential</w>
mosle m</w>
po ses</w>
scre en</w>
g all
cru ise</w>
int ing</w>
comm u
so red</w>
s amp
wr ong</w>
typ ho
ti ed</w>
no -
shoc k</w>
li e</w>
we aring</w>
us -
ver dic
co w</w>
shi pping</w>
h at
ou tra
j ur
billi onaire</w>
tic ket</w>
c ann
tel s</w>
pitts burgh</w>
vol ley
sa o</w>
manufactu rers</w>
mon ten
ta ji
d anger</w>
ballo t</w>
slovak ia</w>
or leans</w>
bal i</w>
gh am</w>
ff s</w>
re tali
monten eg
g in</w>
chos en</w>
y un
collap sed</w>
volley ball</w>
la shed</w>
g ang
r ing
li ga</w>
ur a</w>
bur ned</w>
legislat ors</w>
tan k</w>
is tic</w>
kuwa iti</w>
jus ti
bus y</w>
the -
man n</w>
pol e</w>
announ cing</w>
d rea
min g
direc tors</w>
i an-
sub way</w>
s ma
intro duce</w>
devastat ed</w>
sugg esting</w>
liber ia</w>
y n
int eg
increas es</w>
homel ess</w>
ven ue</w>
per u
co w
ann a</w>
pr inc
hom a</w>
si er</w>
practi ces</w>
extra d
d ha
z he
hungar ian</w>
brus sels</w>
sh oul
recomm ended</w>
pers ons</w>
f ill</w>
h amp
al as
ba sh
ac ks</w>
win ners</w>
stric ken</w>
sust ained</w>
si ght</w>
prospec t</w>
ans wer</w>
ves sel</w>
f ame</w>
angol an</w>
la i</w>
to x
bhut to</w>
a \/
sla in</w>
h ind
pro- democracy</w>
foc used</w>
th ak
l is
fle et</w>
contro ls</w>
ol dest</w>
t ear</w>
stran ded</w>
fugi tive</w>
ph il</w>
p ath</w>
hi red</w>
f ab
un identified</w>
#, ###.#</w>
ol mer
olmer t</w>
s cru
hund red</w>
gra ve</w>
volun te
under ground</w>
four- year</w>
s ain
bal kan</w>
anim als</w>
a b</w>
ref using</w>
okla homa</w>
thak sin</w>
th rowing</w>
a us
rap id</w>
p le
ch ron
- tass</w>
high- tech</w>
clas si
retur ns</w>
con sp
ti gers</w>
giuli ani</w>
l ess
fe ature</w>
s lowing</w>
swor n</w>
moham mad</w>
itar -tass</w>
retail er</w>
eu p</w>
ri d
n urs
cen ts</w>
dra wn</w>
implem entation</w>
pu er
ol a</w>
neigh bor</w>
dela ys</w>
pl agu
bur y</w>
st o</w>
lear ned</w>
sec tors</w>
pic ture</w>
op ol
glo be</w>
v or
lew is</w>
engine ering</w>
wh ole</w>
unkn own</w>
over come</w>
reas ons</w>
princ ess</w>
li qu
public ly</w>
ha r</w>
wi reless</w>
spon sored</w>
y ard</w>
spr int</w>
mar ia</w>
uncer tainty</w>
un beaten</w>
stra in</w>
s ound</w>
me tal</w>
k hal
ex ile</w>
negoti ate</w>
mp h</w>
ten ing</w>
pla ys</w>
tra pped</w>
reduc ing</w>
s ke
me chan
deli ber
damag es</w>
y ang
ca stle</w>
fil ms</w>
tibet an</w>
fer ry</w>
war ren</w>
sh ell</w>
sa m</w>
ri pped</w>
pen sion</w>
dou bled</w>
affir med</w>
viol ating</w>
cap ital
a wat
sp ying</w>
si chuan</w>
res sing</w>
high s</w>
employ ee</w>
sex ually</w>
ro ok
mp s</w>
fun d
bu ll
# th</w>
p irates</w>
wat ching</w>
shin awat
shinawat ra</w>
war t</w>
bra in</w>
l ying</w>
andre w</w>
year- on-year</w>
tro op</w>
ta el</w>
tay lor</w>
mem ory</w>
oun d
shi ft</w>
rec all</w>
escal ating</w>
e ted</w>
ra ge</w>
e x</w>
high- profile</w>
gh ana</w>
mom en
momen tum</w>
h in
journ al</w>
hsi ung</w>
ste pping</w>
bas es</w>
is her</w>
oil- rich</w>
j ol
ab ad</w>
sh -
magnit ude</w>
ic on</w>
drea m</w>
manag ers</w>
parti san</w>
arn old</w>
reb ounded</w>
vill agers</w>
ru t</w>
pit cher</w>
coff ee</w>
l on</w>
sk ir
sh ir
strength ening</w>
defen sive</w>
puer to</w>
mor s</w>
batt ling</w>
adop t</w>
per cen
ne ys</w>
ic als</w>
am az
spec ies</w>
sch war
cy cle</w>
fir st
po wered</w>
mu m
free ze</w>
tr y
christop her</w>
at or
ben az
benaz ir</w>
pu s</w>
hi v</w>
perf ect</w>
al u
ag o
me ts</w>
fel t</w>
bud dh
fri end
rat ings</w>
right- wing</w>
t uni
s k</w>
ru dol
ji ang
ji ab
gren ade</w>
progres sive</w>
peru vian</w>
cont act</w>
b -
f ts</w>
ro dri
f allen</w>
a ung</w>
f air
acqui red</w>
revis ed</w>
mon d</w>
paramil itary</w>
di r
es sive</w>
ra s
laun dering</w>
jiab ao</w>
' ll</w>
wor sen
ti er</w>
k el
bur st</w>
bloo d
wind ows</w>
re placed</w>
st ance</w>
s at</w>
acci dents</w>
oppon ent</w>
cap ac
da ting</w>
es burg</w>
spea king</w>
te es</w>
sl alom</w>
ke -
ep t</w>
sy mb
ir i</w>
f ting</w>
ba sic</w>
anticip ated</w>
we al
bur n</w>
pol it
har ry</w>
encoura ge</w>
tw ent
notor ious</w>
hind u</w>
p age</w>
f red</w>
acqu it
st akes</w>
fron t
ad d</w>
in ti
ati vely</w>
ac tors</w>
ll ery</w>
reas on</w>
un a</w>
spre ading</w>
ra ft</w>
pen n
id ly</w>
avi v</w>
re p
fer red</w>
ay a</w>
absen ce</w>
bei rut</w>
pri ority</w>
ap prove</w>
t ear
sea s
con sor
spir itual</w>
priv ati
pl o</w>
mar k
lea k</w>
fal se</w>
desig n
comp ound</w>
j et
hi ke</w>
bo ats</w>
lef t-
johann esburg</w>
stan ds</w>
air liner</w>
separati sts</w>
percen tage</w>
ol i
bo b
en cla
er it
tun nel</w>
eu r</w>
rich ter</w>
chem icals</w>
import ance</w>
for -
teen age</w>
s wa
congrat ul
n d</w>
promis es</w>
inv ent
first -round</w>
vis its</w>
under- par</w>
typho on</w>
erit re
at p</w>
mea suring</w>
wa ves</w>
verdic t</w>
five- day</w>
k new</w>
gl om
con glom
ky i</w>
form s</w>
subur ban</w>
ku om
bro ok
tren d</w>
a e</w>
lin king</w>
int ang</w>
w ro
refl ecting</w>
ir on</w>
batt led</w>
lim its</w>
ris en</w>
viol ated</w>
col leagues</w>
quarter ly</w>
sil va</w>
te a</w>
tal king</w>
fle eing</w>
bomb ers</w>
weigh ed</w>
shor tage</w>
mou th</w>
kuom intang</w>
con struc
lau rent</w>
par ade</w>
bal tic</w>
alas ka</w>
e i</w>
ati cally</w>
arti llery</w>
colli sion</w>
vis a</w>
ob tain
tri als</w>
sur ging</w>
r ounds</w>
anti trust</w>
small er</w>
so -
mi kh
mikh ail</w>
counter parts</w>
consor ti
bid ding</w>
br on</w>
aggres sive</w>
chie ve</w>
a chieve</w>
inter -
ei ther</w>
de an</w>
wh eat</w>
no ti
immig rant</w>
desig n</w>
kilome ter</w>
bla sted</w>
nin e-
goal keeper</w>
' ve</w>
ch ase</w>
attemp ting</w>
mic hig
fran cs</w>
loc ated</w>
ir na</w>
az iz</w>
ti tu
sem in
en ting</w>
ai ming</w>
organis ers</w>
lin d
pion e
wro te</w>
st o
ra mo
pe l</w>
dispu tes</w>
su u</w>
nar row</w>
ig h</w>
b at</w>
sha red</w>
extremis t</w>
bar red</w>
er son</w>
th rown</w>
ro lled</w>
vacc ine</w>
ri o
asi a-
as ser
reven ues</w>
ov an</w>
impl ement</w>
hal ted</w>
h id
bay ern</w>
occup ation</w>
all- star</w>
stan ley</w>
michig an</w>
consp iracy</w>
pal m</w>
es cap
d d</w>
frag ile</w>
ten t
kidn apped</w>
chamb er</w>
ar agu
tre ated</w>
transi t</w>
low n</w>
exten sion</w>
da l
ea ses</w>
nic aragu
i bra
us a</w>
cre te</w>
i que</w>
re build</w>
pl u
opport un
le gi
sac ked</w>
re called</w>
cap ture</w>
bru tal</w>
per mission</w>
er ic</w>
s y</w>
cha os</w>
reduc tion</w>
lu c
out going</w>
criti cis
s ca
publ isher</w>
exist ing</w>
eas ily</w>
challeng er</w>
senten ces</w>
requi red</w>
lo g
celebra tion</w>
quali fied</w>
tan ker</w>
be i</w>
ho sts</w>
ac io</w>
don ors</w>
gr ounds</w>
bu st</w>
pursu e</w>
car ds</w>
si e
way ne</w>
des er
slu gg
ga z
acquisi tion</w>
star ts</w>
boli via</w>
n ad
c ked</w>
pu r</w>
arriv al</w>
-ran ked</w>
un able</w>
hosti le</w>
explo sive</w>
an x
li u</w>
great est</w>
presti gious</w>
second -largest</w>
cont en
h af
capac ity</w>
bl ame</w>
d row
c ateg
al one</w>
ligh t
declar ing</w>
n pc</w>
monteneg ro</w>
ic h
a part</w>
travel ers</w>
optimis tic</w>
man date</w>
jas on</w>
sist ing</w>
im pover
ly n</w>
mid day</w>
kh an</w>
dis abled</w>
docu ment</w>
publ ishing</w>
st ery</w>
re d
ac le</w>
rook ie</w>
en han
consorti um</w>
n -
k ha
belong ing</w>
win s</w>
po sts</w>
l ama</w>
ran ks</w>
hi v
deli ver
competi tive</w>
sen se</w>
je ff</w>
in cumb
heal thy</w>
settl ements</w>
paul o</w>
requ ire</w>
i or
technolo gies</w>
cel ls</w>
rea ding</w>
vi en
fi ji</w>
ac o</w>
war s</w>
ko v</w>
sch u
t ent</w>
success or</w>
me tho
impover ished</w>
contin ental</w>
azerbai jan</w>
politi cally</w>
inspec tion</w>
ai m</w>
spi red</w>
s si
l .</w>
di an</w>
inclu des</w>
k g</w>
angel s</w>
cont am
scienti st</w>
guaran tee</w>
ain ing</w>
am man</w>
don ated</w>
coun ts</w>
a e
wild life</w>
ma ster</w>
san ta</w>
i si
nom inated</w>
demonstr ated</w>
bar s</w>
ang ing</w>
so- called</w>
avo i
dis man
land slide</w>
convic tion</w>
h man</w>
strongh old</w>
v ital</w>
dro me</w>
cen sus</w>
ju ana</w>
un expected</w>
super vis
re pair</w>
persu ade</w>
semi final</w>
s ong
ly n
do gs</w>
ch t</w>
rum s
n bc</w>
-l in
s car
defen d
universi ties</w>
mis sions</w>
tor ia</w>
en ron</w>
sear ched</w>
r d</w>
mat h</w>
ex it</w>
er i</w>
as sured</w>
dis eases</w>
th i
d mit
a f</w>
mil ler</w>
brea ks</w>
recor d-
pre vention</w>
gra in</w>
elimin ate</w>
bur ning</w>
tr ail</w>
regul ation</w>
fe es</w>
arti st</w>
endor sed</w>
disappoint ing</w>
c bs</w>
bu o
subsidi es</w>
ome ter</w>
some times</w>
or d</w>
m be
gra tion</w>
inde fin
vill a</w>
ti de</w>
cl es</w>
m ali
experi en
ri de</w>
lin eup</w>
li st
ha u
bom bay</w>
z stan</w>
pati ent</w>
he im</w>
tw in</w>
l eng
inci dents</w>
re spir
ass aul
coun try
or ities</w>
den nis</w>
m att
gu ez</w>
promo tion</w>
k ick</w>
ma x
ger ing</w>
compla int</w>
big ger</w>
tanz anian</w>
encla ve</w>
distribu tion</w>
as p
cover ing</w>
deep ly</w>
p oul
indi ans</w>
de v</w>
blo om
ho tels</w>
c king</w>
plagu ed</w>
l an</w>
tribu te</w>
cam pus</w>
kyrgy zstan</w>
hard line</w>
est yle</w>
bo ar
h ass
discrimin ation</w>
wic kets</w>
strea m</w>
ann e</w>
al do</w>
hu ang</w>
e ta</w>
conflic ts</w>
assi st</w>
rums feld</w>
unanim ously</w>
dou bles</w>
bad ly</w>
k ara
inte gration</w>
gen eva</w>
vic tories</w>
par agu
paren t</w>
lo aded</w>
improv ement</w>
de vice</w>
and ers</w>
si vely</w>
see m</w>
eff ecti
re al
bou tro
k mt</w>
z aire</w>
sing h</w>
re z</w>
q ing</w>
conserv atives</w>
at ri
ty co
sla m</w>
rap idly</w>
stat ements</w>
hor se</w>
en dan
#- under</w>
k le</w>
f low</w>
doub ts</w>
am en</w>
sist ent</w>
sovereig n
sovereign ty</w>
over turned</w>
ple a</w>
law suits</w>
tra ins</w>
bi e</w>
conglom erate</w>
tough er</w>
ti mo
pe te</w>
l ing
c ti
hur d
spo ke</w>
jo bl
ad ri
opportun ities</w>
smo ke</w>
re ality</w>
da ls</w>
coun c
###- meter</w>
k har
set back</w>
inter ro
arch it
ad or
pan ama</w>
audi ence</w>
car ter</w>
bar ometer</w>
author ized</w>
dis placed</w>
endan gered</w>
en te</w>
ic ate</w>
a\/ h#n#</w>
s ong</w>
brook lyn</w>
wr iting</w>
teen -
be ha
tal ly</w>
ex iled</w>
attrac t</w>
z i</w>
yel low</w>
him al
d pp</w>
par aly
vir tually</w>
subur b</w>
ja vier</w>
eg ger</w>
attor neys</w>
en ty</w>
automo bile</w>
peter sburg</w>
mar ried</w>
legen d</w>
hil ls</w>
fa st-
bundes liga</w>
ar ity</w>
sub mitted</w>
##- nation</w>
sh own</w>
o tic</w>
ig n
de -
b ear</w>
conn ecti
break through</w>
re fe
expen sive</w>
hai tian</w>
ak ed</w>
schwar zen
prison er</w>
pri sing</w>
attac king</w>
exercis es</w>
se es</w>
domin ican</w>
sli des</w>
is on</w>
open s</w>
gran d
ban ning</w>
op tions</w>
cur red</w>
business men</w>
ab o</w>
incumb ent</w>
ti cally</w>
expect edly</w>
u a</w>
o is</w>
m es
li br
k ath
fun ded</w>
a ero
p a</w>
one- year</w>
ic el
exp elled</w>
char ter</w>
th a</w>
studi es</w>
sol id
gamb ling</w>
lon gest</w>
syl van
ri f
confron tation</w>
assa d</w>
ey es</w>
sen eg
o .j.</w>
fili p
el ling</w>
war m</w>
esti mates</w>
s op
resol ved</w>
###- ##</w>
un expectedly</w>
dr inking</w>
br un
b ourn
ol s</w>
ch ad</w>
es cape</w>
a pol
signific antly</w>
mon opol
c ep
cas ino</w>
schwarzen egger</w>
un il
o x
ve gas</w>
my ster
ge -
employ ers</w>
k out</w>
h ec
resu mption</w>
la y
in ks</w>
da lai</w>
st ayed</w>
\ /</w>
mb le</w>
f t
comp on
w ine</w>
sp er
oc k</w>
bourn e</w>
vi or</w>
suc ceed</w>
san g</w>
-run ning</w>
last- minute</w>
sp an</w>
s lowed</w>
investig ations</w>
damag ing</w>
clo s
bla sts</w>
v owing</w>
me te
im ported</w>
ibra him</w>
fro zen</w>
off ers</w>
intensi fied</w>
friend ship</w>
form ation</w>
mum bai</w>
r and</w>
- ##</w>
van cou
tox ic</w>
ti a</w>
shoot out</w>
respir atory</w>
r ated</w>
qu est</w>
pay ment</w>
tic kets</w>
ol es
ma da
in cen
gar den</w>
fe derer</w>
compla ined</w>
u ae</w>
legislat or</w>
you ths</w>
sla ying</w>
sla ughter</w>
##- member</w>
re action</w>
bloc king</w>
mar iti
deli very</w>
pun ishment</w>
lu iz</w>
lea ds</w>
islam abad</w>
cont ested</w>
comman ders</w>
ti vely</w>
moun ted</w>
connecti cut</w>
tre es</w>
rudol ph</w>
rodri guez</w>
son y</w>
dead lock</w>
mongol ia</w>
machin e</w>
gun fire</w>
dead liest</w>
lear n</w>
influen za</w>
ger man
cap it
vancou ver</w>
s m</w>
de fin
agre eing</w>
ra u
jur ors</w>
pu lling</w>
jer ry</w>
tru e</w>
choo se</w>
le v
ca uses</w>
th in</w>
i van
contain ing</w>
ale z</w>
jobl ess</w>
fisher men</w>
plun ge</w>
gonz alez</w>
ma o
astronau ts</w>
all- time</w>
med ve
out come</w>
n ature</w>
it ems</w>
tar ian</w>
repu tation</w>
ig nor
cu t
re patri
buddh ist</w>
pro stitu
mu ch-
lun ch</w>
guatem ala</w>
dar k</w>
poul try</w>
play offs</w>
il lin
imm y</w>
sn i
si ster</w>
defe ating</w>
wea kened</w>
pe t</w>
ch ol
temper atures</w>
xin jiang</w>
v ul
medve dev</w>
neighb ouring</w>
ka o
g ling</w>
de vices</w>
de ton
wed ding</w>
lar ger</w>
ic ated</w>
cow boys</w>
c inc
uni fication</w>
po t</w>
j immy</w>
withdra wn</w>
w rest
f en
war ner</w>
con crete</w>
chan g</w>
bo oming</w>
go p</w>
stun ning</w>
nas da
bah rain</w>
sylvan ia</w>
shoul der</w>
w an</w>
smo o
prot ecting</w>
com edy</w>
ad ju
ca v
zhe jiang</w>
fa ster</w>
vien na</w>
p ain</w>
wea kness</w>
ak a</w>
thou sand</w>
d in</w>
secu red</w>
mariti me</w>
w ages</w>
mo bil
deci sions</w>
plat form</w>
regulat ory</w>
re ha
p ag
har d-
us al</w>
cle aring</w>
al ism</w>
shu ff
rub ber</w>
fed er
travel ed</w>
sea sons</w>
pe ti
illin ois</w>
dmit ry</w>
d it
writ ers</w>
mer chan
is ing</w>
develop ments</w>
view ed</w>
da le</w>
ne ts</w>
cor e</w>
identi ty</w>
contribu tions</w>
th al</w>
resid ence</w>
fac tories</w>
re min
bloom berg</w>
respon d</w>
###- ###</w>
fe wer</w>
f on
amend ment</w>
a rena</w>
rea d</w>
i ble</w>
mete or
labor atory</w>
inter vention</w>
kao hsiung</w>
solid arity</w>
nig er</w>
g ru
rou ge</w>
si c
mur dered</w>
intro duc
rob bery</w>
ab u
stret ch</w>
ref usal</w>
fl ames</w>
mid night</w>
first- half</w>
f ever</w>
orig inal</w>
funda mental
p ers</w>
ar a</w>
top- seeded</w>
p o</w>
or -
maint ained</w>
part ments</w>
z ation</w>
serge i</w>
ro ber
re lay</w>
da mas
kh mer</w>
institu tion</w>
inaug ural</w>
altern ative</w>
tyco on</w>
re affirmed</w>
mon tre
ba rely</w>
anti- terrorism</w>
minist erial</w>
oran ge</w>
li v
an tar
mod ern
expl oration</w>
moham ed</w>
s cri
f an
dis pat
direc tly</w>
men a</w>
ho l</w>
re ally</w>
mig rants</w>
ch ea
bot tom</w>
at ro
typ e</w>
happ y</w>
ar ch</w>
intern ation
ru mors</w>
im pres
govern mental</w>
subj ect</w>
re actor</w>
pl edging</w>
up held</w>
penn sylvania</w>
parti al</w>
long- awaited</w>
war rant</w>
narrow ly</w>
io c</w>
cros sed</w>
as su
it able</w>
direc tion</w>
al o</w>
in door</w>
nikke i</w>
cor ps</w>
char ging</w>
uzbe kistan</w>
tri ple</w>
slu mped</w>
moroc can</w>
mil k</w>
innoc ent</w>
fat ally</w>
organiz ing</w>
i pe</w>
aband on</w>
iv an</w>
bar ry</w>
new castle</w>
month -old</w>
mar io</w>
cycl one</w>
aero space</w>
w is
gy m
capit ol</w>
kar a</w>
inaugur ated</w>
ro oms</w>
reli gi
challen ged</w>
ming ly</w>
m eat</w>
green house</w>
surve ill
surveill ance</w>
car tel</w>
urugu ay</w>
rob i</w>
nat o
nai robi</w>
hag en</w>
bra d
environ mental
ser ie</w>
to s</w>
y u</w>
sav ings</w>
con tra
bal ti
high -ranking</w>
di ver
ri ding</w>
pregn ant</w>
ta h</w>
mal e</w>
b ers</w>
administ r
hun g</w>
pe res</w>
har sh</w>
fre qu
mul tin
lu m
as a</w>
ea sier</w>
ton ight</w>
fe el</w>
### m</w>
acu te</w>
prov ed</w>
pass age</w>
m ous</w>
it age</w>
eng aged</w>
sh ape</w>
olog ist</w>
su e</w>
in er</w>
dist ric
mon t</w>
ken ing</w>
in ary</w>
el se
colla bor
cer ti
ve to</w>
sh ops</w>
cou ples</w>
it ate</w>
de z</w>
mil len
f eu
por tra
f ounding</w>
see ks</w>
p ine</w>
ste in</w>
l ance</w>
da im
c tic</w>
al bu
recogn ize</w>
mari juana</w>
himal ayan</w>
fel ipe</w>
est -
threat en</w>
uni que</w>
m ation</w>
power -
inter ven
harv ard</w>
di visions</w>
balti more</w>
damas cus</w>
temp le</w>
ra b
mal awi</w>
co de</w>
p ad
atur ing</w>
i ow
hondur as</w>
knoc ked</w>
sem icon
ital ia</w>
bir ds</w>
sum mon
shim on</w>
montre al</w>
kidn apping</w>
docu ment
th ri
. c.</w>
sup ports</w>
su gar</w>
sloven ia</w>
beha vior</w>
lithu ania</w>
hid den</w>
celebr ating</w>
ma d
fran ch
semicon duc
ea gu
bel eagu
musi cal</w>
k ar</w>
sl ated</w>
ch man</w>
nov el</w>
bus es</w>
s oil</w>
pol ling</w>
ed ward</w>
deb ts</w>
acquit ted</w>
testi fy</w>
every one</w>
ans a</w>
roc ke
over time</w>
over came</w>
lo oming</w>
jaz z</w>
hal f
academ ic</w>
settl ers</w>
im minent</w>
gol d
f ounded</w>
u tions</w>
ro y</w>
in ate</w>
and ong</w>
weal thy</w>
un -
colom bo</w>
fre e-
ici ary</w>
provi der</w>
d ry</w>
ru shed</w>
ho t
du ties</w>
advoc ates</w>
sma shed</w>
syn drome</w>
challeng ing</w>
foo t
vice- premier</w>
l are</w>
aff ect</w>
inten ds</w>
home town</w>
ab ly</w>
car l</w>
sec tarian</w>
nato -led</w>
juven tus</w>
bu yers</w>
u tah</w>
rou gh</w>
filip ino</w>
high- speed</w>
pro b
mic h
dec lare</w>
univers al</w>
pen g</w>
p es</w>
fran c
ken tu
ev ac
evac uation</w>
t ine</w>
any thing</w>
overwhel mingly</w>
kara chi</w>
m b</w>
nar co
kentu cky</w>
g dp</w>
sk y
int ell
fa ith</w>
dec lines</w>
tor ren
sw ag
or chest
mo zamb
com for
cle an
bo l</w>
avi an</w>
pier re</w>
ai ms</w>
gol ese</w>
wra pped</w>
nasda q</w>
be er</w>
mo red</w>
else where</w>
x on</w>
licen se</w>
jour ney</w>
de ported</w>
volcan o</w>
us e
ret ain</w>
y ant</w>
sil ence</w>
hand le</w>
po ore
iow a</w>
high ligh
go t
cop a</w>
compe ting</w>
ar bit
it ely</w>
aver t</w>
o ak
fil ing</w>
pp i</w>
off -
inaugur ation</w>
crip tion</w>
t ty</w>
some one</w>
prepar ation</w>
y .</w>
to ss</w>
oper ators</w>
stan ces</w>
c open
ass ess
se ve
obtain ed</w>
kn ows</w>
ir an
id es</w>
cor ner</w>
cen tu
rej ecting</w>
il o</w>
desper ate</w>
circu it</w>
beleagu ered</w>
w ta</w>
ci an</w>
anth ra
mu ham
ti me
pp ers</w>
monopol y</w>
g on</w>
out lawed</w>
de dic
com par
transi tion</w>
ste ep</w>
seas on-
hi ding</w>
deepen ing</w>
copen hagen</w>
se aled</w>
b ish
tit les</w>
shi eld</w>
hass an</w>
sp a</w>
rou gh
cere mon
st ag
fin ishing</w>
reti re</w>
re opened</w>
fla .</w>
extra ordinary</w>
sit ting</w>
mbe ki</w>
lar ry</w>
con sequ
y ing-
tre at</w>
k ans</w>
gi o</w>
her self</w>
can cel</w>
ab c</w>
sub marine</w>
ran king</w>
expla in</w>
graph y</w>
##- man</w>
for th
fle e</w>
tr o</w>
fuj ian</w>
yi el
spar king</w>
ex porting</w>
at e
ha th
f ai
st amp
christi ans</w>
ric o</w>
mor tar</w>
im ages</w>
wr ong
me an</w>
h its</w>
f ake</w>
bri bery</w>
ch ess</w>
sun g</w>
broad way</w>
b in
un ic
pr o</w>
l ac
war m
u prising</w>
aff air</w>
w au
loy d</w>
ab rup
pit ch</w>
sa ving</w>
s essions</w>
a val
intell ec
fe aturing</w>
engine ers</w>
viol ation</w>
pl um
hon ored</w>
fi xing</w>
argu ing</w>
## th-
oc curred</w>
manag ing</w>
ste aling</w>
p an</w>
ing ent</w>
he bron</w>
sh attered</w>
escap ed</w>
polit an</w>
crimin als</w>
vol k
up beat</w>
requ ested</w>
man i
im pea
seve rely</w>
ti ll
mis si
in spired</w>
multin ational</w>
je ou</w>
di ag
con sen
int el</w>
zh ang</w>
- than-expected</w>
ch as
apol o
arrest s</w>
alban ians</w>
or dering</w>
ade qu
threat ens</w>
de pen
am bu
refin ery</w>
automak ers</w>
resol ving</w>
mel bourne</w>
en ko</w>
cra tive</w>
clin ched</w>
min ton</w>
bad minton</w>
tai l</w>
abdu l</w>
re la
inst all
distric ts</w>
## :##</w>
lu crative</w>
cha e
barre ls</w>
rug ged</w>
down hill</w>
cl a</w>
th abo</w>
pre dec
inform ed</w>
gir l
dis appeared</w>
der by</w>
athle tic</w>
k am
go d</w>
indi ana</w>
arti sts</w>
to t
lou isi
ce o</w>
barri er</w>
asia- pacific</w>
slugg ish</w>
repe ated</w>
pro per</w>
good will</w>
encoura ging</w>
appro pri
dec lining</w>
co t
campaig ns</w>
re vel
metro politan</w>
mess ages</w>
forth coming</w>
exper im
re acted</w>
alco hol</w>
r al</w>
ep is
ar chae
f p</w>
guang zhou</w>
car to
an kle</w>
tern al</w>
ex ternal</w>
ying- jeou</w>
jud iciary</w>
short ages</w>
pi ec
mo del
da s</w>
dra gged</w>
correspon dent</w>
f ail</w>
s porting</w>
arm strong</w>
ro t
mar c</w>
p -
millen ni
cor n</w>
r allies</w>
qu ake</w>
fre der
a qu
mozamb ican</w>
louisi ana</w>
arriv ing</w>
the ft</w>
ex ac
reha bil
hijac ked</w>
foreca sts</w>
tion ally</w>
psy ch
pea k</w>
v o</w>
pr inci
them e</w>
f as
ft se</w>
com mod
see kers</w>
de pos
s election</w>
sad r</w>
mada gas
boo m</w>
p at</w>
ai red</w>
emp ire</w>
w ear</w>
medic are</w>
im ag
anthra x</w>
wa ited</w>
est onia</w>
simp le</w>
nor dic</w>
ar chi
millenni um</w>
m ai
ske p
an kara</w>
d ary</w>
tu m
mon u
gu y</w>
su ing</w>
k as
inf ection</w>
cross- border</w>
y on
sud den
in i</w>
termin al</w>
hol m</w>
aval an
legen dary</w>
spok en</w>
zh u</w>
torren tial</w>
ren owned</w>
ma c</w>
fre estyle</w>
s ement</w>
ni tion</w>
cre ws</w>
pilgri ms</w>
encoura ged</w>
si r</w>
munici pal
k os</w>
har iri</w>
bar gain</w>
t ling</w>
qu ie
proc essing</w>
at a</w>
ai res</w>
' d</w>
ni e</w>
jama ica</w>
l ls</w>
drow ned</w>
tent ative</w>
sh andong</w>
rich est</w>
quali fy</w>
k or
wor se</w>
a ke-
air plane</w>
ah mad</w>
ramo s</w>
r it
desig ner</w>
ra pe</w>
gre g</w>
am bush</w>
li ties</w>
sust ain
pu ll
mur ders</w>
em ens</w>
st ones</w>
im pas
eth ics</w>
twent y-
spon s
sign al</w>
enem y</w>
zo o</w>
b ic
volk swag
volkswag en</w>
sim on</w>
r yan</w>
pro sper
land o</w>
imprison ed</w>
after math</w>
n. y.</w>
lu la</w>
deter ior
mao ist</w>
dem ol
di vor
tr in
rever se</w>
mol d
z es</w>
new ly-
don ations</w>
let ters</w>
hiv \/
hiv\/ aids</w>
ku ala</w>
k it
insu rer</w>
op ar
mah mud</w>
c it
advis ers</w>
vac ation</w>
mar sh
is m
sam e-
ro lling</w>
t ment</w>
ri d</w>
salv ador</w>
ed ings</w>
ra ging</w>
en rich
co ol</w>
ak ing</w>
os ex
bour se</w>
nat i</w>
ch et</w>
titu de</w>
six- month</w>
m ira
h ac
pro vo
enti ous</w>
buo yed</w>
substanti al</w>
semi- official</w>
retail ers</w>
nas car</w>
effecti vely</w>
se bas
pic tures</w>
out standing</w>
fru str
alleg ing</w>
al ab
w ings</w>
campaig ning</w>
s elec
ro bust</w>
har to</w>
cro ps</w>
ear n</w>
ga ther</w>
even tually</w>
econom ists</w>
enrich ment</w>
ma ver
sin o-
har bor</w>
emo tional</w>
israeli- palestinian</w>
girl friend</w>
diplom acy</w>
advis ory</w>
tre e</w>
post al</w>
establ ishing</w>
ur s</w>
under go</w>
sup posed</w>
ric a</w>
lum pur</w>
foc using</w>
deci sive</w>
cont entious</w>
consu mption</w>
criti cally</w>
sh an</w>
per forming</w>
in acio</w>
ce eded</w>
commun ication</w>
ven ess</w>
protest ant</w>
thir d
preven ting</w>
sidel ines</w>
li a
pos session</w>
i y
her itage</w>
ch ment</w>
bomb ed</w>
o d</w>
je opar
clo thing</w>
at edly</w>
ass i</w>
del e
re gre
k age</w>
z ia</w>
proper ly</w>
mich el</w>
in nati</w>
holi days</w>
cinc innati</w>
s na
j ay</w>
hear ings</w>
regar ding</w>
k la
sara h</w>
bo w</w>
outra ge</w>
worsen ing</w>
cor p</w>
ol der</w>
min imum</w>
fra me
ap ag
ur ge</w>
sla sh</w>
machin es</w>
lar ge-
hurric an
mag ic</w>
isol ated</w>
stat ed</w>
car bon</w>
ste el
ex changed</w>
anth ony</w>
abduc ted</w>
valu ed</w>
ulti mat
hy dro
assa il
trag edy</w>
p ist
ho sted</w>
replac ing</w>
re building</w>
g us
criticis ed</w>
the at
sail ors</w>
reco g
recog nition</w>
ell er</w>
first- ever</w>
disrup ted</w>
consult ative</w>
wal king</w>
tigh ten</w>
la v
comp at
u sh
ski ing</w>
muham mad</w>
fu eled</w>
hu b</w>
far- right</w>
sie ge</w>
semiconduc tor</w>
eritre a</w>
t ter</w>
sol ar</w>
floo ded</w>
de posed</w>
po c
cop per</w>
wh oles
ji had</w>
mour ning</w>
wr ite</w>
spea k</w>
dissid ents</w>
pro visi
carri ers</w>
ret t</w>
proce edings</w>
cat astro
ca a</w>
tel ev
piec es</w>
progra m
popu lar
surren der</w>
pla stic</w>
depu ties</w>
secre ts</w>
ret ained</w>
tain ted</w>
st rict</w>
week -long</w>
vie wing</w>
stand ings</w>
spect acu
re open</w>
consen sus</w>
blood shed</w>
spo t
i er</w>
t ary</w>
r oun
frame work</w>
experien ced</w>
cour tro
accep table</w>
michel le</w>
jiang su</w>
depar ture</w>
par tly</w>
gu l</w>
bob by</w>
at op</w>
particip ating</w>
blu e-
sugg es
stab bed</w>
run off</w>
strength ened</w>
s ag
bl acks</w>
ra ced</w>
o ke</w>
gui de</w>
fol lowers</w>
contribu te</w>
bul ls</w>
ar mored</w>
restaur ants</w>
ran k</w>
do s</w>
har ass
fil m
p in</w>
nam i
ch er
vo ys</w>
ton nes</w>
mac apag
clar k</w>
degre e</w>
coun ting</w>
it zha
g ical</w>
est er</w>
rest ra
requ iring</w>
fac t</w>
deci ding</w>
chec ks</w>
woo d
foo ds</w>
ad b</w>
oak land</w>
o' ne
f li
awa iting</w>
w ill
ri ous</w>
lau re
palest ine</w>
z o</w>
itzha k</w>
el even</w>
qu es</w>
gri p</w>
two- time</w>
er ies</w>
ble -
oc ca
ch an</w>
t acti
ent re
diag no
brea st</w>
si t</w>
or i</w>
ma fia</w>
ex pressing</w>
kn owl
st em
lia oning</w>
tow er</w>
oper ate</w>
bron ze</w>
sol ved</w>
bru ce</w>
## nd</w>
under way</w>
n y
m ous
vul ner
in sp
em be
or lando</w>
bri d
sp iri
pro lif
no tes</w>
ir ate</w>
ass ess</w>
al bert</w>
ad vice</w>
studi o</w>
milli on-
ling ering</w>
h k
team mate</w>
rej ect</w>
accel er
ten nes
pri ests</w>
cigaret te</w>
y land</w>
unk en</w>
re ci
own ership</w>
lin s</w>
en tr
regu lar
ra y
embe zz
arch bishop</w>
yun nan</w>
re shuff
p iracy</w>
hamp shire</w>
din ner</w>
deplo y</w>
bet ter-
tax pay
sal t</w>
assess ment</w>
y ards</w>
m am
e- mail</w>
myster ious</w>
ja h</w>
achiev ed</w>
u mph</w>
tri umph</w>
summon ed</w>
same- sex</w>
un lea
mit ting</w>
fer r
be half</w>
wal t</w>
du l
destro ying</w>
co s
analy st</w>
paragu ay</w>
dow ns</w>
camer oon</w>
up grade</w>
ster o
arran g
ex posed</w>
dri lling</w>
col a</w>
y itzhak</w>
sudden ly</w>
preven ted</w>
le thal</w>
loy al</w>
ac compl
tennes see</w>
sin king</w>
k ov
invent ories</w>
di pped</w>
am ster
spiri t</w>
z an
ro ll
len der</w>
in struc
in an</w>
d na</w>
sup pl
libr ary</w>
haw ks</w>
t down</w>
resid ential</w>
re pri
particip ants</w>
green span</w>
-r ai
ob st
c u</w>
thu si
stra ined</w>
ra ma
ma ur
en thusi
fron tier</w>
el -
educ ational</w>
stron gest</w>
sen s
public ation</w>
human ity</w>
fam ed</w>
mig uel</w>
inspec tions</w>
fis c
con fisc
liber ian</w>
bla ze</w>
qu ite</w>
govern ors</w>
block ade</w>
li e
bar bar
-lin ked</w>
rev .</w>
o a</w>
employ ed</w>
wo es</w>
spectacu lar</w>
bat ch</w>
con spir
cau tion</w>
c attle</w>
ter ry</w>
ro berto</w>
me ga
amster dam</w>
bal kans</w>
si ck</w>
bish ops</w>
entre pre
coll ected</w>
w ise</w>
commod ity</w>
bea u
kenne th</w>
ro m
in sisting</w>
ha wai
interest ed</w>
b am
taji kistan</w>
sud den</w>
diam ond</w>
s care</w>
o bli
ke e</w>
territ orial</w>
mem oran
light ning</w>
r as</w>
trac king</w>
in gh
es e-
u te</w>
ban g</w>
quie tly</w>
ner v
my stery</w>
gra m
cro p</w>
cat ch</w>
et te</w>
n ea
hom osex
sustain able</w>
semin ar</w>
guid el
com modi
tari ffs</w>
ra ged</w>
pursu ed</w>
n v</w>
er able</w>
b m
pic k
kil ls</w>
her ald</w>
ed wards</w>
skir ts</w>
sal ary</w>
r al
op h
heigh tened</w>
dis arm</w>
rel atively</w>
emp ha
ste wart</w>
document ary</w>
descri bing</w>
op pose</w>
li mit
rai g</w>
legi ti
courtro om</w>
conserv ation</w>
att end
-l an
tiv ity</w>
run way</w>
gra y</w>
es sen
al pine</w>
tur bul
dec ree</w>
pois oning</w>
per form</w>
zer o</w>
ron aldo</w>
pur suit</w>
prepa res</w>
hear t
suff ici
proc edu
procedu res</w>
dru g-
commodi ties</w>
top ped</w>
per formed</w>
ma hath
mahath ir</w>
g les</w>
ma cher</w>
lat via</w>
chur ches</w>
bec k
b ed
retali ation</w>
la os</w>
expl ore</w>
th ra
shoo t</w>
icel and</w>
col ony</w>
semi- finals</w>
replac ement</w>
hol es</w>
schu macher</w>
patri ots</w>
repe atedly</w>
princip le</w>
pho to</w>
la v</w>
in nov
fi x</w>
gra ded</w>
f all
con vers
ho sting</w>
gra ft</w>
ch ap
prot ected</w>
dram atically</w>
n ag
riv ers</w>
mag ist
st ering</w>
ma dele
madele ine</w>
buff alo</w>
narco tics</w>
g li
comm it</w>
ch ose</w>
#- under-par</w>
traffic kers</w>
sidel ined</w>
ne i
gener ally</w>
prolif eration</w>
at orial</w>
ra bin</w>
lea ves</w>
kn i
ma p</w>
ed ges</w>
z ic</w>
rob in
ti l
mu t</w>
moham ad</w>
institu tional</w>
consequ ences</w>
ra fi
p ounded</w>
mat t</w>
es co</w>
dy nam
spr ing
loc ation</w>
i a-
de vil
performan ces</w>
bl aming</w>
prot oc
check point</w>
armen ia</w>
statisti cal</w>
be ver
tigh tened</w>
sp ate</w>
pro hi
plan ted</w>
al lows</w>
z ones</w>
ou st</w>
appoint ment</w>
teenag ers</w>
plan et</w>
evacu ate</w>
e ating</w>
ca p</w>
- to-
yu sh
sw ing</w>
rou tine</w>
det ected</w>
bro ker</w>
se rena</w>
pen alties</w>
ev gen
cardin als</w>
albu m</w>
sp in</w>
sol e</w>
k ick
scan dals</w>
nic k</w>
el se</w>
ch air</w>
in ess</w>
pra gue</w>
p ou
di ana</w>
argu ments</w>
pe ar
si ber
an dez</w>
val ues</w>
im posing</w>
confir mation</w>
i ii</w>
discus sing</w>
p na</w>
mar red</w>
ha ven</w>
sa ved</w>
missi ssi
le vy</w>
hor n</w>
domin ant</w>
bri bes</w>
b one</w>
long -running</w>
destro y</w>
st even</w>
ber th</w>
l er
ki ds</w>
ci ans</w>
bab ies</w>
under mine</w>
tor e</w>
sp il
under going</w>
madagas car</w>
han ding</w>
recomm en
k ins</w>
short- term</w>
respon ding</w>
reb ounds</w>
congres sman</w>
ana heim</w>
. com</w>
w inger</w>
monit ors</w>
mar gin
fe eling</w>
tex t</w>
insur gent</w>
ga p</w>
promo ted</w>
ea s</w>
coa ches</w>
ten der</w>
predec essor</w>
la bel
inten tion</w>
sli ght</w>
p att
jan i</w>
mississi ppi</w>
gen e</w>
flag s</w>
surpri sing</w>
st ole</w>
re ments</w>
plum me
l ec
win dow</w>
tw ins</w>
tou m</w>
supp lier</w>
mu d
lear ning</w>
al ization</w>
un covered</w>
fa re
citi zen
bro ker
#. ####</w>
multi ple</w>
kn icks</w>
ex po
colum ns</w>
br yant</w>
ish es</w>
el ig
sli d</w>
finan ces</w>
conc essions</w>
knowl edge</w>
direc ted</w>
ab ol
indi an-
tru th</w>
equ al</w>
d il
conf essed</w>
dis gra
des cen
emp ty</w>
wil son</w>
us s</w>
tra ined</w>
mon ica</w>
surren dered</w>
k om</w>
op tion</w>
fer ti
co ol
th inking</w>
one- time</w>
tex tile</w>
pres cription</w>
har m</w>
es pion
a er
quarter- finals</w>
k ron
th ro
slow ly</w>
par ks</w>
c run
ti anj
over shad
ol ds</w>
memoran dum</w>
ab using</w>
xi a
exac tly</w>
u cla</w>
s elect</w>
ban s</w>
m ly</w>
large- scale</w>
an ke</w>
tom my</w>
guidel ines</w>
exam ine</w>
us sian</w>
roman o</w>
el ena</w>
ran ging</w>
i de</w>
fu sion</w>
am at
poore st</w>
n caa</w>
cath ol
ash es</w>
condol ences</w>
aw are</w>
imprison ment</w>
concern ing</w>
cla ss
tianj in</w>
sul tan</w>
ch a</w>
br ink</w>
nec k</w>
suff er</w>
per sistent</w>
al ong
w ire</w>
avalan che</w>
obj ections</w>
per ry</w>
clin ic</w>
p en</w>
val en
espion age</w>
vic ente</w>
v .</w>
se iz
u ms</w>
re new</w>
g m</w>
fla sh</w>
con golese</w>
bloc ks</w>
resul ted</w>
model s</w>
j eff
c n
bi ds</w>
ten ham</w>
di oc
chen ko</w>
elimin ated</w>
mali ki</w>
fre sh
em a</w>
youn ger</w>
thu r</w>
coun ted</w>
ru ler</w>
regulat or</w>
pri sons</w>
maced onian</w>
g ear</w>
citizen ship</w>
## ##.##</w>
wrec kage</w>
me an
in stalled</w>
h iring</w>
stock holm</w>
shr ine</w>
out skirts</w>
popular ity</w>
sym bol</w>
sain t</w>
power house</w>
ser vic
pro di</w>
o ther
lo wered</w>
cau cas
caucas us</w>
ambiti ons</w>
g lit
no tice</w>
lag os</w>
bow ler</w>
mo gad
ter ri
ramp age</w>
iti s</w>
hel mut</w>
du mping</w>
trans ferred</w>
il lu
l pga</w>
he ating</w>
du mped</w>
weap on</w>
accep ting</w>
spot light</w>
pro ph
tr and</w>
per sian</w>
fra c
di er</w>
b row
air strikes</w>
lo ad</w>
crow ds</w>
aff ili
religi on</w>
var o</w>
cont ent</w>
bul lets</w>
tou ch
mogad ish
mogadish u</w>
bankrup t</w>
ar ia</w>
un certain</w>
sign aled</w>
re present</w>
grow n</w>
gla ss</w>
congratul ated</w>
c r
con federation</w>
stra its</w>
sci ences</w>
meda list</w>
dha ka</w>
cir cul
ban kers</w>
stu dying</w>
sec t</w>
hoo ds</w>
## #,###-
seneg al</w>
gr ound
embar ras
u. k.</w>
investig ated</w>
tuni sia</w>
haf i</w>
gg er</w>
fare well</w>
disa sters</w>
diam on
along side</w>
p it</w>
ar is
tr e</w>
se ize</w>
r ong
provisi onal</w>
k ia</w>
iti ons</w>
ferr ari</w>
ber trand</w>
re serv
o i</w>
hu m
sa har
radi o
cem e
categ ory</w>
broadca ster</w>
vo red</w>
j it
fin es</w>
ed e</w>
weigh t
pe red</w>
f ann
sum ing</w>
ra cism</w>
on er</w>
q i
po sting</w>
fre ez
sla shed</w>
den ying</w>
cen ter-
sym pa
physi cal</w>
devil s</w>
an cy</w>
foo t-
charac ter</w>
cap able</w>
in ers</w>
discus sion</w>
bag s</w>
vo ter</w>
pra yers</w>
har are</w>
comple ting</w>
un ite</w>
tom or
ly on</w>
kla us</w>
power- sharing</w>
contrac tor</w>
mass .</w>
consul ate</w>
w al-
big -
por tion</w>
mil wau
cycl ist</w>
w ers</w>
share holder</w>
pri mar
mee ts</w>
gi ves</w>
re member</w>
g .</w>
volunte ers</w>
h air</w>
cont em
indefin itely</w>
wal- mart</w>
lin ers</w>
for ge</w>
y es</w>
under went</w>
sp here</w>
k on
in coming</w>
slo va
salv age</w>
timo thy</w>
recogn ized</w>
impres sive</w>
## ers</w>
sen sex</w>
om ed</w>
anti- war</w>
ambu shed</w>
ra da</w>
la z
gov ina</w>
mo tiv
cop y
sur ge
milwau kee</w>
la sting</w>
ko hl</w>
far ms</w>
tomor row</w>
maur it
lun ar</w>
de pression</w>
fund -rai
u y
militi amen</w>
confi d
w ling</w>
spo ts</w>
si mul
ti on-
pap ers</w>
b bc</w>
se al</w>
re si
pit ched</w>
khar toum</w>
econom ics</w>
da i</w>
da ble</w>
individu als</w>
de partments</w>
shoc ked</w>
ob tain</w>
ch ern
motor cycle</w>
advan cing</w>
vir gin</w>
ill a</w>
enhan cing</w>
bal an
ven us</w>
lo d
ha sh
fo ster</w>
wal ter</w>
f ty</w>
vin cent</w>
ma x</w>
new est</w>
ko be</w>
s al</w>
ig or</w>
anj o</w>
phili p</w>
hon ors</w>
l -
celebr ity</w>
cardin al</w>
pea t</w>
rou tes</w>
reven ge</w>
ig no
b iting</w>
adequ ate</w>
deton ated</w>
deta iled</w>
ar ctic</w>
a than</w>
mo am
arab s</w>
crun ch</w>
ar thur</w>
stem ming</w>
san tos</w>
hurrican es</w>
beck ham</w>
ag assi</w>
refe ree</w>
cri tic</w>
conv ince</w>
rio ting</w>
m all</w>
expor ters</w>
bra ced</w>
under- ##</w>
um -
stra pped</w>
ow ns</w>
nic ole</w>
k ie
t ely</w>
postp one</w>
oun cing</w>
arti cle</w>
trin i
reig ning</w>
naz is</w>
th es</w>
he ated</w>
chol era</w>
war ring</w>
re k</w>
hag ue</w>
engine er</w>
an ch
ski pper</w>
vi gor
gun ned</w>
hom er</w>
ea ger</w>
surpri sed</w>
sn at
lis bon</w>
autonom y</w>
ro ma</w>
m on</w>
wholes ale</w>
st aging</w>
quarter final</w>
protoc ol</w>
mus ev
musev eni</w>
car -
inspec tor</w>
b out</w>
o bas
igno red</w>
da tions</w>
cont acts</w>
exp i
st y
sol ana</w>
## rd</w>
t ant</w>
nicaragu a</w>
indi ana
deal t</w>
coc a-
team mates</w>
ro o
mom ents</w>
im per
gra bbed</w>
rec eption</w>
proph et</w>
ke red</w>
conduc ting</w>
t ze</w>
el ess</w>
re luc
pun ish</w>
car maker</w>
russi ans</w>
indiana polis</w>
al- maliki</w>
youn gest</w>
obas anjo</w>
beau ty</w>
tou ch</w>
dou ble-
bash ar</w>
am m
sta ying</w>
smugg le</w>
ro ots</w>
bom bar
argu ed</w>
ac tually</w>
vis as</w>
stun ned</w>
ma inten
mainten ance</w>
li ons</w>
de bri
critici zing</w>
g ing
compon ent</w>
speed way</w>
mb o</w>
g an
extre me</w>
citi group</w>
-lan guage</w>
yang tze</w>
trig gering</w>
ro les</w>
requi rements</w>
atro cities</w>
tai ex</w>
hon da</w>
telev ised</w>
st or</w>
shel ter</w>
oc e
conn ected</w>
wea kening</w>
je wel
ab used</w>
tou ched</w>
stabil ize</w>
rac ked</w>
al varo</w>
mar s</w>
lux emb
e iro</w>
co st
tor ch</w>
kur ds</w>
er ad
bru ins</w>
est rada</w>
sk ies</w>
ho o</w>
pan demic</w>
cel tic</w>
pra yer</w>
o b</w>
fortun e</w>
bern anke</w>
max imum</w>
man eu
k ra
al izing</w>
gu in
w l</w>
u ri
proc ed
incen tives</w>
impas se</w>
ru pe
trans actions</w>
re sp
ma ine</w>
g ment</w>
t ad
tigh tening</w>
tacti cs</w>
in os</w>
clear -
dioc ese</w>
da iry</w>
can cell
withdra wing</w>
sk a</w>
pe t
l ack
coll ect</w>
g au
essen tial</w>
ceremon ies</w>
ath lon</w>
ap ed</w>
uni tion</w>
stu ck</w>
pro of</w>
maint aining</w>
plun ging</w>
om on</w>
gi ft</w>
ea st
circu m
bi partisan</w>
at mo
tow n
fi xed</w>
coca- cola</w>
use gun</w>
suspici ous</w>
st ation
ol usegun</w>
ele ph
na sty</w>
amat eur</w>
surr ounded</w>
harass ment</w>
amp le</w>
ya hoo</w>
vice- president</w>
sac ra
ric an</w>
privati zation</w>
ha inan</w>
bra ves</w>
y ow
yow eri</w>
stri pped</w>
ship ments</w>
ra w</w>
in sid
counc il
cel tics</w>
alab ama</w>
cro at</w>
rehabil itation</w>
semi- final</w>
ra ys</w>
w ounds</w>
abil ities</w>
tot tenham</w>
fran co
amm unition</w>
nor mal
gu r</w>
debri s</w>
swi ft</w>
rob in</w>
mo b</w>
mo b
ex- soviet</w>
ri al</w>
di a
clo ck</w>
trini dad</w>
r he
mar tial</w>
hel ps</w>
c raig</w>
trans -
super star</w>
mer ge</w>
shi pment</w>
schol ars</w>
o es</w>
hea d-
valen cia</w>
peti tion</w>
k ri
hi de
emb assi
embassi es</w>
pa inting</w>
candida cy</w>
am r</w>
new s
better- than-expected</w>
slova k</w>
pre serve</w>
indi gen
exten sive</w>
sour i</w>
vic toria</w>
e k
defen sem
kar ad
ja va</w>
in cur
ex pul
co x</w>
au d
popul ous</w>
comfor table</w>
re t</w>
go -
att a
wid ow</w>
trou bles</w>
issu ing</w>
and ro</w>
municipal ity</w>
ves sels</w>
impea chment</w>
fl ex
fi x
coa ching</w>
clou d</w>
contam inated</w>
anti -</w>
mar se
indic tment</w>
gre eted</w>
com ment</w>
al bright</w>
air space</w>
abrup tly</w>
man ned</w>
ceme tery</w>
rest ored</w>
men to</w>
fac e-
overwhel ming</w>
mis souri</w>
happ ened</w>
a dam</w>
spre e</w>
to dd</w>
mal aria</w>
la ying</w>
ste red</w>
b y-
se ism
por no
exc ept</w>
ar ray</w>
ad dic
worl d-
me tro</w>
shar if</w>
milli onaire</w>
chic ken</w>
wel ls</w>
t as</w>
lack lu
gu o</w>
cru shed</w>
##- percent</w>
war saw</w>
w i</w>
rad ovan</w>
intellec tual</w>
dit ch</w>
rever sing</w>
tw el
survi val</w>
mor al</w>
k es
gar cia</w>
karad zic</w>
k al
ul tra
re peat</w>
fall out</w>
re bu
inten sive</w>
got ten</w>
dedic ated</w>
ac res</w>
ri y
night club</w>
l one</w>
dis per
def use</w>
classi fied</w>
mountain ous</w>
cont ingent</w>
na dal</w>
ea ster</w>
war- ravaged</w>
sal aries</w>
re mark
remark able</w>
condem ning</w>
ag an</w>
franch ise</w>
ru lers</w>
offen se</w>
y i</w>
t les</w>
f ers</w>
can al</w>
bu en
sti ck</w>
electri cal</w>
dr ink</w>
contribu tion</w>
bran ds</w>
c af
tur ns</w>
sh i</w>
ron ald</w>
respec tively</w>
k l
wild fires</w>
w ound</w>
strugg les</w>
os se
al ities</w>
simp ly</w>
p raise</w>
u ph
sign aling</w>
in stru
cla ude</w>
qualifi ers</w>
stor age</w>
photo s</w>
ham as
co o
w right</w>
soc ie
roc k
refu ge</w>
land slides</w>
enjo yed</w>
determin ation</w>
camer as</w>
advis or</w>
valu able</w>
peace fully</w>
id eas</w>
b ble</w>
in mate</w>
wor ry</w>
pol y
identi fy</w>
di a</w>
coc k
resid ent</w>
nan cy</w>
unil ateral</w>
op posing</w>
broker age</w>
lot tery</w>
le eds</w>
robin son</w>
laure ate</w>
ri ft</w>
or bit</w>
c r</w>
bm w</w>
witn essed</w>
wit z</w>
super market</w>
sol o</w>
land s
inti mi
fre ight</w>
cro ss
aris tide</w>
wi der</w>
ver ge</w>
stat e
sacra mento</w>
orig in
effici ent</w>
fren chman</w>
di ving</w>
cur few</w>
coun sel</w>
v it
survi ve</w>
rid den</w>
fire works</w>
se f</w>
difficul ties</w>
bi ological</w>
ben ch</w>
st amp</w>
retre ated</w>
reg ain</w>
su harto</w>
pou red</w>
on able</w>
mon aco</w>
maver icks</w>
gang s</w>
so y
conc er
ren ov
lob b
l en</w>
histor ical</w>
centu ries</w>
c c
proj ected</w>
iti ve</w>
glo bal
dist ur
da mp
jun gle</w>
fru it</w>
thou se</w>
ta res</w>
sti r
na vi
hec tares</w>
gym nas
shad ow</w>
exp ecting</w>
enthusi as
capital ization</w>
sa u</w>
marse ille</w>
m age</w>
investig ator</w>
extrad ited</w>
deliver ing</w>
bri g
yu d
cigaret tes</w>
accel erate</w>
su mat
sp ur</w>
mc donald</w>
ke ys</w>
franco is</w>
des ire</w>
bes ie
bat sman</w>
mil i
jet liner</w>
adul ts</w>
li eu
comp ly</w>
c at</w>
&amp; t</w>
war ri
open ly</w>
mit t</w>
second- half</w>
ex emp
three- month</w>
que ens</w>
pel led</w>
contro lling</w>
broad er</w>
nurs ing</w>
m its</w>
eng ines</w>
deep er</w>
mar yland</w>
lat e-
divor ce</w>
uy gur</w>
rebel lion</w>
er ne
crip pling</w>
advis ed</w>
lieu ten
super -
ri der</w>
equ ities</w>
vulner able</w>
observ er</w>
milit ary-
boo k
autom atic</w>
amaz on</w>
s i</w>
n is
ib m</w>
competi tors</w>
o dom</w>
ju mping</w>
e ps</w>
assail ants</w>
administr ator</w>
wid ening</w>
val ent</w>
priv acy</w>
pa int
rub ble</w>
ro d</w>
esti mate</w>
clin ch</w>
serv ants</w>
two- week</w>
n on</w>
emb ry
contro ll
comple tely</w>
oul d-
est one</w>
ch ev
transp a
stra w</w>
nepal ese</w>
mun d</w>
bor rowing</w>
t ang</w>
st ress</w>
gl en
don or</w>
de portation</w>
ve ge
val ent
re leg
ren ess</w>
a iled</w>
rail road</w>
fal lu
as set</w>
al- assad</w>
nic hol
inter cep
indigen ous</w>
defend ants</w>
cli mb</w>
l u</w>
fa vored</w>
es el</w>
direc tor
arrest ing</w>
tro y</w>
luxemb our
gren ades</w>
em entary</w>
rever sed</w>
matt ers</w>
recor ding</w>
nu clear-
va j
f os
er ly</w>
el a</w>
consult ations</w>
ans u</w>
sle ep
fallu jah</w>
w ould-
would- be</w>
limit ed-
effici ency</w>
alu min
sn apped</w>
sh eri
psy chi
exc essive</w>
#- ##</w>
st ine</w>
pri de</w>
pa ving</w>
front -run
der ailed</w>
z ers</w>
rej ection</w>
fore sts</w>
ell a</w>
analy sis</w>
organiz e</w>
hard -line</w>
es a</w>
defensem an</w>
ba g</w>
prov oc
on y
du p</w>
commemor ate</w>
bre ach</w>
au ster
al arm</w>
tax i</w>
suffici ent</w>
span i
secur ing</w>
indic ating</w>
emer ge</w>
ann y</w>
rac ist</w>
contribu ted</w>
at &amp;t</w>
- and-
s bc</w>
princip al</w>
' ##s</w>
ty son</w>
ser ial</w>
commu ter</w>
auster ity</w>
th- seeded</w>
arbit ration</w>
s kills</w>
elig ible</w>
sugg ests</w>
recei ver</w>
hu n</w>
fl am
ra ul</w>
r attled</w>
evgen y</w>
e w</w>
clo thes</w>
scru tiny</w>
radio active</w>
ore gon</w>
his panic</w>
h anging</w>
gor an</w>
econom ist</w>
smugg led</w>
i ah</w>
en able</w>
ang el</w>
twel ve</w>
man du</w>
man age</w>
ot ta
fi at</w>
chil d
ca sting</w>
u. n.
tan a</w>
f lown</w>
defi ance</w>
bl ues</w>
be red</w>
wh i
p y</w>
ne v
un fair</w>
sur face</w>
fac ts</w>
cooper ative</w>
attrac ted</w>
tra tion</w>
en voys</w>
mor ales</w>
man da
san che
frustr ated</w>
ro of</w>
h ire</w>
fe ed</w>
ess ors</w>
disrup t</w>
sett ling</w>
pes o</w>
contrac tors</w>
uni fied</w>
def ying</w>
sor ship</w>
ri son</w>
res ur
ra m</w>
loc ate</w>
li sts</w>
imm un
anti- doping</w>
si de
s abo
p ack</w>
mist ake</w>
mar ie</w>
lyn ch</w>
j on</w>
fo es</w>
counter fe
ain s</w>
us sia</w>
mo od</w>
gra ham</w>
expen ses</w>
be aring</w>
attac kers</w>
ar d
wo o</w>
song s</w>
pu mp</w>
deal er</w>
saf ely</w>
do gan</w>
clos est</w>
ur i</w>
lobb ying</w>
fair ly</w>
p ages</w>
mo thers</w>
bu y
as sur
ro ster</w>
buen os</w>
ar io</w>
han oi</w>
unic ef</w>
tak er</w>
scra mbled</w>
heigh ts</w>
b old</w>
subst ance</w>
str ous</w>
stop ping</w>
sam sung</w>
rest art</w>
pri or</w>
le m</w>
resul ting</w>
mur ray</w>
fre d
dec reas
har der</w>
tor tured</w>
farm er</w>
co st-
chin a-
th ick</w>
slu mping</w>
rama dan</w>
id ity</w>
g #</w>
depos its</w>
bo dy
war ship</w>
associ ates</w>
kan da
embar go</w>
an xi</w>
m igh
endor sement</w>
awa reness</w>
pione er</w>
m ourn
jan eiro</w>
sub -
liber ty</w>
k is
har i</w>
conten der</w>
sem iti
a str
sha anxi</w>
s cu
h at</w>
fir mly</w>
develop er</w>
z ai
kanda har</w>
human s</w>
col o
afric ans</w>
##, ###-
n ab
k are
par king</w>
otta wa</w>
mold ova</w>
li fe
hand ful</w>
gl as</w>
gener als</w>
cli ent</w>
automo tive</w>
turk men
favor able</w>
bu ster</w>
on ic</w>
magist rate</w>
adju sted</w>
su l</w>
gest ure</w>
defi ant</w>
transi tional</w>
wic ket</w>
t ung</w>
spec ific</w>
mega wat
interven e</w>
entr ance</w>
cir cle</w>
un h
turkmen istan</w>
pit ching</w>
mag n
green peace</w>
anti- corruption</w>
ambass ad
str ang
rong ji</w>
ou ting</w>
luxembour g</w>
ban ker</w>
-ran ge</w>
re es</w>
prosper ity</w>
he m</w>
condem nation</w>
c ov
se izing</w>
ging rich</w>
orig in</w>
kore ans</w>
gi e</w>
w iz
ir regular
boli vian</w>
b h
near -
jes us</w>
turn over</w>
s men</w>
re unification</w>
commit ments</w>
be ars</w>
jol ted</w>
in gu
ed die</w>
shop pers</w>
erne sto</w>
enjo y</w>
de fied</w>
nu mer
facil itate</w>
confir m</w>
satis fied</w>
er dogan</w>
dou glas</w>
spe eding</w>
psychi atri
trac ks</w>
domin ique</w>
daim ler
spar e</w>
quar ant
nev ada</w>
high ways</w>
ec raft</w>
de pic
w ag
top ple</w>
r c</w>
over throw</w>
k s
guang xi</w>
cont ained</w>
bel t</w>
z a
k ad
atmo sphere</w>
at -
ac compan
tal e</w>
co ok</w>
pp cc</w>
n ial</w>
k un
conspir ing</w>
c ppcc</w>
aus tin</w>
var iety</w>
u x</w>
tal ent</w>
daimler chrysler</w>
smoo th</w>
se an</w>
pain ful</w>
om an</w>
lob by
dis count</w>
y n</w>
tri ck</w>
re ll</w>
german s</w>
war time</w>
per mit</w>
bro kered</w>
ramp ant</w>
ine z</w>
edu ardo</w>
design ated</w>
colon ial</w>
regre t</w>
k ovic</w>
chap ter</w>
yi p</w>
ra mal
fic ial</w>
exp o</w>
ab sol
com ed
lo ved</w>
la bo
jon athan</w>
j orge</w>
gri m</w>
full- year</w>
expul sion</w>
an n</w>
u ba</w>
t ance</w>
mit ch
ev asion</w>
bro ther
ra dar</w>
ann ually</w>
a ###</w>
vac lav</w>
spac ecraft</w>
no on</w>
medi ator</w>
wa re
sho es</w>
man slaughter</w>
h ate</w>
es cu</w>
- backed</w>
mo de
mis conduct</w>
irregular ities</w>
ic es</w>
h arm
view ers</w>
compat riot</w>
christi e</w>
car lo</w>
y l</w>
we i</w>
pl enty</w>
extrad ite</w>
contrac ted</w>
mus cle</w>
bl un
wal ls</w>
sam uel</w>
rest oring</w>
liter ature</w>
gold man</w>
ber ry</w>
super vision</w>
sumat ra</w>
ivan ov</w>
coun ties</w>
om a</w>
m med</w>
eng ag
cot ton</w>
vil i</w>
anti- semiti
tu be</w>
top pled</w>
pal in</w>
si emens</w>
re vo
negoti ated</w>
fir mer</w>
enti onal</w>
disgra ced</w>
pes os</w>
min gham</w>
barri ers</w>
athle te</w>
well- known</w>
t ada</w>
spec ul
ra i</w>
dict ator
shoot ings</w>
ran ch</w>
mart inez</w>
gymnas tics</w>
a venue</w>
re in</w>
pat aki</w>
lu f
house hold</w>
pe z</w>
gus on</w>
fer guson</w>
du bl
cathol ics</w>
appl ication</w>
overshad owed</w>
licen ses</w>
le tting</w>
ignor ing</w>
conc eded</w>
s cul
regist er</w>
q tada</w>
hi kes</w>
ha bit
neighbor hoods</w>
x es</w>
re ds</w>
l ung</w>
fil ling</w>
contain er</w>
respon ded</w>
pull out</w>
hu mili
commit ting</w>
tur in</w>
in fil
earthqu akes</w>
bu ll</w>
ai s</w>
da ve</w>
anti- terror</w>
wit t</w>
subur bs</w>
pro m</w>
green back</w>
top -ranked</w>
p ig
mon ia</w>
tay yip</w>
harv est</w>
gran ting</w>
environmental ists</w>
avoi ded</w>
tr i</w>
leg acy</w>
dela ying</w>
pursu ing</w>
kel ly</w>
hin ted</w>
coordin ated</w>
ro v</w>
new t</w>
leng thy</w>
inter rup
exclu sive</w>
er o</w>
u .</w>
n or</w>
law rence</w>
la ura</w>
degre es</w>
an gered</w>
americ as</w>
pl ate</w>
over see</w>
hom e-
discipl ine</w>
and er
ali e</w>
p neu
imm unity</w>
gu est</w>
coordin ator</w>
bur ma</w>
un acceptable</w>
mitch ell</w>
freez ing</w>
deterior ating</w>
besie ged</w>
ra in-
le ti
second -round</w>
re- elected</w>
parti ally</w>
out lined</w>
he ed</w>
f old</w>
en ce-
min orities</w>
extrem ely</w>
er ic
tan e
ev ol
rom ney</w>
mart ina</w>
ish -
res ses</w>
qu ell</w>
pilgri mage</w>
open -
od ds</w>
el ev
appropri ate</w>
van a</w>
sea son
reshuff le</w>
fear ing</w>
cul t</w>
ada ms</w>
y evgeny</w>
hur led</w>
d ressed</w>
proper ties</w>
sh au
ramal lah</w>
bur ns</w>
bac ter
v oc
met als</w>
dis miss
cn n</w>
rec ep</w>
en ri
satis faction</w>
ou ster</w>
nom inations</w>
f- ##</w>
co stly</w>
sub mit</w>
sign als</w>
ong -
conven ed</w>
brad ley</w>
bra d</w>
seiz ure</w>
wal ker</w>
restric ted</w>
ha y
d ang
boutro s</w>
ya cht</w>
vice- chairman</w>
fe in</w>
clu es</w>
bron cos</w>
lon ged</w>
la h
u.s. -based</w>
nis san</w>
lot te</w>
fil es</w>
es -
au tum
as s</w>
an war</w>
spra wling</w>
regist ration</w>
f aul
er mo</w>
cel lu
tea ching</w>
ro h</w>
nei ther</w>
en gul
cu bs</w>
pic king</w>
hom em
enem ies</w>
war lord</w>
ti oned</w>
rif le</w>
origin ally</w>
leon id</w>
kh at
h ern
c tu
vic tor</w>
q ing
inform al</w>
bet ting</w>
time table</w>
stat ue</w>
om es</w>
lind say</w>
kar l</w>
k in</w>
ir s</w>
eric sson</w>
tr ai
p rou
margin ally</w>
sheri ff</w>
san a</w>
pre su
du bbed</w>
do ha</w>
di esel</w>
ca sh-
lo pez</w>
hand led</w>
ch ann
yush chenko</w>
wid ened</w>
shel ls</w>
sanche z</w>
mist ak
ham mer</w>
ev ed</w>
crip pled</w>
kil lers</w>
inter pre
hondur an</w>
fo iled</w>
gu ests</w>
v or</w>
technolo gical</w>
inter f
turn out</w>
hawai i</w>
farm ing</w>
dubl in</w>
con front</w>
scen es</w>
restra int</w>
nor odom</w>
arab ian</w>
ac as</w>
rober ts</w>
equi valent</w>
pen gu
paint ings</w>
mil estone</w>
khat ami</w>
n one</w>
kath mandu</w>
war n</w>
tu ber
tad ores</w>
stab bing</w>
russi an-
ran ked</w>
liber tadores</w>
h emis
cru shing</w>
be th
q ian</w>
pre tty</w>
hen an</w>
he fty</w>
ea gles</w>
approa ching</w>
ap preci
spur red</w>
sing ly</w>
pro posing</w>
on ey</w>
## #-#</w>
year- end</w>
tsun am
tri -
recru iting</w>
lo sis</w>
gene tically</w>
det ec
may be</w>
is ation</w>
discipl inary</w>
st om
port fol
for- food</w>
dis on</w>
b se</w>
p i</w>
fundamental ist</w>
du ke</w>
third -largest</w>
sw ung</w>
studi os</w>
h ans</w>
g ations</w>
wh ist
under stand</w>
tra iner</w>
succ essive</w>
re d-
militi as</w>
j ail
dis appearance</w>
c ited</w>
arch y</w>
profes sion
pro claimed</w>
vaj pay
vajpay ee</w>
sin n</w>
pro bing</w>
migh ty</w>
h em
bosn ia-
shan e</w>
mem bered</w>
don ate</w>
confisc ated</w>
west ern
unh cr</w>
survi ving</w>
quo ting</w>
purchas es</w>
jac ob</w>
amoun ts</w>
th ful</w>
gh ali</w>
cl ari
afgh ans</w>
mov ements</w>
master mind</w>
pick up</w>
pan -
over sight</w>
ang ri
stan ford</w>
si e</w>
paraly zed</w>
at al</w>
as ed</w>
z yn
z el
ve t
os lo</w>
gene tic</w>
es cor
design ate</w>
and erson</w>
numer ous</w>
n ice</w>
bir mingham</w>
bay er</w>
tuber cu
tubercu losis</w>
symb olic</w>
rel ative</w>
k ac
spons or</w>
loc k
k yo
is mail</w>
dol ph
limited- overs</w>
ish i</w>
graph ic</w>
en dea
c ry
tom s</w>
out -
no kia</w>
mil d</w>
er ie</w>
car di
be c</w>
ti ans</w>
out spoken</w>
pro longed</w>
oper ated</w>
mer ri
ci vic</w>
re mov
mourn ers</w>
hy un</w>
guaran te
enterpri se</w>
camer a</w>
box es</w>
ab a</w>
w are</w>
un disclosed</w>
sa y
mo sul</w>
em i</w>
disa strous</w>
tre ating</w>
j ong</w>
relea sing</w>
mer ced
autum n</w>
tal ked</w>
provi des</w>
pack ard</w>
isl anders</w>
ch est</w>
shut down</w>
shak y</w>
pl edges</w>
oil- for-food</w>
cla sses</w>
favor ites</w>
bel fast</w>
b eng
t one</w>
o th
hut u</w>
hun an</w>
de pot</w>
un usually</w>
pa ve</w>
initi atives</w>
ind a</w>
ar kansas</w>
th ansa</w>
sna p</w>
luf thansa</w>
film maker</w>
en or
ap ing</w>
z huang</w>
roc ks</w>
over seeing</w>
mat the
freder ick</w>
tol er
samp ras</w>
other wise</w>
col leg
anti- drug</w>
scra p</w>
rod dick</w>
nor man</w>
liv est
bosnia- her
ha vana</w>
fran co</w>
care taker</w>
sing le-
en counter</w>
adop tion</w>
trac ted</w>
secret ly</w>
retre at</w>
k abil
kabil a</w>
f e-
convers ation</w>
bol ton</w>
will ing
wild fire</w>
nerv ous</w>
front-run ner</w>
fis cher</w>
financi er</w>
zyn ski</w>
mechan ism</w>
livest ock</w>
hy un
f u</w>
exam ination</w>
ri dge</w>
princi ples</w>
ch o</w>
camp bell</w>
escal ation</w>
weight lifting</w>
li ps</w>
epis o
conclu sion</w>
colleg es</w>
telecom s</w>
la kes</w>
dec ad
camer on</w>
p son</w>
mongol ian</w>
w racked</w>
w en
fru stration</w>
pol i</w>
me -
jus tin</w>
he bei</w>
ex ample</w>
consoli dated</w>
adul t</w>
w ish</w>
pil es</w>
john ny</w>
cred itors</w>
bon uses</w>
z ny</w>
sw is
sel l
im ori</w>
fuj imori</w>
cur e</w>
re an</w>
pro pose</w>
port land</w>
mid west</w>
il ton</w>
hor ri
copy right</w>
col or</w>
c ad
willing ness</w>
shak en</w>
ri ses</w>
ambassad ors</w>
al ain</w>
sh en</w>
jan et</w>
im possible</w>
ak er</w>
mel tdown</w>
gas es</w>
remov al</w>
osse tia</w>
archit ect</w>
plumme ted</w>
indic ation</w>
guaran tees</w>
guar ded</w>
g- hui</w>
three- time</w>
ro s
hu bei</w>
ell i</w>
el ementary</w>
ra hman</w>
ov al</w>
sh rugged</w>
mental ly</w>
implem enting</w>
dictator ship</w>
ch op
argu ment</w>
lithu anian</w>
hon or
gal ax
flag ship</w>
surpri singly</w>
ren ault</w>
mo s
medi ate</w>
l li
credi bility</w>
wa shed</w>
swit ch</w>
in stability</w>
dir ty</w>
cap ped</w>
lor ds</w>
ulti mate</w>
i- ###</w>
d ous</w>
bam bang</w>
re moving</w>
kac zynski</w>
den y</w>
ch ma</w>
bor dering</w>
b ren
assass inated</w>
ang lo
six- year</w>
re ward</w>
pro pelled</w>
photograph s</w>
pear l</w>
surviv or</w>
net t</w>
i a
he w
sub stitu
ri e</w>
lob by</w>
sab ah</w>
mor ris</w>
gun battle</w>
vide ot
speci alist</w>
r ors</w>
nikke i-###</w>
abu ja</w>
tab ly</w>
t ations</w>
self- rule</w>
revi ving</w>
neu tr
billi on-
archae ologists</w>
mar co</w>
intensi fy</w>
con centr
ab kha
roc ky</w>
m i</w>
fl ed
app lied</w>
sp ell</w>
bene ath</w>
bas ra</w>
thir ds</w>
l ech</w>
sub scri
sh ake</w>
ri a</w>
motiv ated</w>
medic ines</w>
mar gin</w>
aff ecting</w>
unve il</w>
treas on</w>
que bec</w>
fi ery</w>
s lower</w>
proced ure</w>
kic king</w>
six- day</w>
den tally</w>
d owned</w>
ap a</w>
weigh ing</w>
ham ilton</w>
fel ix</w>
tri c</w>
ti re</w>
sni per</w>
legiti mate</w>
gener ated</w>
engag ement</w>
coordin ate</w>
th rill
protest ors</w>
p est</w>
d c</w>
neg li
en force</w>
revi ved</w>
mode stly</w>
a to</w>
ped ro</w>
def ic
ap ply</w>
rati fied</w>
pos s
par is
monu ment</w>
k ens</w>
fled gling</w>
de vil</w>
el ements</w>
b iz
se eds</w>
scre ening</w>
corpor ations</w>
ven tures</w>
u d</w>
sn ea
k ai
i ds</w>
homem ade</w>
ever ton</w>
comb at
box er</w>
tab les</w>
mis sion
left- wing</w>
h edge</w>
yiel ds</w>
u.s.- backed</w>
ju mp
in- law</w>
face- to-
bit ter
achiev ements</w>
nami bia</w>
corrup t</w>
conv in
armen ian</w>
pr int</w>
c es
b its</w>
stal em
gradu ate</w>
si est</w>
dest ination</w>
andre i</w>
acc ession</w>
reve al</w>
on- based</w>
min i
experim ental</w>
un ga</w>
mb er</w>
lea ked</w>
he witt</w>
ha i</w>
ell o</w>
resp ected</w>
es si
deb t-
ar son</w>
angri ly</w>
un armed</w>
run ner</w>
priv ately</w>
lay offs</w>
j .
ak ash
to s
ry der</w>
lat eral</w>
fren ch-
conten ders</w>
th under
taxpay ers</w>
han der</w>
ou gh
mar iners</w>
gro zny</w>
et -
es -old</w>
bal ls</w>
ay atol
acci dentally</w>
re count</w>
nov el
mo han</w>
convin ced</w>
at leti
a par
w ri
um ph
sus ilo</w>
sovereig n</w>
l ant</w>
gaz prom</w>
fal tering</w>
uri be</w>
treas u
re viewing</w>
mit sub
ham burg</w>
-r ussian</w>
ci o</w>
ch u</w>
cellu lar</w>
st aff
bron x</w>
pass port</w>
ayatol lah</w>
yon o</w>
pl a</w>
hk sar</w>
ri sky</w>
climb ing</w>
yu kos</w>
station ed</w>
mac y</w>
te -
moder ately</w>
ma dison</w>
hi p</w>
cal der
rupe es</w>
r in
da ugh
cri ses</w>
re lev
d ell</w>
barbar a</w>
ultra -
prob ation</w>
ku chma</w>
go- ahead</w>
ch ner</w>
b ounced</w>
shir t</w>
rest oration</w>
re calling</w>
iz on</w>
f ence</w>
c and
u an</w>
si oned</w>
inter ference</w>
homosex u
comb ination</w>
ti p</w>
modi fied</w>
le hman</w>
inj ection</w>
g ur
pro pag
mem ories</w>
expo sure</w>
et t</w>
reas sure</w>
med ics</w>
im p
ev alu
ch un
boutro s-
advoc ate</w>
regu late</w>
len ders</w>
acc ur
yud ho
yudho yono</w>
wi el
mitsub ishi</w>
ladi es</w>
ex pel</w>
long- standing</w>
form erly</w>
safe guard</w>
ric ky</w>
merri ll</w>
it z</w>
insid er</w>
inf ections</w>
and in
- general</w>
em ed</w>
dd led</w>
bu cks</w>
tri ps</w>
pneu monia</w>
no t
inf ant</w>
ch ong
medi ation</w>
unanim ous</w>
i k</w>
diagno sed</w>
boutros- ghali</w>
tear s</w>
riy ad
qu ake-
no ted</w>
ff ed</w>
da li
bil ly</w>
ac les</w>
u k</w>
transp lant</w>
ten g-hui</w>
per t</w>
h id</w>
ex tor
an hui</w>
ter n</w>
sa iling</w>
rest rict</w>
hen ri
nu tri
mo ther
mem or
don na</w>
coordin ation</w>
at unga</w>
sol omon</w>
sle ep</w>
re suming</w>
na wa
u pro
t au
hurd les</w>
feu d</w>
li sting</w>
har dly</w>
dismiss al</w>
bu ck
ref use</w>
r -
preci ous</w>
la p
chea p</w>
tri umph
servic emen</w>
nurs es</w>
loc ker</w>
jes se</w>
chin ese-
vol vo</w>
rough ly</w>
h ing
fo g</w>
du t
cann es</w>
than ks
thanks giving</w>
int ent</w>
syn ago
shel ling</w>
mo ore</w>
log is
d ental</w>
- held</w>
pres sures</w>
di es</w>
coa st
rup iah</w>
ov en</w>
gi fts</w>
ec ture</w>
conv entional</w>
char lotte</w>
blue- chip</w>
mac au</w>
lu kash
lukash enko</w>
to go</w>
riyad h</w>
quarter- final</w>
amp ed</w>
resear cher</w>
it ting</w>
d wind
accor ds</w>
b au
thom pson</w>
seem ingly</w>
nor m
hyun dai</w>
spur s</w>
scul p
ric ardo</w>
mc car
g it</w>
f lowers</w>
colum bus</w>
all ying</w>
stea d
initi ally</w>
fe e</w>
bash ir</w>
austral ians</w>
un earth
ti an
sor t</w>
lu ck</w>
l ure</w>
e y-
sc andin
coll ective</w>
c rus
ver se</w>
t z</w>
la sh</w>
l il
dr inks</w>
detain ee</w>
w ed</w>
swe et</w>
bu re
sy mp
dest abil
bundes bank</w>
me h
att ri
assass inate</w>
z agre
zagre b</w>
simul tane
s mart</w>
reti ring</w>
jun g</w>
bio technology</w>
re consider</w>
medi ators</w>
highligh ted</w>
- in</w>
meteor ological</w>
li ma</w>
jeopar di
fail s</w>
char lie</w>
pengu ins</w>
pass ports</w>
out fielder</w>
mon ks</w>
li on
gu s</w>
gre g
bar ro
tri gger</w>
sid ed</w>
extremis m</w>
sh er
pro ceed</w>
particu lar</w>
one- stroke</w>
introduc tion</w>
in do
stro kes</w>
separ ated</w>
lands cape</w>
hand over</w>
gr ounded</w>
eng age</w>
unlea shed</w>
till a</w>
revi val</w>
ne o-
fin dings</w>
midd le-
cred ited</w>
c ker</w>
t t
r allying</w>
norm ally</w>
liter ary</w>
liqu idity</w>
internation ally</w>
da tes</w>
profit able</w>
out door</w>
o au</w>
ball istic</w>
w y
sil ent</w>
out breaks</w>
d .c.</w>
cauti ously</w>
c ry</w>
at ter</w>
suspen ding</w>
gre e
whit e
laz io</w>
fu n</w>
chong qing</w>
bot sw
bah t</w>
smugg lers</w>
k amp
hun g
controll ers</w>
sol ic
ed itors</w>
condem n</w>
conclu ding</w>
sugges tions</w>
sh er</w>
pat ent</w>
wi de
sh ef
represen ted</w>
ra f
m ec
balan ced</w>
jean- bertrand</w>
ich en</w>
w fp</w>
prostitu tion</w>
invest ing</w>
h es
enor mous</w>
chan g
pun ished</w>
competi tions</w>
co te</w>
c on</w>
secu lar</w>
re agan</w>
pro visions</w>
nam ing</w>
jewel ry</w>
gra v
for ged</w>
t us
sad c</w>
n ell</w>
metho ds</w>
dis miss</w>
q ichen</w>
ser gio</w>
tra der</w>
correc t</w>
cla y</w>
c ers</w>
brief ed</w>
republic s</w>
kie v</w>
el u
dr unken</w>
chri st</w>
bur den</w>
brit ons</w>
mig rant</w>
expor ter</w>
embarras sing</w>
ecu ador
bis sau</w>
ref er
or ph
gra ss</w>
resol utions</w>
ray mond</w>
mar ga
cancell ation</w>
block buster</w>
uzbe k</w>
re gained</w>
fic tion</w>
exam ining</w>
bar rage</w>
hung ry</w>
consoli date</w>
l ly</w>
high light</w>
appe aring</w>
sk in</w>
franc is</w>
bi den</w>
anglo -
## ##
pakist an
mon ey-
inv it
ger ald</w>
bure au
be headed</w>
nawa z</w>
marga ret</w>
main stream</w>
lin col
g ins</w>
for get</w>
dri ll</w>
col league</w>
un ita</w>
narrow ed</w>
machin ery</w>
li p
il er</w>
astr onom
apar the
ver i
un official</w>
stalem ate</w>
pro p</w>
om o</w>
o xi
inst all</w>
gi b
fern andez</w>
aggres sion</w>
ag er</w>
cross- country</w>
consid ers</w>
bic y
scra mbling</w>
schol ar</w>
roun d-
ra z
po l</w>
pe p
inde xes</w>
dec or
cauti oned</w>
best- selling</w>
bar ring</w>
uni on
sc attered</w>
p here</w>
ist -
industri als</w>
hemis phere</w>
astronau t</w>
h ang
ex pres
disper se</w>
chron ic
l s
gran ts</w>
cro ft</w>
c ats</w>
ai ss
str ate
re membered</w>
na r</w>
av o</w>
s v</w>
ku mar
europe ans</w>
ear ning</w>
ar ian</w>
a den</w>
un popular</w>
mar cos</w>
ill icit</w>
bu siest</w>
t u</w>
re actors</w>
on ce-
foreca sters</w>
consul ting</w>
c tions</w>
to y</w>
p k
mur doc
ec o
d ome</w>
cop ies</w>
che ered</w>
state- controlled</w>
global ization</w>
ad jour
syn dic
re eling</w>
pre- tax</w>
fo ren
ex plan
d j
choo sing</w>
ak bar</w>
zu ma</w>
ve y</w>
shar ks</w>
orchest ra</w>
gi ers</w>
boy friend</w>
volu mes</w>
l ement</w>
in ating</w>
e e
cen tre
reform ist</w>
r ity</w>
hol ed</w>
us c</w>
unearth ed</w>
trans mission</w>
sa d</w>
ra dic
ind y</w>
appl ications</w>
addi tion</w>
v ag
tic als</w>
s park</w>
fail ures</w>
con sci
ad mitting</w>
-r anging</w>
po tter</w>
da -linked</w>
us -based</w>
uni form</w>
su g
ru ins</w>
ra h</w>
fac tors</w>
r int</w>
r ho
lieuten ant</w>
hor ses</w>
h sbc</w>
g bag
gbag bo</w>
ep ic</w>
a ja
lan gu
z in
surge on</w>
merchan t</w>
an men</w>
war ships</w>
tur ner</w>
t- packard</w>
ph ony</w>
pan am
mi th
lincol n</w>
let t-packard</w>
home owners</w>
hew lett-packard</w>
fla sh
er- than-expected</w>
sahar a</w>
low- cost</w>
der ail</w>
defend ant</w>
atleti co</w>
a ar
yan a</w>
un constitutional</w>
sit u
murdoc h</w>
fa h
ch eng
amoun ted</w>
spr inter</w>
m el</w>
financi ally</w>
conven e</w>
clear ly</w>
bar ra
##. #-
regar ded</w>
porno graphy</w>
interro gation</w>
gra ph</w>
conv inc
chann els</w>
b lown</w>
anth ro
symp toms</w>
in ist</w>
exist ence</w>
cric ke
bec omes</w>
administ ered</w>
thrill er</w>
non- governmental</w>
galax y</w>
tw enty</w>
ten ure</w>
sebas tian</w>
ke ith</w>
gui ded</w>
du st</w>
bar gain
aja x</w>
spac e
pow der</w>
pharmaceu ticals</w>
fund-rai sing</w>
ru pert</w>
in ev
and res</w>
sam ples</w>
sach s</w>
prosecu te</w>
ley ton</w>
bo t</w>
ap ple</w>
am ation</w>
zz ling</w>
w ary</w>
premi ere</w>
p ti</w>
long- distance</w>
k im
hy bri
fol k</w>
a ston</w>
youn g
turn around</w>
ran ged</w>
b rett</w>
strate gies</w>
kazak h</w>
h indu
eu s</w>
den ed</w>
commun ists</w>
ren o</w>
o'ne al</w>
heal th
em irate</w>
cer tain
up ward</w>
os car-
men ted</w>
is a</w>
colon el</w>
apolo gi
zan zi
w er
new com
con cen
w ich</w>
st ina</w>
ish ers</w>
domin ate</w>
dan cing</w>
custom er</w>
bra wl</w>
aiss ance</w>
sell -off</w>
vir tual</w>
uti lities</w>
suc ceeded</w>
su r</w>
sli m</w>
net working</w>
knoc kout</w>
ig ned</w>
d t</w>
compens ate</w>
certi fic
assaul ting</w>
taji k</w>
on e
mous sa</w>
mar ion</w>
li ance</w>
defic its</w>
mist akes</w>
m in</w>
m ering</w>
fin ds</w>
divi de</w>
cor ner
con st
col e</w>
tra de
senten cing</w>
h wa</w>
fac e
alle vi
th inks</w>
sug gest</w>
matthe w</w>
kid ney</w>
hurd le</w>
g ong</w>
fore stry</w>
woo den</w>
te e
refu lly</w>
petro l</w>
n ing
flu ctu
ca refully</w>
al italia</w>
vi gil
re fra
patro ls</w>
mar tha</w>
de voted</w>
buy out</w>
two- month</w>
swi f
row s</w>
n ile</w>
confir ming</w>
char tered</w>
bea uti
wis con
to ys</w>
l leyton</w>
gener ations</w>
ex ported</w>
comple tion</w>
c ements</w>
bu ted</w>
volun tary</w>
mo i</w>
ger -than-expected</w>
ec tion
confid ential</w>
au ck
al giers</w>
vo ire</w>
sub prime</w>
sing ing</w>
sha ke
r one</w>
profession als</w>
bea ches</w>
audi t</w>
approa ched</w>
an ony
p he</w>
kumar atunga</w>
hu dson</w>
ferti li
antar a</w>
##- kilometer</w>
s nu
glen n</w>
b ited</w>
par don</w>
guatem alan</w>
b bing</w>
volcan ic</w>
li ers</w>
e- up</w>
abkha zia</w>
##th- century</w>
st am</w>
intercep ted</w>
honor ary</w>
en suring</w>
counter -
centre -
x ia</w>
van gi
town ship</w>
ti en</w>
po et</w>
nation alists</w>
hero es</w>
arrang ements</w>
air strike</w>
tele kom</w>
gen tly</w>
e a</w>
de emed</w>
bac ker</w>
add ressed</w>
pre a
i .</w>
fl yers</w>
dead locked</w>
viol ate</w>
ri ver
gi l</w>
bas eman</w>
foreig n-
disappoint ment</w>
auck land</w>
sub po
rou ted</w>
pri orities</w>
master min
ke eps</w>
gall ery</w>
dri ka</w>
chan drika</w>
bl ind</w>
week long</w>
stea m</w>
re di
oxi de</w>
j ing
buil dup</w>
zu rich</w>
viol ence-
tw ist</w>
s ers</w>
n op
happ en</w>
council or</w>
comb ating</w>
certain ly</w>
achiev ement</w>
wh at
to ols</w>
st ressing</w>
j e</w>
half way</w>
funda mental</w>
cru ised</w>
megawat i</w>
mas ked</w>
be st
daugh ters</w>
botsw ana</w>
bo a
b oc
wide -ranging</w>
op er</w>
i voire</w>
h en</w>
duc ks</w>
dec re
care er-
u bs</w>
b age</w>
t son</w>
sop his
sophis tic
s c</w>
per pe
over turn</w>
b ic</w>
pi pe</w>
cal en
atlan tis</w>
take off</w>
j o</w>
g y-
typ es</w>
run -up</w>
il in</w>
dy nasty</w>
deliver ies</w>
cry stal</w>
cour t-
cath ed
augu sto</w>
ed it
jit ters</w>
f lowing</w>
escal ated</w>
warri ors</w>
vangi rai</w>
ts vangirai</w>
six- nation</w>
la bel</w>
gra b</w>
fer re
cor p
bargain -
u tri</w>
tu ous</w>
mo ody</w>
le ver
child hood</w>
q in
propag anda</w>
ia af</w>
shu tting</w>
shef field</w>
hal ting</w>
cour thouse</w>
calder on</w>
blu ep
yi eld</w>
u ps</w>
ta il
ri fl
que ens
man mohan</w>
wrest ling</w>
wa i</w>
sh ev
rhe tor
post pon
mig ration</w>
life time</w>
en e</w>
e vil</w>
dis closure</w>
acti vely</w>
tuni sian</w>
the ory</w>
sol utions</w>
shan xi</w>
manda tory</w>
dow ning</w>
d ling</w>
cost- cutting</w>
advoc acy</w>
add ressing</w>
la b</w>
compos er</w>
alumin um</w>
lion el</w>
elimin ation</w>
six- party</w>
sa akash
saakash vili</w>
repatri ation</w>
relev ant</w>
medi um-
finan ced</w>
cele bri
celebri ties</w>
z y
ta p</w>
sli pping</w>
ro iled</w>
pp e</w>
kar nop
introduc ing</w>
calen dar</w>
c rush</w>
all- out</w>
air ing</w>
ah n</w>
a ven
zanzi bar</w>
ring git</w>
ran dy</w>
par al
o- hyun</w>
mo o-hyun</w>
fu rious</w>
elimin ating</w>
soy bean</w>
bri ti
bo ards</w>
wiscon sin</w>
run ner
le aning</w>
bat ting</w>
ae a</w>
win ston</w>
ven s</w>
pk k</w>
maurit ania</w>
macapag al</w>
ev e
don ation</w>
domin ance</w>
b oun
to ol</w>
run k</w>
invest ed</w>
hun ters</w>
head- on</w>
entrepre ne
dra fted</w>
cra cked</w>
assi sts</w>
ap pla
karnop utri</w>
en -
cin ema</w>
ov ed</w>
k w
ur ry</w>
le on</w>
k ib
i p
b ling</w>
an- american</w>
swif tly</w>
pro- western</w>
j al
ill -
har per</w>
wa ving</w>
recommen dations</w>
p ouring</w>
ma o</w>
hamas -
endor se</w>
casu alty</w>
war fare</w>
tu mbling</w>
th iev
post- war</w>
pe rez</w>
gen der</w>
turbul ent</w>
lod ged</w>
k ho
f loyd</w>
at titude</w>
vac ant</w>
rea ches</w>
met res</w>
mad off</w>
d v
cypri ots</w>
bla ke</w>
ad mission</w>
op ium</w>
mani pul
lin e
inter views</w>
barro so</w>
queens land</w>
pin o
pino chet</w>
kin son</w>
gab ri
compla ining</w>
bran ches</w>
ren e</w>
pre tax</w>
our i</w>
musli m-
industri alized</w>
impl icated</w>
fif teen</w>
f at</w>
d anny</w>
skep tical</w>
ro g
cathed ral</w>
ro ot</w>
post war</w>
hit ter</w>
fortun es</w>
aw a</w>
tack ling</w>
speci alists</w>
s ounded</w>
paral ymp
mu late</w>
conc e
compl ications</w>
wrec k</w>
tough est</w>
kyrgy z</w>
demonstr ate</w>
thiev es</w>
super ior</w>
ju mbo</w>
integ rity</w>
ev angel
ware house</w>
ta ic
ro c</w>
predic ting</w>
kamp ala</w>
i aea</w>
feder ations</w>
deb ates</w>
colum n</w>
tg om
rafa h</w>
mon tgom
fi ghts</w>
wol f
in k
dru g
assur ances</w>
adop ting</w>
w u
plan ting</w>
mob il</w>
midd le
incur sion</w>
improv ements</w>
fl y
chron ic</w>
abor ig
rafi k</w>
par ole</w>
deb ated</w>
reve red</w>
pi vo
pass es</w>
j ia</w>
il e
acqu iring</w>
yang on</w>
rati fy</w>
ran kings</w>
offen ders</w>
hom ered</w>
develop ers</w>
u t</w>
sum o</w>
reli able</w>
plac ing</w>
u red</w>
g ##</w>
ea u</w>
boar ding</w>
two- thirds</w>
th -largest</w>
pre m
mar cus</w>
is es</w>
er ror</w>
dia bet
car acas</w>
brit on</w>
are z</w>
st en</w>
s port
j im
ic y</w>
at ories</w>
ra mi
g org
ear n
bol stered</w>
b u</w>
th war
l loyd</w>
isol ation</w>
il and</w>
ic c</w>
ed o</w>
di visi
dec ade
nomine es</w>
ja b</w>
u.n. -
spi ke</w>
marsh all</w>
et- level</w>
dispat ched</w>
expen se</w>
dang ers</w>
separ ation</w>
novel ist</w>
min im
last- ditch</w>
fo e</w>
den gue</w>
bra cing</w>
har mon
diabet es</w>
ban ds</w>
w all
un employed</w>
two- run</w>
rifl es</w>
read iness</w>
ma yor
lan e</w>
hor ror</w>
an gu
st el
pre domin
labo rers</w>
down ward</w>
deal ings</w>
comm unique</w>
ap s</w>
and- mouth</w>
isla v</w>
face book</w>
charac ter
cha rest</w>
avoi ding</w>
sol ving</w>
ex t
bran ded</w>
bil ities</w>
ber ra</w>
belie f</w>
- related</w>
sti ff</w>
ro b</w>
n abl
nabl us</w>
jud gment</w>
he in
contem por
anti- terrorist</w>
al- sadr</w>
sca m</w>
out post</w>
inc iting</w>
engul fed</w>
t at
lea king</w>
law less</w>
def rau
cost as</w>
ch un</w>
cav ali
archi pel
t ying</w>
quo tas</w>
el ie</w>
c b
aparthe id</w>
a q
. .</w>
. ..</w>
su m</w>
radi ation</w>
nicaragu an</w>
## kg</w>
volunte er</w>
trans- atlantic</w>
chi ang</w>
#.#- magnitude</w>
sil icon</w>
second- seeded</w>
public ity</w>
op poses</w>
execu tions</w>
concen tration</w>
biz ar
reci pi
obst acles</w>
kidn app
convinc ing</w>
author itarian</w>
ang lic
trans form</w>
ri ders</w>
por to</w>
gi an
cen ten
ti res</w>
el le</w>
satell ites</w>
ph en
ol es</w>
la p</w>
exhi bit</w>
ex- president</w>
ant as</w>
y r
comman ding</w>
ber man</w>
tigh ter</w>
s cou
gl ory</w>
flo ating</w>
bri lli
mi x</w>
ic -
hybri d</w>
ext inc
cy ber
ab del</w>
' m</w>
fe eding</w>
f i</w>
emb race</w>
cler gy</w>
sign ature</w>
q antas</w>
counter terrorism</w>
contra dic
boo ked</w>
hijac kers</w>
ge or
##- foot</w>
thir teen</w>
s ant</w>
rail ways</w>
hear ts</w>
stero id</w>
fl urry</w>
endea v
archipel ago</w>
w ran
taic hung</w>
r out</w>
r ings</w>
great ly</w>
cabin et-level</w>
attrac ting</w>
s ail</w>
des h</w>
ba da
ta ste</w>
strong man</w>
stri fe-
riv al
predomin antly</w>
ob serve</w>
ira tion</w>
anx iety</w>
month -long</w>
fe atures</w>
dre ams</w>
bri gh
se c</w>
read ers</w>
kni fe</w>
gli mp
four- month</w>
fac tor</w>
dist inc
dha bi</w>
st at</w>
si l</w>
richar dson</w>
p ir
e b</w>
catastro ph
a a</w>
visi ble</w>
v as
total ing</w>
t ang
p ron
os ce</w>
gar bage</w>
bot tles</w>
under mining</w>
sym posi
rel ent
provo ked</w>
entreprene urs</w>
embezz lement</w>
dis mal</w>
di gn
car ni
so m</w>
shi fted</w>
ral ph</w>
rai ses</w>
nit ure</w>
e h
achiev ing</w>
under cover</w>
k ham
highligh ting</w>
hel en</w>
es i</w>
dolph ins</w>
ce eding</w>
zai rean</w>
three- week</w>
tal ity</w>
sun s</w>
n p</w>
motor ola</w>
le hem</w>
insul ting</w>
fisher ies</w>
beth lehem</w>
un g-
swimm er</w>
p light</w>
gorg es</w>
g ansu</w>
tri poli</w>
substitu te</w>
spo tted</w>
so fia</w>
he il
circum stances</w>
as signed</w>
al fred</w>
###,###- dollar</w>
ultimat ely</w>
ski er</w>
seven- year</w>
sem ents</w>
ri an</w>
popul ated</w>
hit ler</w>
cha otic</w>
accompan ied</w>
ob s
hil ton</w>
guar ding</w>
fur niture</w>
coll ecting</w>
bu charest</w>
amend ments</w>
psych ological</w>
point ing</w>
pap ua</w>
nur se</w>
me aning</w>
iran ian-
foren sic</w>
fin alized</w>
enti als</w>
cred entials</w>
ch oc
cavali ers</w>
at t</w>
###- year-old</w>
t ina</w>
sp inner</w>
sophistic ated</w>
mo fa</w>
fe els</w>
rock ies</w>
restruc ture</w>
refl ect</w>
min h</w>
mer can
la sted</w>
bi ke</w>
recru it</w>
p lead</w>
lacklu ster</w>
infil tr
g roc
bizar re</w>
w ade</w>
sla ugh
pre toria</w>
bor ne</w>
bil led</w>
arm ing</w>
ai ding</w>
wi ped</w>
stret ched</w>
spani ard</w>
mec ca</w>
inv ite</w>
den g</w>
d ded</w>
oper ative</w>
mo gul</w>
ma ke
li ku
cab in</w>
arti cles</w>
acquisi tions</w>
what ever</w>
r h
per secu
om et
foot- and-mouth</w>
bur ton</w>
beauti ful</w>
bar ric
adjour ned</w>
n g</w>
her al
fa res</w>
dis missing</w>
condi tional</w>
provi ders</w>
out- of-
insu rers</w>
eg gs</w>
can berra</w>
bi athlon</w>
aar on</w>
organiz er</w>
jan a</w>
for ti
ash croft</w>
pivo tal</w>
op ed</w>
offen ses</w>
hel m</w>
du mp</w>
ab ra
vide os</w>
shi fting</w>
ong jiang</w>
crow ned</w>
best- known</w>
ari as</w>
symposi um</w>
produc tive</w>
p ru
health care</w>
anx ious</w>
pra desh</w>
multi billion-dollar</w>
i ons</w>
di vers</w>
coll ec
bitter ly</w>
tian anmen</w>
mercan tile</w>
dis appointed</w>
d' ivoire</w>
contempor ary</w>
sha h</w>
re tri
pro vision</w>
ong a</w>
gar den
fre igh
ban d
stock piles</w>
rhetor ic</w>
pain t</w>
vers ity</w>
gradu ally</w>
en larg
alex and
ret z</w>
ra rely</w>
ni fer</w>
e cho
de pressed</w>
ab del
rai ders</w>
nik ol
har ris</w>
co hen</w>
clou ds</w>
brother hood</w>
ben z</w>
b yp
ven port</w>
secret ari
no- confidence</w>
investig ative</w>
frau dul
da venport</w>
d ress</w>
clo sures</w>
aggres sively</w>
tri be</w>
reti en</w>
pl ag
ow en</w>
mo t
cler ics</w>
chern om
ch retien</w>
bi ans</w>
air planes</w>
##- meter</w>
ti ago</w>
thir ty-
scandin avian</w>
re buff
p ts</w>
me red</w>
liku d</w>
cont ention</w>
ter ies</w>
sta un
so e
si ca</w>
ru st</w>
ou k</w>
m cla
jan e</w>
j ay
gar t</w>
disman tle</w>
confron ted</w>
b lowing</w>
anti qu
resor ts</w>
resi st</w>
re l</w>
prou d</w>
ol o</w>
hon oring</w>
h r</w>
s p</w>
pain ted</w>
ist a</w>
hat red</w>
cash- strapped</w>
bru shed</w>
black burn</w>
arriv als</w>
speci fied</w>
lan a</w>
ic ted</w>
gra ves</w>
con g
yr din</w>
mer cur
ital ians</w>
ern most</w>
dis h
chernom yrdin</w>
sov ie
nur i</w>
intensi fying</w>
bu rial</w>
wiel ding</w>
n. j.</w>
shir ts</w>
sail or</w>
min er</w>
mal i</w>
brid ges</w>
we ary</w>
mar e</w>
work shop</w>
ti veness</w>
rec k
on au
k ent</w>
h yp
aer onau
whe el</w>
tou red</w>
stre am
secretari at</w>
pol io</w>
lat ter</w>
h n</w>
enlarg ement</w>
differen ce</w>
col m</w>
phil lies</w>
oli ver</w>
near ing</w>
iran ians</w>
distribu ted</w>
deep en</w>
ac i
s reb
sreb ren
srebren ica</w>
lit t
i bility</w>
associ ate</w>
ste al</w>
hun ter</w>
g and
catastro phe</w>
c ran
pres sured</w>
ne gl
jen nifer</w>
j in
iz es</w>
bro oke</w>
bel l
tel es
strife- torn</w>
respec tive</w>
purchas ed</w>
me th
justi fied</w>
cur bing</w>
c ist</w>
ad mir
trans formed</w>
saf er</w>
run -off</w>
recomm end</w>
it ated</w>
gri ev
mil ls</w>
stal ling</w>
quarant ine</w>
pur pose</w>
p ile</w>
min ed</w>
mal colm</w>
lt .</w>
conven i
comman dos</w>
comed ian</w>
chan ting</w>
y on</w>
ultimat um</w>
to ff</w>
sion ist</w>
ru shing</w>
i ber
g ear
t ful</w>
stom ach</w>
mar ty
heil ongjiang</w>
gol fer</w>
est onian</w>
deepen ed</w>
bre men</w>
am ents</w>
rein force</w>
n t</w>
jeff rey</w>
cle aning</w>
t es
sh am
rob bed</w>
euro -
disc ou
coo king</w>
con fusion</w>
tom b</w>
ti e
ou i</w>
counterfe it</w>
an c
ze govina</w>
requi res</w>
reb ounding</w>
pac king</w>
musi cians</w>
motor ists</w>
, ###.##</w>
revol t</w>
per ing</w>
omet res</w>
kil ometres</w>
jo y</w>
fire arms</w>
fer din
zel aya</w>
mat ch-
heal th-
requ ests</w>
midd les
im er</w>
ic ating</w>
do se</w>
fal con
deliber ately</w>
cra cking</w>
welcom es</w>
w ishes</w>
ro k</w>
lt d</w>
floo d-
dra fting</w>
ad ol
primar ies</w>
olymp i
je re
fin ger</w>
chair woman</w>
cen tri
leg s</w>
ger ry</w>
ferdin and</w>
di um</w>
charac ters</w>
bon es</w>
bluep rint</w>
work force</w>
si mis
reluc tant</w>
pes simis
mercur y</w>
low ering</w>
ju stine</w>
govern ance</w>
gener ate</w>
ex cell
employ er</w>
chic kens</w>
che ering</w>
bre wer</w>
ac com
represen ts</w>
dis close</w>
ce iling</w>
c t</w>
un esco</w>
sla shing</w>
reve aling</w>
o ath</w>
erup tion</w>
bot ched</w>
wor shi
nigh ts</w>
l ra</w>
cop y</w>
al ps</w>
ge ological</w>
ge o
den ouncing</w>
civ il
am in</w>
ya ch
x im
ton a</w>
ste in
ge an</w>
frequ ent</w>
explan ation</w>
bor row
ae gean</w>
stu tt
sin ai</w>
polic y
kib aki</w>
cra shing</w>
commit tees</w>
commer ci
sus an</w>
so ren
siber ian</w>
metho d</w>
jean- claude</w>
j sters</w>
gu ill
doc k</w>
def l
cli jsters</w>
bor ussia</w>
back ground</w>
reli ance</w>
q .</w>
gra ding</w>
gab on</w>
f ing</w>
##- point</w>
wal ks</w>
ro ared</w>
liber ties</w>
kron or</w>
bas in</w>
ap point</w>
star ring</w>
san tiago</w>
er als</w>
down graded</w>
anticip ation</w>
un paid</w>
ret ted</w>
program ming</w>
loo ted</w>
k wa
aff ord</w>
uni verse</w>
tu mul
resour ce</w>
o tt</w>
dis pos
bargain- hunting</w>
as sed</w>
u. s</w>
stran ge</w>
spe e
ro of
rai b</w>
minist er-
hing is</w>
gh raib</w>
g ig
depar ted</w>
bor ough</w>
ator ium</w>
sli ding</w>
pre season</w>
liqu id</w>
hi de</w>
gand hi</w>
dig it</w>
cri sti
respec ts</w>
pati ence</w>
minist ries</w>
lie berman</w>
hu gh
enthusias m</w>
chil uba</w>
chec ked</w>
bacter ia</w>
wi ves</w>
ra d</w>
produc tivity</w>
posi t</w>
ol ate</w>
kilogra m</w>
itar ies</w>
de posit</w>
cap tive</w>
vo c</w>
stutt gart</w>
ha voc</w>
edu ard</w>
bow ling</w>
t ac
spect ators</w>
situ ations</w>
par ker</w>
co operating</w>
a- based</w>
rec t</w>
re se</w>
ri c</w>
mid st</w>
mat ch
k ou
ex t</w>
dis gu
comp act</w>
clu b
ba th
s por
im properly</w>
wiz ards</w>
st ops</w>
shr inking</w>
p ian</w>
lif e-
fit ness</w>
vir al</w>
se -
z hen
min eral</w>
k ind
in ho</w>
cap sized</w>
but ter
va .</w>
than ked</w>
pa vel</w>
mar ad
marad ona</w>
man sion</w>
h ir</w>
fred die</w>
flo tilla</w>
en ly</w>
tal l
sal a
pack ages</w>
j ockey</w>
han ged</w>
ab sor
substanti ally</w>
ro de</w>
lim iting</w>
inf ring
expi res</w>
au to
astro s</w>
#, ###.##-
#,###.##- #</w>
sw ir
ma kes
makes hi
makeshi ft</w>
im pending</w>
distribu ting</w>
da y-
war rants</w>
ru dd</w>
n gu
manufac tured</w>
lo ver</w>
lat vian</w>
f lower</w>
ber ger</w>
un authorized</w>
org an</w>
ken ny</w>
dis played</w>
ar ians</w>
al on
z ed
tar io</w>
rob bers</w>
qin ghai</w>
pri zes</w>
pl en
panam anian</w>
on tario</w>
e- winning</w>
abl o</w>
mau rice</w>
m wai</w>
guarante ed</w>
four teen</w>
c d</w>
accom mo
theat ers</w>
stead ily</w>
sch i
ener gy-
conc ept</w>
occa sion</w>
islam ists</w>
gener ating</w>
experi ment</w>
consult ant</w>
' ##</w>
t ney</w>
sou l</w>
or acle</w>
na ja
naja f</w>
is se</w>
guar dian</w>
assi sted</w>
vil lar
lea se</w>
jail s</w>
expl oring</w>
di dier</w>
bull do
assu med</w>
an- born</w>
t mund</w>
l ington</w>
indefin ite</w>
euro stat</w>
es ome</w>
dor tmund</w>
co inci
cas pian</w>
un ting</w>
line backer</w>
gad hafi</w>
det ective</w>
sti mulate</w>
mini bus</w>
mar lins</w>
hugh es</w>
arriv es</w>
- #</w>
v on
pon ti
ha z
ga ys</w>
acceler ated</w>
wol ves</w>
ti cism</w>
q i</w>
pa stor</w>
mau ri
compl icated</w>
ch al
na sh
m ese</w>
loo se</w>
gam ble</w>
est ranged</w>
urugu ayan</w>
tow ers</w>
sk id
op pos
lu ci
lik es</w>
ku k</w>
dwind ling</w>
bal let</w>
phil os
desper ately</w>
al igned</w>
ya f</w>
shak ing</w>
say yaf</w>
record- breaking</w>
ev ans</w>
grou ping</w>
far c</w>
decreas ed</w>
commu ters</w>
approv ing</w>
scu ff
scre en
phen om
k as</w>
chamb ers</w>
reg ard</w>
pun jab</w>
mer ck</w>
il es</w>
sabo tage</w>
ro lls</w>
prob able</w>
loc ations</w>
les bian</w>
hop e
gonz ales</w>
ban e</w>
arti ficial</w>
mo sl
knoc king</w>
interro g
fier c
audi ences</w>
u mp
tou ted</w>
sh y</w>
portfol io</w>
mortg ages</w>
fel ony</w>
ex hau
bel oved</w>
associ ations</w>
pea cem
mai den</w>
integ rated</w>
d ant</w>
ad mit</w>
u lat
jaz e
jaze era</w>
equ ality</w>
construc tive</w>
ale k
show case</w>
ou ri
mayor al</w>
har sh
fe t
ex ceeded</w>
an- based</w>
suppl ying</w>
sloven ian</w>
p leading</w>
insi sts</w>
i ors</w>
gra p
glimp se</w>
tob ago</w>
squ ads</w>
publ ish</w>
nov ak</w>
ma e</w>
juli a</w>
che v</w>
bac kers</w>
ti red</w>
s mil
observ ed</w>
medi um</w>
lus aka</w>
jama ican</w>
foo tage</w>
dis order</w>
di min
detec tives</w>
cl em
bo sses</w>
ap y</w>
won der</w>
vo y
re neg
interrup ted</w>
du g</w>
dri fted</w>
dra g</w>
d ji
trag ic</w>
sh a</w>
long- delayed</w>
har lem</w>
fe at
disrup ting</w>
dep le
ri g</w>
ner ve</w>
distribu te</w>
dest ined</w>
bur mese</w>
wea ken</w>
un specified</w>
telecommun ication</w>
supp liers</w>
n ouri</w>
moam mar</w>
lu ther</w>
li qui
ju bil
consoli dation</w>
toler ance</w>
p ablo</w>
mar ry</w>
ke t
ing o</w>
id ol</w>
consid eration</w>
bon us</w>
ph oned</w>
mor atorium</w>
j ilin</w>
inspec t</w>
hom icide</w>
embar ked</w>
disman tling</w>
advan ces</w>
labor atories</w>
haf ez</w>
carni val</w>
bul let</w>
par ked</w>
ori ented</w>
lif el
carto ons</w>
ac a</w>
im proper</w>
cos me
bada wi</w>
wh ale</w>
thor ough
pakistan is</w>
ke y
frank lin</w>
ex xon</w>
win ding</w>
sea side</w>
kir kuk</w>
icon ic</w>
di versi
dar ren</w>
sla u
s way</w>
milit ar
hijac king</w>
equi pped</w>
batt le
ti oning</w>
syst em
shut out</w>
equ al
ti s
no m</w>
l is</w>
k ina</w>
ful fill</w>
fri gh
brief ing</w>
assa m</w>
abor tions</w>
spil led</w>
shi el
ser b-
nation ally</w>
metro polis</w>
macapag al-
macapagal- arroyo</w>
kam al</w>
indo -
hor mon
episo de</w>
enjo ying</w>
da tab
catastroph ic</w>
t ouring</w>
spe edy</w>
remin der</w>
qu anti
lah ore</w>
com ic</w>
c i</w>
bar gaining</w>
ba k</w>
shel ters</w>
sh ine</w>
palestin ian-
obli gations</w>
gri pped</w>
ger main</w>
decre ase</w>
anni ka</w>
zha o
tax -
tab lo
stero ids</w>
mi red</w>
k u</w>
k sson</w>
gu yana</w>
back -to-
awar d-
marri ages</w>
kit chen</w>
enti tled</w>
inev itable</w>
flag ging</w>
club house</w>
bin ding</w>
w es
t ape</w>
speed skating</w>
run away</w>
recru it
gradu ates</w>
fu els</w>
endeav our</w>
tr un
ste er</w>
person ally</w>
patro lling</w>
ham mered</w>
wrong doing</w>
tur ks</w>
mour ned</w>
middle weight</w>
foot ball
ea -
d runk</w>
conver t</w>
ak h
ag a</w>
r ounded</w>
pro- government</w>
oper ational</w>
o ked</w>
nan jing</w>
ill o</w>
di versity</w>
transpa ren
t ours</w>
sch al
resig ning</w>
ph nom</w>
mar gins</w>
int ra
ex- wife</w>
ara p</w>
warm -up</w>
rep airs</w>
pa d</w>
o c</w>
ke en</w>
em ir</w>
bre wing</w>
sympa thy</w>
reser vo
per mits</w>
loc ker
hu shen</w>
gla s
the tic</w>
chea per</w>
back drop</w>
soren stam</w>
sco rer</w>
releg ation</w>
phil anthro
il i</w>
day ton</w>
cap turing</w>
th wart</w>
scen ic</w>
rober tson</w>
re opening</w>
house holds</w>
fai thful</w>
deliber ations</w>
trade mark</w>
sebas tien</w>
exam ined</w>
canadi ans</w>
audi o</w>
pu ts</w>
pier ce</w>
north -
k night</w>
g ans</w>
bur ger</w>
si gh
scan dal
os i</w>
kur dist
kurdist an</w>
fun ction</w>
ex pression</w>
ab id
six teen</w>
pro tracted</w>
pri ced</w>
mu tiny</w>
cul tiv
approa ches</w>
an ai
a st
z ap
vil le
shei k</w>
ra t</w>
petro chemical</w>
ic rc</w>
conclu de</w>
vacc ines</w>
kyo to</w>
fu eling</w>
es man</w>
symb ol
sha qu
shaqu ille</w>
ra tic</w>
on -line</w>
multi lateral</w>
int ru
implem ented</w>
gra f</w>
conduc tor</w>
tradi tionally</w>
touch down</w>
suspici ons</w>
mat ched</w>
justi ces</w>
cru z</w>
competi tiveness</w>
wh is
w ig
t all</w>
siber ia</w>
contam ination</w>
cap ping</w>
wi pe</w>
techn i
com fort</w>
ti pped</w>
reig n</w>
pas sion</w>
is i</w>
indian- controlled</w>
g run
atta ched</w>
wal la
th us</w>
she ep</w>
tsunam i-
reneg ade</w>
r itual</w>
over -
ori oles</w>
mus sen</w>
mu t
even tual</w>
ch at
c na</w>
bah rain
go w</w>
divi d
divid end</w>
bour ses</w>
barra cks</w>
bang guo</w>
ti sm</w>
snat ched</w>
pre feren
pione ering</w>
pen h</w>
no se</w>
loo m</w>
instru ments</w>
center- right</w>
ann i</w>
t into</w>
lock heed</w>
li en</w>
identi fication</w>
freigh ter</w>
day -old</w>
car pet</w>
transparen cy</w>
oppos ite</w>
j aff
initi ated</w>
half time</w>
ey e
dre am
dea ux</w>
carto on</w>
x -
week -old</w>
tiv o</w>
sist ers</w>
divisi ve</w>
clin ical</w>
cla ss-
acknowl edging</w>
sta ve</w>
sleep ing</w>
pen sions</w>
ing redi
in famous</w>
co s.</w>
ch ill</w>
ber k
v au
under mined</w>
un manned</w>
re pay</w>
psychiatri c</w>
p raising</w>
monit ored</w>
ma donna</w>
gl am
engl ish
dou g</w>
weigh ts</w>
min ds</w>
ge i
parliam ent
nash ville</w>
hosti lities</w>
gar ment</w>
assu me</w>
ville pin</w>
prostitu tes</w>
lav rov</w>
guin ea-
guinea- bissau</w>
gam ing</w>
en cies</w>
s ven
overwhel med</w>
jo y
ch or
arab -
anglic an</w>
ven ice</w>
publ ishers</w>
pre- dawn</w>
nu g
nug gets</w>
internation als</w>
er rors</w>
boc a</w>
sovie t-
re alize</w>
ich iro</w>
gri ff
cl ing</w>
chen g</w>
az nar</w>
anony mous</w>
total ed</w>
sli p</w>
s ounds</w>
ras mussen</w>
lu cky</w>
in adequate</w>
de por
cli ppers</w>
cam bridge</w>
b rough</w>
anc est
subscri bers</w>
pist ons</w>
li ver</w>
ji ax
fran ce-
cour ses</w>
an ed</w>
sk ins</w>
locker bie</w>
install ations</w>
de rek</w>
sens ation</w>
presu med</w>
museu ms</w>
mon tana</w>
fili pin
clin ics</w>
a erial</w>
y ar</w>
second ary</w>
run ners</w>
oscar- winning</w>
journ alism</w>
invit ational</w>
fin alists</w>
t ops</w>
sal eh</w>
over coming</w>
magaz ines</w>
i g</w>
caf e</w>
young sters</w>
v u
suppor ter</w>
re id</w>
pr inting</w>
patri otic</w>
p iz
out i</w>
lar d</w>
go s</w>
g cc</w>
the re
re organization</w>
rab bi</w>
p ink</w>
ve to
star -
shel ves</w>
pur poses</w>
pac kers</w>
nichol as</w>
long -range</w>
jiax uan</w>
inter pol</w>
descen ded</w>
color ful</w>
s oo
ro oney</w>
pig s</w>
kic ks</w>
iz hou</w>
gra ce</w>
g i</w>
doub ling</w>
der -
bor deaux</w>
wal kout</w>
tari ff</w>
s ak
rev ital
pe tra</w>
obst acle</w>
deplo ying</w>
del icate</w>
cla u
vo j
tri m</w>
st ling</w>
re union</w>
ill ings</w>
eleph ant</w>
don ed</w>
arch -
spokes person</w>
smoo th
sic kened</w>
or an</w>
jam ie</w>
y ings</w>
slo gans</w>
sla yings</w>
s mann</w>
quali fication</w>
no body</w>
man ner</w>
eve rest</w>
eri ksson</w>
ea ks</w>
compon ents</w>
valent ine</w>
thi er
ss i</w>
regu larly</w>
purchas ing</w>
dis sent</w>
demol ished</w>
ass ing</w>
ab ling</w>
sm all-
sh in</w>
ni xon</w>
ligh ting</w>
aband oning</w>
yanke e</w>
whe re
performan ce-
mid way</w>
loo ting</w>
l ton</w>
jun ction</w>
int -
i us</w>
groc ery</w>
fresh man</w>
dis solved</w>
di et</w>
defen ses</w>
d f</w>
cat cher</w>
rus sell</w>
ow -
mal ta</w>
is af</w>
he ight</w>
coun sel
brun ei</w>
brilli ant</w>
ur gently</w>
secre cy</w>
qu et</w>
out fit</w>
mon archy</w>
may ors</w>
it zer</w>
indic ators</w>
exp edition</w>
cti oned</w>
class- action</w>
ul u</w>
techni ques</w>
runner -up</w>
ro gue</w>
pre cau
pr one</w>
phenom en
one- third</w>
middles brough</w>
j ab
for bes</w>
cor d</w>
c ease</w>
un seeded</w>
st ev
shi pped</w>
shev ard
shevard nad
shevardnad ze</w>
ri gging</w>
o ec
litt le-
dra stic</w>
ar c</w>
worshi ppers</w>
roman tic</w>
r in</w>
photograph er</w>
li ai
chas ing</w>
tos sed</w>
strai gh
ne il</w>
glas gow</w>
dispat ch</w>
ch ains</w>
att a</w>
spon sorship</w>
renew able</w>
fi del
emp t</w>
award- winning</w>
ann ing</w>
add is</w>
schol ar
ru th</w>
particip ated</w>
oth o</w>
kir k</w>
k em
health- care</w>
an c</w>
accep tance</w>
super son
stamp ede</w>
spee ches</w>
oec d</w>
hea throw</w>
bat tery</w>
arran ged</w>
tri bes
swa p</w>
s col
lo ts</w>
juven ile</w>
in ched</w>
h all
f lared</w>
conver ted</w>
spe ars</w>
s cope</w>
negli gence</w>
it ating</w>
brea d</w>
sub du
spe ar
sa ves</w>
ram med</w>
pac ers</w>
mis de
ha zar
fl an
fl ame</w>
fan tas
cap itals</w>
campaig ners</w>
willi e</w>
tren ds</w>
tom as</w>
jere my</w>
gu bern
gubern atorial</w>
dra gging</w>
de v
ba hamas</w>
ro gers</w>
refra in</w>
epis cop
di re</w>
small est</w>
ob vi
mo st-
l em
jar at</w>
i ved</w>
gu jarat</w>
gri d</w>
synago gue</w>
pa v
ko h
ke te
p .
n aked</w>
cor rid
thier ry</w>
s mile</w>
s ley</w>
roy als</w>
pol es</w>
perpe tr
mon arch</w>
i k
d or</w>
anch or</w>
s ed
io t</w>
ha vel</w>
fast- growing</w>
f lawed</w>
erad icate</w>
entrepre neu
earthqu ake-
e bol
credi ble</w>
ste ff
peop les</w>
night mare</w>
ni kov</w>
mur derer</w>
arrang ement</w>
mem o
for ging</w>
cu bans</w>
z ac
trans action</w>
ren ched</w>
re clu
reclu sive</w>
l om
fran c</w>
decad es-old</w>
any where</w>
uni forms</w>
twent y
su ez</w>
perman ently</w>
p ie
gram my</w>
feu ding</w>
eth nic
comp a
bus ch</w>
appear ances</w>
ac claimed</w>
ur y-
tourn aments</w>
pel osi</w>
guill ermo</w>
diamon ds</w>
arch diocese</w>
sub stances</w>
pre da
my ung-
ed ding</w>
docu mented</w>
con n.</w>
broadca sts</w>
b jor
si ghts</w>
os cars</w>
la o</w>
gh o
er ings</w>
at e-
abduc tion</w>
whe el
up graded</w>
sag ging</w>
c p
bul lion</w>
sh rank</w>
season- ending</w>
new born</w>
kad hafi</w>
he ir</w>
du s</w>
da me</w>
bol stering</w>
re ference</w>
pois on</w>
patri arch</w>
m ming</w>
m ill</w>
less ons</w>
les otho</w>
floo d
concentr ate</w>
co ins</w>
bo wing</w>
belar u
wi kil
ven ues</w>
un defeated</w>
ste ep
sn ess</w>
por k</w>
paul a</w>
head lines</w>
half- century</w>
fou l</w>
ear liest</w>
d le</w>
ans wers</w>
affir m
xia oping</w>
spir its</w>
re u
pag e
noti ced</w>
lif f</w>
fi rest
emp lo
ea ds</w>
ah ern</w>
yor k
sho e</w>
plea sed</w>
op hil
op el</w>
on ist</w>
net te</w>
br ings</w>
bi as</w>
voj islav</w>
thwar ted</w>
three- run</w>
sla pped</w>
prot ection
mosqu es</w>
ignor e</w>
fas o</w>
eth ical</w>
est ation</w>
enti rely</w>
vi ven
viven di</w>
trai t</w>
sam ar
ro l
kham en
khamen ei</w>
clu ster</w>
admir al</w>
sim mering</w>
shoc ks</w>
revel ations</w>
p anda</w>
observ atory</w>
jon as</w>
director -general</w>
d us
ch ai</w>
you tube</w>
tun e</w>
th a
ol d-
ed mon
cre ative</w>
antiqu ities</w>
ab aba</w>
we igh</w>
out lets</w>
m wan
descri be</w>
au top
subdu ed</w>
sam oa</w>
pan thers</w>
min ors</w>
mer co
merco sur</w>
magn ate</w>
lar a</w>
face-to- face</w>
e bay</w>
clin ching</w>
back lash</w>
w b</w>
teen- ager</w>
jiang xi</w>
in land</w>
guil d</w>
de fine</w>
dar kness</w>
cas ey</w>
sel ler</w>
provoc ative</w>
performance- enhancing</w>
modern ize</w>
d ra</w>
treat ments</w>
ran dom</w>
r hy
philipp e</w>
per si
go alie</w>
bl atter</w>
wikil eaks</w>
vic tor
un ted</w>
ti ming</w>
me tric</w>
mam mo
g ala</w>
da gest
country side</w>
buil der</w>
an dean</w>
rel ics</w>
qat ari</w>
ou sness</w>
mon te</w>
inj ury-
end ra</w>
us en</w>
tribun e</w>
state wide</w>
sign al
presid ed</w>
p helps</w>
mar x
inv iting</w>
doc ked</w>
bu yer</w>
al- jazeera</w>
a x</w>
sugges tion</w>
sala am</w>
rebel -held</w>
mon ro
lo vers</w>
feat ured</w>
cov eted</w>
at i</w>
w aging</w>
kl m</w>
exc ep
de rers</w>
un dp</w>
pu mping</w>
m end</w>
domin ating</w>
d w
bomb -
b leak</w>
assemb led</w>
wor thy</w>
stor my</w>
slu m</w>
ru dy</w>
profit ability</w>
less ly</w>
inst ant</w>
histor ian</w>
falcon s</w>
en du
cont ests</w>
center- left</w>
bever age</w>
ai ded</w>
mar cel
m oc
dun can</w>
deb ating</w>
col lins</w>
y man</w>
wri st</w>
wer der</w>
tra des</w>
t et</w>
merced es</w>
fin ger
def amation</w>
ban ner</w>
work place</w>
sanc tu
priv atis
on i</w>
it ement</w>
ba o</w>
tri o</w>
sp at</w>
soci alists</w>
medium- sized</w>
inter state</w>
four- time</w>
un clear</w>
three- game</w>
t bil
shen g</w>
rebuff ed</w>
ge oning</w>
comm ent
whit e-
sol em
skid ded</w>
reduc tions</w>
pun itive</w>
hur ting</w>
andre as</w>
ou los</w>
o'ne ill</w>
hot test</w>
em ing</w>
el bow</w>
bur kina</w>
ski p</w>
on ly
mexic ans</w>
invent ory</w>
influ x</w>
glo om
fl at
def ault</w>
bureau cra
ale j
a st</w>
th rone</w>
sco re
jen in</w>
cho ices</w>
cau cus</w>
ca che</w>
break fast</w>
attri buted</w>
al tar</w>
administr ators</w>
wh ales</w>
pro state</w>
k id</w>
in ch</w>
fre y</w>
filipin os</w>
fertili zer</w>
fav ors</w>
faul ty</w>
construc t</w>
conn ections</w>
cat ching</w>
turbul ence</w>
pil ls</w>
nuclear- armed</w>
cath ay</w>
bak er</w>
y ong
trac ked</w>
th ie
stir red</w>
sal im</w>
rac kete
promp t</w>
mous sa
liai son</w>
hi ro
hazar dous</w>
gra ss
ad venture</w>
tra w
s as</w>
po dium</w>
org ans</w>
ob struc
n ado</w>
indic ate</w>
in her
hel m
h oven</w>
di oxide</w>
al ese</w>
af c</w>
prof essors</w>
i di
freed oms</w>
co ok
bil l
al located</w>
v ault</w>
ti ll</w>
predic t</w>
lon d
ke ted</w>
adri an</w>
. a.</w>
##- minute</w>
wh ir
tumul tuous</w>
stu art</w>
school children</w>
scal ed</w>
observ ation</w>
mist re
logis tics</w>
ec st
belaru sian</w>
an te</w>
ve igh</w>
su z
sa iled</w>
mc veigh</w>
heavy weights</w>
disrup tion</w>
d r</w>
adverti sements</w>
sh outing</w>
proc ession</w>
mcla ren</w>
mar ching</w>
ind hoven</w>
illu str
ha shi
e indhoven</w>
dis e</w>
con qu
bar gains</w>
b ap
assaul ted</w>
unve iling</w>
top ping</w>
timo rese</w>
swit ched</w>
stu b
selec tive</w>
poc ket</w>
po a
high est-
hash emi</w>
frac tured</w>
en se</w>
coun ters</w>
compar ison</w>
y ans</w>
w bc</w>
twenty ##</w>
si han
sa int-
rati fication</w>
ol len</w>
o tian</w>
moussa oui</w>
innov ation</w>
hau ling</w>
go ta</w>
gener ale</w>
ern ie</w>
conc aca
concaca f</w>
wel coming</w>
su law
sulaw esi</w>
refin eries</w>
collabor ation</w>
ch is
be it</w>
aus ch
star ter</w>
sh illings</w>
sab res</w>
roo ted</w>
m id</w>
da kar</w>
d owner</w>
bri s
worsen ed</w>
rival ry</w>
pain ter</w>
op ers</w>
nutri tion</w>
mud slides</w>
m tv</w>
ju g</w>
j se</w>
dep th</w>
bicy cle</w>
ban co</w>
affirm ative</w>
veter inary</w>
tra iler</w>
t apped</w>
smo kers</w>
seneg alese</w>
liqu or</w>
label ed</w>
g ea
deva station</w>
con stan
al-qai da-linked</w>
tur f</w>
on- going</w>
n ara
li a</w>
equ atorial</w>
du sty</w>
appe aling</w>
an -led</w>
um i</w>
swis s
stri fe</w>
p fi
neutr al</w>
la ugh
intimi dation</w>
bo gota</w>
a retz</w>
juni ors</w>
is sa</w>
impl ications</w>
fore ver</w>
shi py
re alized</w>
pro- independence</w>
h ann
gu sta
elu sive</w>
an ana</w>
am an</w>
ali ke</w>
won dering</w>
tri- nations</w>
su isse</w>
stev ens</w>
imag ine</w>
e re
al er
y ao</w>
tri pled</w>
pro cu
p sv</w>
only test</w>
ll c</w>
g gy</w>
el abor
ebol a</w>
bul le
az i</w>
attend ance</w>
ag ne</w>
affili ate</w>
acceler ating</w>
t less</w>
presen ting</w>
ni k</w>
g led</w>
explo rer</w>
competi tor</w>
collap sing</w>
appe ti
alej andro</w>
absol ute</w>
so l</w>
mon s</w>
kin ds</w>
hel sin
eri k</w>
an o
accoun t
wor e</w>
qu ad
non profit</w>
l ai
h ong
thro at</w>
shi d</w>
mira cle</w>
ho b
do omed</w>
con sistent</w>
by e</w>
ber tie</w>
ag grav
under scoring</w>
r att
ou th</w>
lis a</w>
e yed</w>
consid erable</w>
cancel ing</w>
cal cul
res ch
relent less</w>
pi g</w>
k om
gh anai
ex o
dali an</w>
brea thing</w>
am end</w>
tablo id</w>
ru bin</w>
por trait</w>
lo u</w>
helsin ki</w>
eu m</w>
enhan ced</w>
abol ish</w>
un dated</w>
stamp s</w>
lou d</w>
ko ta</w>
justi fy</w>
gu izhou</w>
circul ation</w>
teen- age</w>
rel la</w>
mid term</w>
it -
di g</w>
tor nado</w>
maneu vers</w>
e- ma
di v
d less</w>
bh p</w>
ay ev</w>
total ly</w>
he al</w>
choc olate</w>
#### \/
out cry</w>
lav ish</w>
check points</w>
bol lywood</w>
back up</w>
pat ch</w>
naz ar
l ent</w>
contribu ting</w>
c liff</w>
bay ev</w>
am elie</w>
aff or
ver ing</w>
van ished</w>
v ent</w>
smooth ly</w>
privatis ation</w>
myung- bak</w>
manufac ture</w>
indi a-
hand ic
det ect</w>
uk ov
pol ar</w>
haw k</w>
gra eme</w>
fer ring</w>
edit orial</w>
d res
anti-semiti c</w>
-r ate</w>
###. ##-##</w>
swa z
sur passed</w>
re yn
mor o</w>
gener ic</w>
dis qualified</w>
resch edu
musi cian</w>
moam er</w>
lea gu
j ag
har t
der land</w>
d oo
b ies</w>
y ev</w>
thri lling</w>
multi million-dollar</w>
massac res</w>
les son</w>
leng th</w>
du ces</w>
den om
bes hir</w>
be ar
zac arias</w>
pp le</w>
poss essing</w>
popul ist</w>
install ation</w>
forti fied</w>
eritre an</w>
en vel
clar ke</w>
ap i
an bar</w>
short fall</w>
sh ru
sh edding</w>
sco reless</w>
pois oned</w>
f aded</w>
ec lip
const ant</w>
bre wers</w>
ag round</w>
sp en
p airs</w>
ex cav
embry onic</w>
clos ed-
c -
wel sh</w>
ta g</w>
rein for
heart land</w>
g yp
be ef
teles cope</w>
men tion</w>
lu gg
lugg age</w>
he els</w>
ha p</w>
gym na
gabri el</w>
fa o</w>
exo dus</w>
en during</w>
di est</w>
dagest an</w>
y ale</w>
w ski</w>
ver mont</w>
socie te</w>
pun ch</w>
ne bra
nebra ska</w>
my ers</w>
i fa</w>
du r</w>
commun ism</w>
asser ted</w>
rein stated</w>
que z</w>
par cel</w>
man hunt</w>
li que
imper ial</w>
gol an</w>
endu red</w>
eleph ants</w>
du o</w>
confron ting</w>
attrac tion</w>
an nette</w>
volati lity</w>
tra sh</w>
tbil isi</w>
swaz iland</w>
spons ors</w>
reli eved</w>
recommen dation</w>
phil lips</w>
jean- pierre</w>
gre gate</w>
ful ham</w>
fugi tives</w>
dur able</w>
d der</w>
cur tain</w>
bris bane</w>
b hu
arti stic</w>
anti- american</w>
sub sid
sch ka</w>
n ie
jo schka</w>
gu st
dispos al</w>
depor tivo</w>
batt leg
yor kers</w>
we t</w>
star k</w>
skep ticism</w>
pun ishing</w>
person ality</w>
on ally</w>
list en</w>
lan qing</w>
ic o</w>
gau ge</w>
den is</w>
as sure</w>
w eng
voy age</w>
tra ces</w>
ti dal</w>
squ ee
ran g</w>
din i</w>
cross- strait</w>
class room</w>
teen- agers</w>
prospec tive</w>
nea red</w>
mis leading</w>
jaff na</w>
eu -
damp ened</w>
ce govina</w>
bow ed</w>
attend ants</w>
ac re</w>
ab a
th um
tax ation</w>
some what</w>
re calls</w>
por t-
pi an
ou se</w>
navi gation</w>
mar at</w>
ke tt</w>
heral ded</w>
hash ish</w>
fir med</w>
disrup tions</w>
blun t</w>
accur ate</w>
specul ative</w>
si s-
res a</w>
renew ing</w>
plea s</w>
gn e</w>
gir o</w>
de e</w>
sla ve</w>
sihan ouk</w>
right- hander</w>
ra o</w>
quar tet</w>
organ ised</w>
negoti ation</w>
holi est</w>
fac to</w>
c kers</w>
anim ated</w>
adel aide</w>
tu res
primar ily</w>
innov ative</w>
gloom y</w>
cool ing</w>
che f</w>
char ities</w>
am y</w>
a wait</w>
w nba</w>
uni fy</w>
sag a</w>
requi rement</w>
repatri ated</w>
pe u
fraudul ent</w>
farm land</w>
den ounce</w>
conflic ting</w>
b rush</w>
&amp; p</w>
steff i</w>
sk ele
sep p</w>
pro te
ist ed</w>
fre ely</w>
extinc tion</w>
emb roiled</w>
commun ist-
boyco tted</w>
tur a</w>
second- biggest</w>
sac red</w>
ra ci
ol ig
iy ah</w>
episcop al</w>
de port</w>
datab ase</w>
cro ats</w>
califor ni
burun dian</w>
w re
revo ked</w>
prov ing</w>
por sche</w>
man ship</w>
indo- asian</w>
has ina</w>
eng aging</w>
el ian</w>
world com</w>
s unken</w>
rev amp</w>
rem n
kur t</w>
int end</w>
gust avo</w>
free- trade</w>
di gging</w>
supp lied</w>
rob bie</w>
rebu ke</w>
pad res</w>
lo ading</w>
licen sed</w>
ern ess</w>
break down</w>
bre eding</w>
steel maker</w>
scar red</w>
recru its</w>
pre f
plu g</w>
mon soon</w>
mean or</w>
marcel o</w>
l end</w>
fa y
en act</w>
diamon d
diamond backs</w>
dest inations</w>
consci ous</w>
tau ght</w>
sym phony</w>
sh aping</w>
regist ering</w>
k ong
distribu tor</w>
concer ts</w>
cap tivity</w>
# x
pfi zer</w>
p esti
che ating</w>
a ol</w>
traff ord</w>
rel ating</w>
re views</w>
re trial</w>
ne ed
mwan aw
mwanaw asa</w>
man ded</w>
fic ations</w>
c uses</w>
broad band</w>
squee ze</w>
s cour
refe rees</w>
promo ter</w>
match- fixing</w>
inv aded</w>
hard ware</w>
f est
chec king</w>
tan jug</w>
paralymp ic</w>
net ted</w>
j elena</w>
har med</w>
fin alist</w>
ecuador ian</w>
th es
ser ves</w>
paul son</w>
ex ceed</w>
ea gle</w>
disman tled</w>
da o</w>
sti cs</w>
s crip
fab ric
expi red</w>
cou sin</w>
convic tions</w>
bosnia-her zegovina</w>
al arming</w>
ut ely</w>
r ita</w>
non- proliferation</w>
frequ ently</w>
c ade</w>
bul k</w>
stra ins</w>
saf in</w>
s ity</w>
s ati
mu qtada</w>
ground breaking</w>
cri sis-
colo .</w>
ad ven
s ese</w>
re conn
philanthro p
mi k
eight- year</w>
b rick</w>
wit ter</w>
share market</w>
res mo</w>
mau resmo</w>
la ze</w>
fidel ity</w>
d jo
d dy</w>
com or
butter fly</w>
ab laze</w>
shel led</w>
renew al</w>
re ne
pesti ci
n un
mer ged</w>
iz er</w>
ham pered</w>
gri ef</w>
five- time</w>
entrepreneu r</w>
emb raced</w>
d ressing</w>
be ans</w>
zhao xing</w>
se villa</w>
quo ta</w>
per c
off erings</w>
kov sky</w>
in duc
german -
fu ls</w>
fann ie</w>
bre w
bec ker</w>
be k</w>
bar cla
assaul ts</w>
xi amen</w>
serge ant</w>
scandal -
s &amp;p</w>
ho tly</w>
ge ous</w>
ev al
detain ing</w>
buff ett</w>
arti facts</w>
tri p
shar k</w>
revis e</w>
repu ted</w>
premi um</w>
lique fied</w>
fund raising</w>
con tr
brig ades</w>
asi f</w>
ar che
al ter</w>
m ers</w>
grow ers</w>
fa ding</w>
cl amp
bla zers</w>
wra pping</w>
third- seeded</w>
th igh</w>
t rent</w>
pri z
hu ll</w>
fal un</w>
dist ant</w>
del igh
back-to- back</w>
a .
sm outh</w>
season ally</w>
predic tions</w>
port smouth</w>
ot ti</w>
m d.</w>
lobby ists</w>
ha j
econom ically</w>
stu mbled</w>
spea kers</w>
no tably</w>
har b
ham string</w>
fri ed</w>
di ves</w>
bever ly</w>
ster ling</w>
mother land</w>
mer gers</w>
m ere</w>
k man</w>
fron ts</w>
w aged</w>
tin o</w>
repri eve</w>
par ma</w>
cont empt</w>
co yo
chas ed</w>
barcla ys</w>
ans wered</w>
ug ly</w>
tain an</w>
se vered</w>
me kong</w>
ja ys</w>
he tam
certific ates</w>
voic es</w>
no x</w>
neo- nazi</w>
n esses</w>
mic key</w>
m emp
memp his</w>
low- income</w>
hun ted</w>
humili ating</w>
f ati
eval uation</w>
comp liance</w>
birth place</w>
attrac tive</w>
sp itzer</w>
ro -
procu rement</w>
min i-
de pri
cristi ano</w>
cl an</w>
cas inos</w>
swi m</w>
sh ores</w>
sain ts</w>
s z
ra ce
prac tical</w>
lobby ist</w>
ll ist</w>
inf ecti
dig ested</w>
coordin ating</w>
b b</w>
allevi ate</w>
alco hol
ak os</w>
weng er</w>
san jani</w>
rat ko</w>
raf sanjani</w>
physi cian</w>
p ill</w>
mu ster</w>
e rec
blu e
ati on-
vis itor</w>
v ity</w>
top ic</w>
si cs</w>
sel es</w>
rain fall</w>
p iled</w>
ish ments</w>
is er</w>
i da
h ail</w>
fra me</w>
far- reaching</w>
fah d</w>
contain ers</w>
colum n
at er
amp hetam
sti cally</w>
op ted</w>
clear ance</w>
am ro</w>
al ess
ab n</w>
win sky</w>
war k</w>
tun is</w>
pat tern</w>
medic ation</w>
le winsky</w>
khal ifa</w>
hon ey
brun o</w>
bas ement</w>
un fairly</w>
tea ch</w>
rackete ering</w>
qu in
program me</w>
prem ature</w>
m ladi
mladi c</w>
kare n</w>
harm ful</w>
for th</w>
ex tent</w>
do ses</w>
d' italia</w>
cu mul
classi cal</w>
afric an-american</w>
son ia</w>
sign ment</w>
s no
refer red</w>
qu itting</w>
post- election</w>
portra yed</w>
ponti ff</w>
pipel ines</w>
m aid</w>
lo gging</w>
figu red</w>
da e-
arsen e</w>
tri ck
treasu rer</w>
trans porting</w>
sear ches</w>
pro pri
nazar bayev</w>
demol ition</w>
a shore</w>
wran gling</w>
v y
t onga</w>
sec tions</w>
sal mon</w>
rami rez</w>
mistak enly</w>
infecti ous</w>
ghanai an</w>
dra stically</w>
depen dence</w>
commis sioned</w>
arab ic</w>
sw ollen</w>
ref uses</w>
pregn ancy</w>
ph al
loc als</w>
li van</w>
f lows</w>
every where</w>
e ers</w>
di p</w>
bl itz</w>
b np</w>
attac ker</w>
ass in</w>
tribes men</w>
ti les</w>
stric ter</w>
pro li
proli fic</w>
pil lar</w>
nat al</w>
k at</w>
gaz a-
d is</w>
ta i</w>
s vet
re viewed</w>
ell en</w>
dji b
djib outi</w>
coura ge</w>
correc tion</w>
continu ous</w>
buil ders</w>
adi c</w>
un fol
she et</w>
reserv ations</w>
physi cs</w>
pe de
ill er</w>
diver ted</w>
de ter</w>
contrac ting</w>
bombar d
beng al</w>
aq sa</w>
advan t
wel ter
welter weight</w>
trans formation</w>
sp ared</w>
sh un
scra pped</w>
cau cuses</w>
brit ney</w>
apologi zed</w>
###. ###</w>
vau gh
sur faced</w>
squ ash</w>
skir mis
rec ur
re a</w>
lau ded</w>
k le
fo x
ed -up</w>
da h</w>
cat al
br yan</w>
##- month-old</w>
upro ar</w>
under scored</w>
rhy th
qing lin</w>
pra yed</w>
or al</w>
op e</w>
khal eda</w>
fin ale</w>
corp ses</w>
ben in</w>
at us</w>
ass o</w>
ada p
un ra
svet lana</w>
su karnoputri</w>
s mith
recruit ment</w>
n. c.</w>
list ening</w>
fran z</w>
engine ered</w>
bot tle</w>
bloo diest</w>
amp ton</w>
accus ation</w>
#,###- meter</w>
v s</w>
ti mber</w>
round- the-
prov en</w>
por ter</w>
hope fuls</w>
ed ers</w>
con federations</w>
ban ana</w>
astronom ers</w>
asp ects</w>
ad ou</w>
white water</w>
sett ler</w>
schal ke</w>
ram on</w>
phenomen on</w>
nur sultan</w>
mol estation</w>
mean ing
lever k
leverk usen</w>
hea der</w>
g b</w>
fin alize</w>
ab les</w>
###- million-dollar</w>
sp l
outra ged</w>
li bel</w>
form ers</w>
chan an</w>
bu chanan</w>
tar ily</w>
ste fan</w>
shoc king</w>
reform ing</w>
policy makers</w>
ill nesses</w>
ha c</w>
fin a</w>
fea si
evalu ate</w>
en acted</w>
el e</w>
chor us</w>
ber mu
bahrain i</w>
al armed</w>
scre ens</w>
ren tal</w>
re pression</w>
pe ts</w>
nom inating</w>
k ay
er gen</w>
dra ws</w>
depic ting</w>
byp ass</w>
broad ly</w>
aborig inal</w>
y assin</w>
proj ections</w>
pri me-
i ke</w>
gi d</w>
driv e-
dae- jung</w>
commemor ating</w>
clean up</w>
cap abilities</w>
th ood</w>
sma shing</w>
plag ue</w>
mis ery</w>
hsi eh</w>
explo itation</w>
em in
dis charged</w>
al zhe
affili ated</w>
adol f</w>
wor n</w>
sh asa</w>
s its</w>
refin ing</w>
re served</w>
re claim</w>
prot ections</w>
pap andre
papandre ou</w>
kin shasa</w>
disc over</w>
cre am</w>
coun tered</w>
cl an
bu mp
raci ally</w>
comb ine</w>
ch y</w>
be ts</w>
azerbai jani</w>
repe al</w>
presid ing</w>
or ly</w>
ma them
kron er</w>
inj ect</w>
exp atri
ev es</w>
edmon ton</w>
desig ners</w>
da k</w>
cra shes</w>
ther ine</w>
re al-
pri zed</w>
oph ile</w>
new -
h -
guid ance</w>
ca therine</w>
au ctioned</w>
as y</w>
stro m</w>
st ad
sion ate</w>
op rah</w>
infring ement</w>
career- high</w>
boar ded</w>
alzhe imer</w>
year ly</w>
to il
syndic ate</w>
rafi q</w>
mission ary</w>
kra j
for gotten</w>
el iot</w>
dynam ic</w>
des k</w>
dam on</w>
chronic le</w>
bi hac</w>
se y
prosecu ted</w>
innoc ence</w>
gall ons</w>
dru m</w>
bri be</w>
t ents</w>
supervis ory</w>
mat ching</w>
lik eli
inter- korean</w>
du al</w>
bli zz
bli stering</w>
benef ited</w>
win less</w>
u ous</w>
some where</w>
patri ot</w>
man ny</w>
ign ited</w>
consul tation</w>
che er</w>
c ans</w>
andre a</w>
ver sions</w>
tall est</w>
sven -
sven- goran</w>
ru ined</w>
re ed</w>
pen n</w>
hard t</w>
car n
shor tened</w>
san der</w>
match up</w>
l ju
fann ed</w>
deleg ate</w>
b ally</w>
awar ding</w>
alon so</w>
warm up</w>
si on-
pri cing</w>
or ne</w>
kin men</w>
j agu
gov ern</w>
goal tender</w>
campaig ner</w>
im a</w>
i ver
bur geoning</w>
ap es</w>
subpo en
sh ers</w>
re vers
ou tri
interf ering</w>
ind ications</w>
co- founder</w>
wat son</w>
val uation</w>
ste ering</w>
shr ink</w>
ob es
instruc ted</w>
double- digit</w>
diver se</w>
chop py</w>
chern ob
ballo ting</w>
ag gregate</w>
v ying</w>
sun ny</w>
stadi ums</w>
sha wn</w>
renov ation</w>
poc kets</w>
nic kn
im porting</w>
hard- fought</w>
dro ps</w>
am ir</w>
squ eez
mo u</w>
mo qtada</w>
flash point</w>
de fined</w>
combat ants</w>
cir cles</w>
ausch witz</w>
to shi
temper ature</w>
sh ri
sanctu ary</w>
ri dic
marx ist</w>
ll er</w>
k ati
em a
cu bic</w>
can yon</w>
ballo on</w>
autop sy</w>
tri bes</w>
tra ce</w>
sti cking</w>
remn ants</w>
medic aid</w>
laun ches</w>
k af
for t
f locked</w>
drug maker</w>
de vis
air a</w>
t ome</w>
s ore</w>
pre ferred</w>
pla za</w>
obes ity</w>
little- known</w>
li g
en ters</w>
ec ological</w>
ces ar</w>
bi hari</w>
battle field</w>
wolf gang</w>
tra iling</w>
stun ica</w>
san to</w>
rela x</w>
pa th
ko stunica</w>
kho dor
khodor kovsky</w>
djo kovic</w>
bu z
bo k</w>
acci dental</w>
web ber</w>
typ ical</w>
secre tive</w>
outri ght</w>
min dan
mindan ao</w>
gre gation</w>
g ate
for ce
country wide</w>
al- beshir</w>
airb orne</w>
wall ace</w>
treas ure</w>
swimm ers</w>
succ ession</w>
stu ffed</w>
priv ile
pla ins</w>
pa olo</w>
occup ying</w>
in ches</w>
ici ans</w>
ham ad</w>
don nell</w>
aless andro</w>
z oran</w>
s f</w>
me rely</w>
kick backs</w>
hol brooke</w>
hern andez</w>
elabor ate</w>
deleg ations</w>
cl emens</w>
ail ment</w>
web sites</w>
viol ates</w>
sec ession</w>
plo tted</w>
pea ce-
ju ppe</w>
experim ents</w>
alleg ation</w>
x u</w>
ver izon</w>
th ed</w>
season- opening</w>
sac king</w>
mechan ical</w>
jo sh</w>
indic ator</w>
du ma</w>
dis agreement</w>
com ra
appro xim
zz led</w>
zap at
zapat ero</w>
tru ste
tim ber
spr ings</w>
real istic</w>
predic table</w>
ou sting</w>
in gham</w>
form at</w>
fam ine</w>
e on</w>
do h</w>
volun tarily</w>
vo te-
persecu tion</w>
over due</w>
over crowded</w>
obj ect</w>
f ault</w>
extor tion</w>
expla ined</w>
concer ted</w>
aver ting</w>
auth ors</w>
alex ei</w>
tra cy</w>
rocke ted</w>
par a
mammo th</w>
k ag
al ised</w>
year -long</w>
voc al</w>
under lined</w>
test -
sub marines</w>
sel lo
peacem aking</w>
infl icted</w>
di y
cla d</w>
c andy</w>
briti sh-
youn g-
tor ched</w>
shake -up</w>
sc rat
reyn olds</w>
on i
mosl ems</w>
mal dives</w>
lo cal
leg ality</w>
em ma</w>
eco was</w>
coc k</w>
can cer
ar range</w>
adi an</w>
vege tables</w>
rest ar
jean- marie</w>
jack ie</w>
interf ere</w>
grand mother</w>
flex ibility</w>
des cent</w>
conflic t-
co a</w>
ation ary</w>
un law
super- g</w>
roman ce</w>
ro s</w>
recipi ents</w>
reas onable</w>
priz e-winning</w>
juli o</w>
high- stakes</w>
foo th
ern er</w>
dis agreements</w>
cross- taiwan</w>
c y-
ben ig
battleg round</w>
appeti te</w>
wol fo
wolfo witz</w>
theat re</w>
te resa</w>
pp y</w>
por tions</w>
plu ton
mo to</w>
joh an</w>
in as</w>
five- month</w>
excell ent</w>
el der</w>
wrec ked</w>
tu mble</w>
strongh olds</w>
no is
ma m</w>
el i</w>
cti ca</w>
com a</w>
archi ves</w>
ar gue</w>
antar ctica</w>
vo s</w>
two- stroke</w>
out law</w>
opin ions</w>
lo cally</w>
hea da
dist ingu
consid er
ba var
sw ind
sul livan</w>
pu lit
light weight</w>
int ri
in doors</w>
em ia</w>
demonstr ating</w>
trac t</w>
ter bury</w>
stand still</w>
p irate</w>
mour inho</w>
mathem ati
m all
ku mar</w>
k est</w>
homosex ual</w>
gun ships</w>
go ers</w>
ex ist</w>
d- up</w>
can terbury</w>
sp ies</w>
sh at
sac rif
sacrif ice</w>
i ya</w>
hol land</w>
g loom</w>
dom ination</w>
d ner</w>
cli sts</w>
bre eders</w>
body guards</w>
than k</w>
t ed
solem n</w>
page ant</w>
no tion</w>
mir i</w>
late- night</w>
fac ul
clan dest
weap on
stu ff</w>
stu dded</w>
refl ected</w>
re memb
or biting</w>
m enti
fac t-
experien cing</w>
egyp tians</w>
conn ecting</w>
bri sk</w>
all y-
tum or</w>
seven s</w>
reli eve</w>
post season</w>
homosexu ality</w>
ho olig
gar ry</w>
fundamental ists</w>
es pan
deser ted</w>
del aware</w>
dd ler</w>
coyo tes</w>
bre ath</w>
anti-semiti sm</w>
al cat
ai kos</w>
stir ring</w>
ru ud</w>
o ic</w>
mon ster</w>
lond on-based</w>
hand -
flex ible</w>
ea ble</w>
e-ma ils</w>
column ist</w>
cock pit</w>
ath in
air liners</w>
tar s</w>
restric ting</w>
ran som</w>
no tre</w>
enti ve</w>
duc k</w>
cosme tics</w>
br a</w>
trans l
thir ty</w>
jun k</w>
jeopar dy</w>
iz umi</w>
embezz ling</w>
em an
der iv
co sting</w>
steel ers</w>
re united</w>
pede stri
lan der</w>
l g</w>
fun ny</w>
exp end
expend it
comp iled</w>
clari fy</w>
author izing</w>
adju st
#,###- year-old</w>
year long</w>
sur in
od d</w>
in qui
decade -long</w>
cli ff
car t</w>
c ze
bud ge
tor turing</w>
sum es</w>
sal man</w>
s led</w>
polic y-
on nai
nami bian</w>
lit on</w>
ida ho</w>
i res</w>
embar ra
cra w
bil liton</w>
un in
tou ching</w>
shi ites</w>
radic als</w>
oce ania</w>
lea p</w>
le ic
cl oning</w>
bar i</w>
th ar
struc tural</w>
ser bi
separ ately</w>
salv ador
res urgent</w>
rela xed</w>
of- the-
ma kov</w>
le bron</w>
gar age</w>
defen ders</w>
ch amp</w>
centr e</w>
activ ated</w>
tu rer</w>
tent atively</w>
tee th</w>
str e</w>
prime- time</w>
pan athin
men em</w>
langu ages</w>
ex position</w>
coast line</w>
co- operation</w>
che ers</w>
carri es</w>
bu da
ba chel
appl ying</w>
wor sen</w>
w ba</w>
techn ique</w>
sla very</w>
paragu ayan</w>
out line</w>
o a
ko izumi</w>
kash miri</w>
k una</w>
har mony</w>
dec ent</w>
chernob yl</w>
and- a-
al- sabah</w>
tru mp</w>
th riv
questi onable</w>
le tt</w>
gib son</w>
ff y</w>
en berg</w>
en abling</w>
cor in
cis e</w>
bo ge
ber -
we t
seas onal</w>
s ob
p am
on slau
olympi akos</w>
mastermin ding</w>
leon ard</w>
emer gen
ed itions</w>
circu s</w>
centre- right</w>
cen sorship</w>
billion- euro</w>
bak ar</w>
approxim ately</w>
ans son</w>
abra ham</w>
#- month-old</w>
wis dom</w>
tr ounced</w>
tan kers</w>
south -
revers al</w>
rec y
pri makov</w>
lat ely</w>
inf ants</w>
de tail</w>
chev ron</w>
can ary</w>
brea ched</w>
an ity</w>
ali en</w>
yan ukov
well ington</w>
wan ting</w>
ret ro
min ded</w>
le ton</w>
j ian</w>
it ar</w>
immun e</w>
ic hi</w>
g lu
fe el
cul min
sh ou
mic k
c t
b ound
obj ects</w>
m ock</w>
gener ous</w>
et ta</w>
day tona</w>
dar ing</w>
y o</w>
weal thi
travel s</w>
sn apping</w>
po tent</w>
ou ter</w>
ne wark</w>
hi -
gear ing</w>
de mo
chu ck</w>
bir dies</w>
ar rai
transpa rent</w>
song writer</w>
ro ver</w>
reservo ir</w>
rain y</w>
pra y</w>
panathin aikos</w>
obvi ous</w>
o g
mb a</w>
j ong-
in sufficient</w>
fl ouri
fact- finding</w>
deple ted</w>
cor oner</w>
common s</w>
but ton</w>
bri en</w>
bir die</w>
-lin ers</w>
remain der</w>
pulit zer</w>
o st
ma z
integ rate</w>
his pan
cr iter
corner back</w>
y en
public ations</w>
mer cen
int act</w>
h overed</w>
empha sis</w>
dv d</w>
du el</w>
cru ci
buda pest</w>
bow lers</w>
be tra
an z</w>
acc use</w>
un t</w>
th in
sh aped</w>
par doned</w>
out sid
onslau ght</w>
mur phy</w>
lin da</w>
kn owing</w>
kir chner</w>
invol ve</w>
insi st</w>
ge t
g age</w>
ern ity</w>
defin ition</w>
def y</w>
tu ition</w>
st inging</w>
sh rou
sel lers</w>
nine- month</w>
dor mit
coun tdown</w>
anti- aircraft</w>
veto ed</w>
under sea</w>
tan der</w>
spra ined</w>
san tander</w>
roc ker</w>
pu pil
pupil s</w>
l has
lhas a</w>
gra des</w>
dom ingo</w>
bre ez
up grading</w>
ski ers</w>
re ply</w>
on ged</w>
misde meanor</w>
million- euro</w>
jun ichiro</w>
for ty-
for ci
festi vities</w>
conver ged</w>
bel onged</w>
armen ians</w>
an ew</w>
un announced</w>
treas ures</w>
tow ering</w>
three- way</w>
ten th</w>
spen cer</w>
selec tors</w>
s co</w>
re vision</w>
ox y
lind sey</w>
char red</w>
toshi ba</w>
si es</w>
short stop</w>
pian ist</w>
jer ome</w>
hosti lity</w>
facul ty</w>
cal gary</w>
bail ey</w>
the by</w>
terri ble</w>
ter med</w>
so theby</w>
sk op
ri m</w>
ph ra
p ounding</w>
mor tars</w>
mon a
mis e</w>
mick elson</w>
kong -based</w>
i to</w>
bi ble</w>
vie ira</w>
th ner</w>
sp in
sp aw
south ernmost</w>
sha w</w>
ra shid</w>
pist ol</w>
ngu yen</w>
licen sing</w>
gei thner</w>
ex ceeding</w>
el eg
contr ary</w>
climb ers</w>
chang chun</w>
ca ve</w>
ab dur
ter dam</w>
stri kers</w>
sign atures</w>
rot terdam</w>
remin ded</w>
ra ff
prosper ous</w>
pref ecture</w>
no ting</w>
jit tery</w>
grun tled</w>
en danger
dis gruntled</w>
bed room</w>
anti bio
zz le</w>
war med</w>
spir ited</w>
sop ran
shim a</w>
preferen tial</w>
ning xia</w>
me al</w>
m ess</w>
lea ther</w>
institu tes</w>
in comes</w>
broadca sters</w>
all an</w>
whit man</w>
ver sus</w>
san ts</w>
ro p</w>
o' brien</w>
je ep</w>
fierc ely</w>
enfor cing</w>
em my</w>
dy s
thor ny</w>
tea med</w>
joh ansson</w>
j u</w>
hai tians</w>
fre eing</w>
dis solve</w>
country men</w>
t ata</w>
sic ily</w>
rot ating</w>
ri gged</w>
postpon ement</w>
nov els</w>
lo ads</w>
fast- food</w>
cor una</w>
campaig ned</w>
- in-law</w>
tele phoned</w>
speci alty</w>
p tion</w>
marke t
har old</w>
hac kers</w>
evol ution</w>
dis c</w>
cti oning</w>
bermu da</w>
batt ali
reas sured</w>
modern ization</w>
bas ket</w>
##- game</w>
zar q
wra p</w>
win frey</w>
trip le-
recru ited</w>
public ized</w>
p r</w>
ne tic</w>
mit tal</w>
knoc k</w>
int ers</w>
ecst asy</w>
cre w
be y</w>
asser ting</w>
aci onal</w>
accoun ted</w>
w ool
u ma</w>
m at</w>
land mine</w>
fran co-
ear marked</w>
difficul ty</w>
da e
bro o
wa hid</w>
up surge</w>
re war
q in</w>
m u</w>
kar im</w>
insp ected</w>
fol ks</w>
cricke ters</w>
c ec
braz en</w>
b unk
z -
tru ly</w>
o h</w>
ju ergen</w>
inten tions</w>
gru eling</w>
ge off</w>
exemp t</w>
cru mbling</w>
a partments</w>
y az
si m</w>
set backs</w>
recogn izing</w>
prepar atory</w>
phili ps</w>
el vis</w>
dec ides</w>
da kota</w>
clandest ine</w>
b ing
appla u
tur b
serbi a-
serbia- montenegro</w>
sca thing</w>
play wright</w>
n ished</w>
jo el</w>
hand ball</w>
gran dson</w>
disarm ing</w>
be hari</w>
author ize</w>
tr ans</w>
tol edo</w>
sl ick</w>
si zing</w>
quake- hit</w>
p id</w>
newcom er</w>
meteor ology</w>
ja m</w>
ger ard</w>
eigh teen</w>
com esa</w>
categ ories</w>
universi ade</w>
sw ear</w>
ro ssi</w>
regar dless</w>
per jury</w>
ov sky</w>
h our
goo d-
g el</w>
d ine</w>
challeng ers</w>
bo c</w>
ap p</w>
#\/ ##</w>
under water</w>
thra shed</w>
ro tation</w>
reinfor cements</w>
parliament arians</w>
out sour
li p</w>
law i</w>
kaf el
kafel nikov</w>
k gb</w>
jo ke</w>
il an</w>
ib f</w>
cy clists</w>
centen nial</w>
cap s</w>
b red</w>
am an
wol f</w>
thor pe</w>
re join</w>
r yan
q aeda</w>
pay roll</w>
par alle
paralle l</w>
l ur
k ph</w>
k line</w>
di mit
char t</w>
cap ability</w>
bour g</w>
b ounce</w>
b are</w>
abdul -
we l</w>
s cut
ri er</w>
pit chers</w>
mour n</w>
mea sured</w>
lat or</w>
j ai
icel an
habit at</w>
gre ens</w>
aeronau tics</w>
uk i</w>
tun n
to ddler</w>
ti ghtly</w>
stabil izing</w>
m r.</w>
likeli hood</w>
ju st-
hor nets</w>
feel ings</w>
ex otic</w>
equal izer</w>
em per
dar i</w>
conc ession</w>
b urs
tra k</w>
thunder storms</w>
stop page</w>
some time</w>
reconn aissance</w>
one- shot</w>
k raft</w>
j ema
jema ah</w>
fis her</w>
ex am</w>
es h</w>
el bar
ear ns</w>
bag gage</w>
amaz on
am trak</w>
affor dable</w>
wel d</w>
tu l
shen ko</w>
ro land</w>
gusta v</w>
explo it</w>
c un
air -
adverti sement</w>
ther apy</w>
st all</w>
snow fall</w>
rein forced</w>
pa ed
oper ates</w>
min erals</w>
k lu
iv o</w>
horri fic</w>
fro ze</w>
er g</w>
che e</w>
bon n</w>
zarq awi</w>
u -
th at
sist ence</w>
sec es
sand ra</w>
ryan air</w>
o g</w>
merchan dise</w>
ma pu
ls ory</w>
lo g</w>
l '
ic ked</w>
har den
gla x
enri ched</w>
dd in</w>
compu lsory</w>
anatol y</w>
videot ape</w>
vi d</w>
vacc ination</w>
sti f
nex tel</w>
man ning</w>
f ta</w>
di o</w>
dep end</w>
d h</w>
cre ator</w>
bud gets</w>
bo de</w>
alek sander</w>
z hu
up date</w>
sust ain</w>
simultane ously</w>
regre ts</w>
q ingh
premi ums</w>
plo ts</w>
h ans
gri zz
dru ms</w>
christi anity</w>
centu ri
cab les</w>
bull ish</w>
transp lan
sle w</w>
sac ri
ric al</w>
prot ective</w>
presen tation</w>
p om
mil f</w>
juli an</w>
f ow
el ders</w>
dae woo</w>
au r</w>
ac om</w>
zen g</w>
tre vor</w>
tre k</w>
rebel li
m r
hom age</w>
go d
four- nation</w>
do gged</w>
cz ar</w>
chair s</w>
ch adian</w>
buff er</w>
ad er</w>
won do</w>
v on</w>
ta ek
sun k</w>
pol o</w>
nom inate</w>
multi media</w>
mi x
hoo p</w>
gu itar
gi br
g at
embar k</w>
da f
compat riots</w>
whir l
tri chet</w>
subsidi aries</w>
stream line</w>
simultane ous</w>
sim ha</w>
shiel ds</w>
recomm ending</w>
po e
nara simha</w>
meda llist</w>
le is
hindu s</w>
hein z</w>
free- agent</w>
exc ess</w>
yon hap</w>
ti se</w>
spec tive</w>
sen iors</w>
rec ap
nex t-
insp iration</w>
g p</w>
ar lington</w>
an try</w>
abid jan</w>
y ong</w>
seven teen</w>
s or</w>
oper atives</w>
monro via</w>
f o</w>
de struc
coll ections</w>
bu c
b ach</w>
agre es</w>
ad mits</w>
y us
tw ic
pas cal</w>
long standing</w>
dom s</w>
da w
d g
bombard ment</w>
bal a</w>
al fon
- time</w>
re sist
re match</w>
re election</w>
r inging</w>
philos oph
per th</w>
per ce
loy alists</w>
kag ame</w>
k ig
k ang</w>
gro in</w>
def used</w>
conveni ence</w>
col lar</w>
closed- door</w>
vic ious</w>
uncer tain
top- level</w>
taek wondo</w>
sun derland</w>
su it
spor adic</w>
sp ite</w>
nie wski</w>
keep ers</w>
k p
hen ri</w>
har vey</w>
em aker</w>
black out</w>
ade i</w>
acc uses</w>
ac id</w>
str ingent</w>
sa arc</w>
month long</w>
mo ea</w>
m d</w>
ec b</w>
bur nt</w>
bound ary</w>
bil es</w>
automo biles</w>
y ak
x y</w>
roy ce</w>
pru d
par ad
k ow
ja ap</w>
j ie
icelan dic</w>
gen u
fic a</w>
dur ban</w>
chol ester
canadi ens</w>
brig ade</w>
un happy</w>
ro bot</w>
responsi bilities</w>
pir ated</w>
o' conn
mccar tney</w>
ligh t-
islam iyah</w>
ha as</w>
g ement</w>
fantas y</w>
emergen cies</w>
bor g</w>
addic tion</w>
- style</w>
un necessary</w>
testi fying</w>
subsid y</w>
stu died</w>
sello ff</w>
represent ation</w>
poly gam
p fp</w>
loc king</w>
kou chner</w>
indones ians</w>
hel l</w>
el ight</w>
cu lar</w>
cheng du</w>
bor e</w>
antar ctic</w>
ander sen</w>
voic ing</w>
thou ghts</w>
sidel ine</w>
non- aligned</w>
label s</w>
ko z
free way</w>
fac tional</w>
ar ising</w>
sw ath</w>
sal am</w>
i dable</w>
high lights</w>
form idable</w>
eth an
drow ning</w>
disc overing</w>
b low
am ine</w>
sa x
per mitted</w>
pe c</w>
ni ke</w>
lou ise</w>
ir ri
inter active</w>
good bye</w>
ev ich</w>
es senti
di e
cred its</w>
break up</w>
body guard</w>
war ne</w>
tas h</w>
skop je</w>
rog ge</w>
qu ic
much- needed</w>
homosexu als</w>
comman do</w>
c led</w>
c ass
ber ing</w>
th ur
squ are
reli ever</w>
pro found</w>
pre serv
per formers</w>
obtain ing</w>
ma il
ha iling</w>
chan ted</w>
buck ingham</w>
bosnia-her cegovina</w>
b ath</w>
a ren
zar dari</w>
ver bal</w>
top pling</w>
ti ps</w>
t sang</w>
san i</w>
resist ant</w>
pu m
play boy</w>
physi cians</w>
kw as
kwas niewski</w>
infl ationary</w>
in stein</w>
do or
def ec
compa q</w>
bri de</w>
ti ble</w>
the od
struc tures</w>
set t</w>
no where</w>
mar ino</w>
di ar
cro co
con fined</w>
space walk</w>
solic ited</w>
rav ine</w>
qu re
ou n</w>
mc i</w>
iranian- backed</w>
ferre ro</w>
eng o</w>
dis t</w>
ar cel
z ine</w>
y e</w>
ris ked</w>
re members</w>
oun d-
ma ch
extra vag
brea ching</w>
b- shares</w>
al lawi</w>
un easy</w>
smil ing</w>
neu ro
m k
fen g</w>
ed gar</w>
def ected</w>
deep -
contin ents</w>
co stu
abrup t</w>
v s.</w>
shipy ard</w>
plan tation</w>
pac i
ji an
gea red</w>
garden s</w>
expor t-
de x</w>
compan ion</w>
un like</w>
ro che</w>
rein state</w>
ot to</w>
ele y</w>
elbar adei</w>
dra gon</w>
d- off</w>
congratul ations</w>
car do
al titude</w>
absol utely</w>
ti on-year</w>
thor ough</w>
taxpay er</w>
t ame</w>
st ore
rev amped</w>
plea sure</w>
or a</w>
me als</w>
lu ca</w>
level ed</w>
kidnapp ers</w>
he pati
elec tion-year</w>
col on</w>
cl out</w>
but ler</w>
air waves</w>
sp lit
sch il
me yer</w>
jac kets</w>
gol ds</w>
every body</w>
ethan ol</w>
de militar
col ors</w>
ban ners</w>
b ent</w>
ad ore
a qui
ti ly</w>
spec ter</w>
necess arily</w>
military- ruled</w>
mai ze</w>
m ia</w>
li ang</w>
fil ming</w>
exhau sted</w>
dir t</w>
da unting</w>
champ agne</w>
bro aden</w>
appreci ation</w>
wa it
w bo</w>
v as</w>
under lying</w>
straigh t-
sti cks</w>
serb- held</w>
s ack</w>
rho de</w>
pp on</w>
lacklu stre</w>
hormon e</w>
ec a</w>
cross ings</w>
bu g</w>
aqu ino</w>
vege table</w>
up scale</w>
te ens</w>
spra yed</w>
san o</w>
pic ks</w>
mem o</w>
long- time</w>
hang zhou</w>
flood waters</w>
down played</w>
decor ated</w>
unil ater
uncertain ties</w>
tal ented</w>
prin ted</w>
plen ary</w>
o ren
ne ph
mk apa</w>
law n</w>
ha us
fea ther
don ovan</w>
chil ly</w>
carol ine</w>
bl essing</w>
ab sent</w>
y am
ush er</w>
trans ferring</w>
sw at</w>
stri ve</w>
spir aling</w>
per ot</w>
mapu to</w>
fu ri
evi c</w>
wig an</w>
traw ler</w>
ken yans</w>
jo sef</w>
hiv -
ha '
franc esco</w>
e ed</w>
dri lls</w>
c res
bor o</w>
young- sam</w>
wea ker
walla bies</w>
ti tan
spec tor</w>
relation ships</w>
re actions</w>
organ ic</w>
or- league</w>
one- off</w>
ne c</w>
i mam</w>
harsh ly</w>
hard est</w>
gra m</w>
f end</w>
dem enti
def ici
contain s</w>
cl amp</w>
cen ter
bur g
bulldo zers</w>
bru ised</w>
bar on</w>
top ics</w>
sahar an</w>
rebelli ous</w>
para chu
noti fied</w>
ne edy</w>
med dling</w>
lib by</w>
lam y</w>
hepati tis</w>
centri st</w>
wu han</w>
wes ley</w>
te ga</w>
sympa th
subj ects</w>
sit -in</w>
shad ow
re hear
qui to</w>
pollu ted</w>
patro lled</w>
or deal</w>
mas ks</w>
hu ddled</w>
fund rai
fran tic</w>
e is
down grade</w>
commerci als</w>
bi ased</w>
ben fica</w>
al- bashir</w>
ac ro
z id
th -ranked</w>
pon t</w>
no ise</w>
market place</w>
jeopardi ze</w>
high est
flam boy
euro- zone</w>
drive- by</w>
defe ats</w>
dd le</w>
ac es</w>
y al</w>
where ab
whereab outs</w>
reg gie</w>
pu t
pu dong</w>
pres cri
n asser</w>
montgom ery</w>
li ti
hi p-
gate way</w>
ga e</w>
di ve</w>
corin th
br as</w>
bar bad
an za</w>
af raid</w>
tear ing</w>
symb ols</w>
sw o
star r</w>
sky scra
shat tering</w>
sem i</w>
pur ported</w>
pu tt</w>
li ability</w>
inter continental</w>
first- time</w>
em ile</w>
elev ated</w>
bel mont</w>
ab ani</w>
- like</w>
wor rying</w>
tr an</w>
speci alized</w>
re lin
relin qu
pu mped</w>
po orly</w>
out lining</w>
men ing
jud o</w>
h sin
chi p
black water</w>
amazon .com</w>
al- zarqawi</w>
ul tran
ultran ation
stric tly</w>
sou p</w>
r ington</w>
p. v.</w>
or derly</w>
lig ament</w>
ground work</w>
ff er</w>
ern al</w>
car ol</w>
can e</w>
zed illo</w>
shadow y</w>
ris dic
pi e</w>
or ca</w>
money- laundering</w>
mon au
lo dge</w>
ju risdic
jeff erson</w>
in forman
ha bi
eu ph
dra g
defin ing</w>
da shed</w>
cos monau
chis sano</w>
bu d</w>
and ering</w>
and ans</w>
ab ul</w>
vo w</w>
vel t</w>
mu sh
hor izon</w>
ho s
h emor
gi ov
exper tise</w>
evangel ical</w>
earn hardt</w>
convic t</w>
cc i</w>
abdur rahman</w>
aba cha</w>
ab hi
zhen g</w>
w ick
t witter</w>
si z
red skins</w>
lac ked</w>
hal ls</w>
ha' aretz</w>
guitar ist</w>
gh e
expect ation</w>
escal ate</w>
divi ding</w>
direc ting</w>
destabil ize</w>
c ation</w>
blan ket</w>
add resses</w>
war lords</w>
un ct</w>
stra y</w>
st own</w>
se wage</w>
public ist</w>
o ted</w>
med ley</w>
mar u</w>
ko dak</w>
def unct</w>
bru tality</w>
yiel ded</w>
wh aling</w>
un documented</w>
thra shers</w>
tar o</w>
ok in
iver son</w>
i os</w>
hum or</w>
har rison</w>
corinth ians</w>
co ws</w>
ariz .</w>
archit ecture</w>
ve j
surve ys</w>
signific ance</w>
rau f</w>
legiti macy</w>
fi oren
exc itement</w>
ecu adore
barbad os</w>
ten -
s ink</w>
resur gence</w>
ra ped</w>
prin ts</w>
mo v</w>
jal al</w>
fashi oned</w>
eight- day</w>
eff er</w>
cycl es</w>
cru el</w>
angu lar</w>
accor dance</w>
zid ane</w>
vigor ous</w>
stand ar
s bourg</w>
reck less</w>
re make</w>
pe ers</w>
mis management</w>
m atic</w>
leic ester</w>
hon est</w>
hi- tech</w>
hea vi
exclu ded</w>
co oper</w>
cen ti
wh ites</w>
th -round</w>
ta o
t ler</w>
ro ose
roose velt</w>
pla in</w>
part ner
op hy
ne o</w>
f ury</w>
cont ag
comor os</w>
apolo gy</w>
ans ki</w>
ang a</w>
an them</w>
y as
un conditional</w>
travel lers</w>
shak es
sens ational</w>
sam my</w>
outsour cing</w>
le an</w>
identi fying</w>
h .
fal si
char itable</w>
at ers</w>
academ ics</w>
sing led</w>
re med
oil ers</w>
dec om
zu lu
vi era</w>
surge ons</w>
shau n</w>
sch em
r ine</w>
perpetr ators</w>
ot ech</w>
ner ves</w>
is a
fi es</w>
di ved</w>
cont est
bi otech</w>
am ended</w>
yan endra</w>
ver a</w>
sun shine</w>
sti r</w>
season- high</w>
s -long</w>
post ers</w>
mu til
merchan ts</w>
long est-
g yanendra</w>
fourth- seeded</w>
fat alities</w>
es tion</w>
determin ing</w>
destruc tive</w>
bel ls</w>
' an</w>
spring board</w>
rocke ting</w>
nic kel</w>
mol esting</w>
mo she</w>
indi rect</w>
in- chief</w>
gradu al</w>
fren zy</w>
ethnic ally</w>
depar ting</w>
christ ine</w>
bu ck</w>
an ita</w>
wor st-
up state</w>
un ab
tor nad
tal la
super inten
sp ed</w>
s ai
ra sh</w>
ox ford</w>
north ridge</w>
kar bala</w>
inv ented</w>
inter- american</w>
her ve</w>
gun shot</w>
fl att
fit ting</w>
f lies</w>
cur tail</w>
but u</w>
aud itors</w>
am os</w>
abhi sit</w>
wrong ly</w>
wild erness</w>
uph old</w>
tit led</w>
soviet- era</w>
os aka</w>
hip- hop</w>
hai der</w>
fos sil</w>
ex cer
e b
corrid or</w>
al ber
accompl ished</w>
a j
trans mitted</w>
out lying</w>
lo ren
lind h</w>
lifel ine</w>
jo aqui
joaqui m</w>
gibr altar</w>
expo s</w>
effecti veness</w>
ea ger
distur bing</w>
clamp down</w>
bol t</w>
bar nes</w>
ad ers</w>
v int
the o</w>
pon te</w>
in ous</w>
experi ences</w>
di stor
ass essing</w>
zin ed
zined ine</w>
tun a</w>
sub version</w>
ste pp
pea ks</w>
open- ended</w>
occu r</w>
o ch
inter viewed</w>
hide out</w>
g ated</w>
fioren tina</w>
ex iles</w>
dis pen
cor rea</w>
coc a</w>
vi acom</w>
star bucks</w>
partner ships</w>
k ahn</w>
gun battles</w>
g- #</w>
fru it
del u
convers ations</w>
cann on</w>
cann ab
bul ance</w>
am bulance</w>
tan cy</w>
reu ters</w>
palestinian- israeli</w>
pal ermo</w>
mo butu</w>
kin kel</w>
intellec tu
ic tion</w>
flamboy ant</w>
feather weight</w>
col i</w>
char ts</w>
bo om
###- run</w>
techn icians</w>
sw el
south ampton</w>
si us</w>
samp le</w>
ret aining</w>
ra ms</w>
pluton ium</w>
o z
nic o
ni ppon</w>
mon t
mer cy</w>
m ice</w>
fic ally</w>
dist rac
da ll</w>
bio graphy</w>
arm ies</w>
v ou
tru m
terr and</w>
staun ch</w>
so aked</w>
sim itis</w>
s se</w>
ru t
qing dao</w>
mit terrand</w>
ju n</w>
j ic</w>
inj ected</w>
helm and</w>
forci bly</w>
col ts</w>
char lton</w>
bi ous</w>
band its</w>
archae ological</w>
stron ger-than-expected</w>
san itation</w>
on en</w>
multi- million</w>
mon k</w>
man ual</w>
ist er</w>
ig i</w>
embry os</w>
director ate</w>
th less</w>
tele fon
tal abani</w>
stra sbourg</w>
snea k</w>
ran a</w>
pum mel
pan els</w>
os aur</w>
lat es</w>
hol mes</w>
ej ected</w>
din osaur</w>
bre w</w>
bil bao</w>
&amp; m</w>
whi pped</w>
vi kings</w>
vej ja
vejja ji
vejjaji va</w>
sto ked</w>
regul ated</w>
mon te
li ghtly</w>
ke ane</w>
ic ed</w>
gi or
exc iting</w>
empha sized</w>
de vo
care ers</w>
car la</w>
anti- missile</w>
anti- graft</w>
ann on</w>
w emb
wemb ley</w>
vo daf
vodaf one</w>
ul ster</w>
tas ks</w>
ship building</w>
ru ble</w>
resi sted</w>
insurgen cy-
har t</w>
exc eption</w>
dis array</w>
da x</w>
cont ending</w>
bu stling</w>
alexand ria</w>
ac ked</w>
###- pound</w>
web b</w>
trans atlantic</w>
stag gering</w>
s on-
piz za</w>
l acks</w>
jo spin</w>
je b</w>
ferti lity</w>
clau dio</w>
car ded</w>
bl ind
americ an-
ai -
sch effer</w>
relea ses</w>
record- setting</w>
re kind
provo king</w>
prev entive</w>
nois y</w>
n aira</w>
loy alty</w>
less er</w>
ic e
hal li
contem pl
ba ja</w>
xi ang</w>
tou ches</w>
stag e-
sil k</w>
sa ab</w>
s killed</w>
pro position</w>
ol e
nikol ay</w>
na p</w>
lea f</w>
jac ob
i for</w>
fu ror</w>
environmental ly</w>
emper or</w>
embarras sed</w>
di al</w>
bas tion</w>
ar t
ag ra</w>
abdel aziz</w>
trou bl
mold ovan</w>
memor abil
memorabil ia</w>
memo ir</w>
four th-largest</w>
ex posing</w>
con sist
abu sive</w>
## m</w>
wor ship</w>
tw a</w>
tri angular</w>
sn ar
schem es</w>
rec essi
recessi on-
pol ar
p m</w>
multi- billion</w>
intellectu als</w>
gil bert</w>
escor t</w>
den se</w>
de er</w>
dan cer</w>
[...]
