#version: 0.2
i n
r e
a n
e r
e n
s t
e s</w>
a r
i n</w>
t o</w>
o n</w>
e r</w>
o r
o n
a t
i t
a n</w>
a l
r o
i s
i c
in g</w>
i l
u n
c h
r a
e a
e d</w>
o r</w>
u r
o l
s i
t h
e l
o f</w>
c o
t s</w>
f or</w>
e c
a l</w>
i on</w>
l a
s t</w>
u s
d e
a c
# #</w>
r i
l o
a m
en t</w>
i g
er s</w>
' s</w>
n e
i r
s h
o u
o p
d i
t i
s e
a g
p ro
o v
s a
c on
k s</w>
s e</w>
c e</w>
m e
s u
a t</w>
d s</w>
an d</w>
m a
l ea
l e
a f
l i
a s</w>
o m
w it
un k
s p
unk ></w>
< unk></w>
e x
p re
i st
y s</w>
u s</w>
ch in
o c
il l
t er</w>
wit h</w>
t a
u p</w>
# #
i an</w>
p o
i t</w>
i a</w>
b e
l e</w>
f or
e st
ig h
co m
at ion</w>
o f
r u
t h</w>
e n</w>
a s
k e
at e</w>
i s</w>
b o
v e</w>
a b
ne w</w>
p or
sa ys</w>
m ent</w>
i on
t ra
i d
q u
p ol
u t
r ic
a d
w or
o w
a y</w>
u .
si d
s .</w>
chin a</w>
i m
l y</w>
t er
a u
i c</w>
th e</w>
b u
c h</w>
p ar
s s</w>
o re
m ar
g e
i l</w>
p er
f ir
l an
w e
d er</w>
g h
t e
ic e</w>
g e</w>
it y</w>
b an
on g</w>
m in
u. s.</w>
t o
is h</w>
g u
ov er</w>
a k
re s</w>
t ur
of f
m o
k ill
h o
t ion</w>
f ro
m an</w>
i ra
pre sid
r is
in e</w>
fro m</w>
af ter</w>
il l</w>
in s</w>
c a
b r
d u
l d</w>
s ec
i v
st r
l s</w>
i es</w>
al l</w>
at ion
i e
re n
f e
n o
f in
m an
st oc
# ##</w>
ou t</w>
r an
i d</w>
ag a
p e
at t
g es</w>
t ing</w>
s en
ov er
m or
d is
n s</w>
it s</w>
si a</w>
w a
ar y</w>
m s</w>
c e
presid ent</w>
c lo
t al
w ar
k e</w>
t ed</w>
s es</w>
e ar
an s</w>
e se</w>
r us
v is
e l</w>
m is
in g
d e</w>
ow n</w>
o o
# .
si an</w>
j u
t ri
s ou
is ra
j o
s er
m p
c al
d ea
aga in
again st</w>
m on
c u
b e</w>
c an
ic i
g ro
on s</w>
f i
c ent</w>
in di
t ro
m il
wor ld</w>
p u
d ing</w>
ac k</w>
m e</w>
min ist
v o
t en
ira q</w>
per cent</w>
l in
m b
g er
g re
i p
at es</w>
b us
t y</w>
al s</w>
me e
or s</w>
h a
re d</w>
ol d</w>
d ay</w>
i r</w>
lo w
pol ice</w>
h ea
c or
p h
br it
n or
ist an</w>
f l
el ec
over n
p lan
d ol
por t</w>
g overn
s ur
d own</w>
er n</w>
## ##</w>
c es</w>
k ing</w>
ex p
e u
kill ed</w>
po s
ea r</w>
t w
p a
mor e</w>
stoc ks</w>
w h
igh t</w>
k ore
un d</w>
si on</w>
st ri
tal ks</w>
chin ese</w>
th re
f u
h igh
en t
a ir
me n</w>
ag e</w>
g o
en s</w>
p la
n a
in v
de f
fir st</w>
d on
si g
v es</w>
d a
us e</w>
e u</w>
m er</w>
p l
on e</w>
it ion</w>
l and</w>
is t</w>
sh a
f ore
n ation
mil it
it e</w>
d ers</w>
ar s</w>
co ur
off ici
s h</w>
ch an
b el
en ts</w>
b la
c la
ig n</w>
i z
h el
en d</w>
s ol
p ak
eu ro
st s</w>
co un
w s</w>
p s</w>
govern ment</w>
ill ion</w>
ar e</w>
minist er</w>
str al
au stral
b om
t on</w>
sou th</w>
re a
v er
k es</w>
p ea
s us
# -
p ri
an d
v e
v ic
clo se</w>
de m
l u
sus p
tw o</w>
ing s</w>
f a
p ric
af ric
at h
s on</w>
ch ie
b a
o il</w>
sha res</w>
a in</w>
ch ar
p al
ar re
f ac
m al
in ter
ta i
cal ls</w>
la r</w>
n u
in e
#. #</w>
d o
w ins</w>
cour t</w>
l es</w>
bus h</w>
e g
r y</w>
en ce</w>
m u
ac c
u n</w>
at s</w>
c ol
on om
st e
d ec
ti ons</w>
lea der</w>
m i
c up</w>
high er</w>
v en
s s
le g
v i
k ers</w>
mar ke
w o
h e
chie f</w>
se e
ec onom
of f</w>
t e</w>
c ra
an ce</w>
i f
af gh
c am
k ong</w>
re e
l ing</w>
h ong</w>
ban k</w>
ou r</w>
b er
c y</w>
dol lar</w>
op en</w>
ar m
s ch
isra el
ar d</w>
low er</w>
un d
c en
ation s</w>
ic al</w>
ic an</w>
te st</w>
b ra
sec ur
pak istan</w>
a i</w>
p an
ke y</w>
ec t</w>
no t</w>
d el
ir an</w>
inv est
g a
wa r</w>
u d
lo o
su p
com m
ge t</w>
w ill</w>
rus sia</w>
nation al</w>
f o
t est
f ren
for mer</w>
i ve</w>
indi a</w>
tra de</w>
f ran
at h</w>
h u
brit ish</w>
di es</w>
i al</w>
in to</w>
y ear</w>
ph il
por ts</w>
isra el</w>
c k</w>
om e</w>
g en
ec ts</w>
g ra
kore a</w>
sh i
vis it</w>
fore ign</w>
du c
pal est
th er</w>
don e
s al
fren ch</w>
in done
c ar
secur ity</w>
am er
op s</w>
tai w
or y</w>
am p
palest in
s y
h ol
o b
hea d</w>
ip p
b ack</w>
ur ges</w>
pro f
it al
pric es</w>
e v
ri gh
k er</w>
pea ce</w>
y p
def en
m ov
n ing</w>
an ts</w>
d en
c lea
israel i</w>
rus sian</w>
id e</w>
ea st</w>
w ay</w>
an t</w>
su m
a y
#- #</w>
bu t</w>
op er
v ie
milit ary</w>
, ###</w>
an g
b i
ic s</w>
d ra
ma y</w>
stoc k</w>
taiw an</w>
de ath</w>
en d
c re
t u
to p</w>
clea r</w>
att ack</w>
phil ipp
m illion</w>
th ern</w>
e f
n o</w>
ist s</w>
w in</w>
c ro
c el
e m
ch es</w>
#. ##</w>
il e</w>
dea l</w>
b an</w>
r it
t ea
l at
we e
g ed</w>
c lin
s o
ger man</w>
w el
ec ted</w>
ac ks</w>
am a</w>
dea d</w>
la w
n am
re tur
re cor
a r</w>
me x
b s</w>
f re
d ge</w>
shi p</w>
se t</w>
i ans</w>
pl an</w>
fran ce</w>
gro up</w>
p ris
st ate</w>
ti es</w>
g am
bo o
fir e</w>
thre e</w>
pu b
b le</w>
ca se</w>
pos ition</w>
y ear
nu clear</w>
d ro
marke t</w>
k o
b or
ou t
y ing</w>
offici al</w>
d y</w>
t re
p ut
d ru
s la
t el
h ar
c t</w>
b ur
er al</w>
an c
p m</w>
on d</w>
l ine</w>
a d</w>
s el
s w
t in
ak e</w>
li f
ira q
ser v
al ly</w>
st ar
par ty</w>
elec tion</w>
sa y</w>
n .</w>
g old</w>
k y
sh o
an ti
is m</w>
g o</w>
il s</w>
euro pe
bra z
u l
d ic
t ers</w>
h i
y mp
ac h</w>
li am
s co
clin ton</w>
ge ts</w>
st ed</w>
qu ar
we st</w>
ab out</w>
l on
en ti
mis s
en g
indi an</w>
m id
austral ian</w>
tro ops</w>
ol ymp
kill s</w>
tri al</w>
p ac
ho use</w>
oo d</w>
op position</w>
it ies</w>
l ed</w>
ris e</w>
p le
n ed</w>
man y</w>
a id</w>
lea ders</w>
ke e
ob ama</w>
chan ge</w>
europe an</w>
sol di
gu e</w>
afric a</w>
mal ay
h op
p lo
ow s</w>
la un
t or</w>
b ro
th e
b ab
bom b
t a</w>
co u
con c
j a
anti -
in de
nor th</w>
iv es</w>
u g
v el
ion s</w>
s c
m us
op ens</w>
ut ion</w>
a ir</w>
m at
mee t</w>
h is</w>
pol it
ne ws</w>
s oc
r i</w>
stri ke</w>
recor d</w>
st ud
ur e</w>
f f
wo men</w>
en ds</w>
lan k
econom ic</w>
g er</w>
e -
b ar
ri v
lea d</w>
is h
prof it</w>
po w
c ity</w>
offici als</w>
austral ia</w>
u m</w>
ra is
ch il
palestin ian</w>
s ri</w>
iraq i</w>
n ig
# ,###</w>
ti me</w>
brit ain</w>
c k
re bel
d on</w>
vo te</w>
re su
in ju
d an</w>
s ses</w>
y an
m it</w>
u. n.</w>
in es</w>
ou s</w>
vi ol
in c
ig h</w>
t an
h ome</w>
year s</w>
in t</w>
ch amp
ta kes</w>
par liam
f al
at ed</w>
con tin
us es</w>
mee ts</w>
z a</w>
t t
w at
com pan
righ ts</w>
sig n</w>
rebel s</w>
y a</w>
s n
h as</w>
hel p</w>
war ns</w>
plan s</w>
j e
eg yp
f all</w>
s ea
nig er
## -
ic o</w>
mb er</w>
lo w</w>
bom b</w>
is su
pro test
afric an</w>
w in
re port</w>
indone sia</w>
e st</w>
afgh an
c ri
afghan istan</w>
re g
ger many</w>
de b
st ru
i j
am id</w>
sec ond</w>
at ing</w>
c rit
re lea
tea m</w>
bu il
contin u
be g
oper ation</w>
th ai</w>
h e</w>
fin al</w>
inter national</w>
fe ren
f our</w>
t it
a sian</w>
bu d
ir d</w>
f il
h igh</w>
s k
g g
b ia</w>
d er
th at</w>
e d
arm y</w>
h al
a head</w>
pro test</w>
arre sted</w>
tur key</w>
p as
ag re
vie t
defen se</w>
to ur
c ris
dru g</w>
see ks</w>
sig ns</w>
be t
ter r
mex ico</w>
f igh
t or
it ed</w>
b as
wit h
ta ke</w>
re ports</w>
braz il</w>
d re
att acks</w>
gro w
k en
ky o</w>
to kyo</w>
n er</w>
ga za</w>
al l
mee ting</w>
m es</w>
pro v
sal es</w>
pe op
terr or
le ban
g i
k a
amer ican</w>
z im
afgh an</w>
g la
bus ine
ca r</w>
dis c
p en
zim bab
cris is</w>
o ther</w>
peop le</w>
st or
kore an</w>
ad a</w>
m ur
l ar
de n</w>
f t</w>
un der</w>
c er</w>
con tro
an no
wh o</w>
sh es</w>
iv er
pre mi
anno un
b id</w>
f am
h old</w>
ac k
or g
tra l</w>
na to</w>
im s</w>
c all</w>
b illion</w>
ma j
b rea
sum mit</w>
p at
t ar
in ce</w>
w e</w>
inju red</w>
al th</w>
f ight</w>
be ats</w>
pol ic
ro r</w>
de ta
cen tral</w>
an ds</w>
wor k</w>
t ran
parliam ent</w>
re j
pro duc
dem oc
ch e
sup port</w>
m er
se ts</w>
ea t</w>
ne t</w>
cra sh</w>
st ill</w>
de sp
philipp ine</w>
m ents</w>
p e</w>
be ij
se ar
ec h</w>
h its</w>
z e
bud get</w>
re por
h am
g y</w>
st er</w>
ar ri
retur n</w>
exp lo
com es</w>
beij ing</w>
lon don</w>
mis sion</w>
sp ec
gre ss</w>
disc us
h un
r ate</w>
k ill</w>
sou thern</w>
lank a</w>
for m</w>
wor kers</w>
bor der</w>
b a</w>
sh ar
pla y
na m</w>
u p
s l
amer ic
tur k
i ds</w>
lea ds</w>
invest ig
can ada</w>
char ges</w>
ne x
pro be</w>
premi er</w>
de vel
y or
be l</w>
in du
n '
inde x</w>
n' t</w>
in a</w>
us ed</w>
b all</w>
st ree
un ds</w>
ris es</w>
cou ld</w>
elec tions</w>
di an</w>
th o
ru p
pow er</w>
an ish</w>
ad v
an n
c ur
id ent</w>
a il
lea gue</w>
la w</w>
cam pa
nex t</w>
viet nam</w>
ex -
p op
b le
g ar
arre st</w>
m ig
zimbab we</w>
olymp ic</w>
sp or
f ri
sa d
lo b
th an</w>
t r
soldi ers</w>
g as</w>
s ov
sen ten
fo und</w>
pri me</w>
enti al</w>
serv ice</w>
z e</w>
desp ite</w>
ma r</w>
j ur
fi ve</w>
sh oo
li c</w>
b ill</w>
ju dge</w>
wee k</w>
e y</w>
sp ain</w>
econom y</w>
p r
o p</w>
for ce</w>
qu ake</w>
an ian</w>
fl u</w>
gla de
ban glade
bo sn
sur e</w>
l ars</w>
kill ing</w>
th ro
pub lic</w>
tur e</w>
ex change</w>
ter ror</w>
e ur
il y</w>
i m</w>
fir ms</w>
ac ti
plan e</w>
com e</w>
di a</w>
malay sia</w>
dol lars</w>
c ed</w>
b ag
v ol
t ru
ital y</w>
z u
s un
yor k</w>
polit ical</w>
maj or</w>
f ut
c li
re ad
cu t</w>
clo ses</w>
viol ence</w>
for ces</w>
eur o</w>
iver s
ha ve</w>
presid ential</w>
t ory</w>
grow th</w>
den ies</w>
h ur
vic ti
j or
col om
ra ce</w>
l it
b al
turk ish</w>
co operation</w>
quar ter</w>
se tt
m yan
s si
lea ves</w>
m ic
h it</w>
myan mar</w>
o t</w>
c as
w all</w>
he alth</w>
y o
stree t</w>
su b
indone sian</w>
nor thern</w>
k ra
t ex
b lo
tit le</w>
m c
b att
tri es</w>
ce ss</w>
ru les</w>
resu l
cla ims</w>
au th
om an</w>
egyp t</w>
st age</w>
ze al
k u
vo y</w>
ital ian</w>
d oc
re s
gre e
euro pe</w>
r at
in te
aga in</w>
h ear
v er</w>
t our</w>
s we
w ants</w>
p ct</w>
t ry</w>
con dem
philipp ines</w>
fu l</w>
e mp
leg al</w>
campa ign</w>
se es</w>
## .
g ent
d ou
compan y</w>
t es</w>
da d</w>
la m
w il
gen eral</w>
star t</w>
mar k</w>
d -
ma ke</w>
co ach</w>
tri b
x ed</w>
re st</w>
me d
bi g</w>
zeal and</w>
z am
bu l
h on
n ear</w>
ven e
ag ree
fac e</w>
an i</w>
co a
un ited</w>
v ir
en cy</w>
gam es</w>
sho w</w>
busine ss</w>
par t
e th
d es</w>
ex ec
c tion</w>
re l
miss ing</w>
g ers</w>
s li
ar gent
sec re
ar a
zu el
coun c
sh are</w>
b ian</w>
vene zuel
al leg
s day</w>
igh t
d ed</w>
lin es</w>
g lob
hop es</w>
ma kes</w>
ef for
bla st</w>
t v</w>
sy ri
re ma
c ru
m ac
pub l
s ome</w>
ag es</w>
ne y</w>
c iv
r ally</w>
eng land</w>
ear ly</w>
b ri
si x</w>
con f
conc er
t ol
il ed</w>
ex ten
fre e</w>
arri ves</w>
sen ate</w>
r ation</w>
thre at
d ri
discus s</w>
y e
el y</w>
bag h
th is</w>
susp ected</w>
u kra
leban on</w>
con tra
b il
sh an
law ma
th ail
ta x</w>
thail and</w>
ath er</w>
u res</w>
se v
off ic
rej ects</w>
qu al
st ra
and a</w>
bagh dad</w>
fal ls</w>
feren ce</w>
pro gra
lif e</w>
s qu
g s</w>
ab le</w>
ch a
w oman</w>
re co
g ol
v ows</w>
s y</w>
r un
banglade sh</w>
ur n
devel op
ou ld</w>
mi xed</w>
sp anish</w>
qu est
l n</w>
l l</w>
ge st</w>
ex per
mov e</w>
dea d
resul ts</w>
re fu
en voy</w>
sear ch</w>
c ks</w>
ro und</w>
sh or
see k</w>
al -
exp ected</w>
c an</w>
st ates</w>
niger ia</w>
i e</w>
dis put
k ed</w>
ch n
marke ts</w>
me mb
bo ard</w>
f loo
gh ai</w>
f ood</w>
glob al</w>
palestin ians</w>
pro sec
p us
st ar</w>
li es</w>
b ol
ko sov
in ts</w>
an g</w>
announ ces</w>
fac es</w>
ic ide</w>
or ders</w>
fin anc
di plo
sid e</w>
ho sp
und er
cu ts</w>
h er
read y</w>
pre s
j un
d ur
oo l</w>
in fl
id a</w>
chil dre
d ut
re ce
pla y</w>
s m
childre n</w>
i for
counc il</w>
b us</w>
di d
h k</w>
m p</w>
d ges</w>
u ti
po st
victi ms</w>
kosov o</w>
agree ment</w>
can a
shan ghai</w>
s ed</w>
susp ect</w>
ud i</w>
b eat</w>
v el</w>
an a</w>
sa udi</w>
r on
at or</w>
wh ite</w>
g un
sch ool</w>
e f</w>
t ou
mus li
y u
hu man</w>
comm un
tra ding</w>
cal ifor
at ors</w>
califor n
ir e</w>
f ra
la st</w>
str ong</w>
el d</w>
se iz
char ged</w>
pric e</w>
for e</w>
c y
i re
p ing</w>
gree k</w>
vis its</w>
o s</w>
off ers</w>
p ay</w>
lea st</w>
be fore</w>
a sia</w>
pu t</w>
re ach</w>
i or</w>
t ors</w>
th ird</w>
refu ge
ac e</w>
th s</w>
is ion</w>
im mig
soc cer</w>
an other</w>
rais es</w>
v al
p ly</w>
ac tion</w>
e mb
p al</w>
w est
fir m</w>
pro j
a re
su icide</w>
sc i
a -
a war
y en</w>
hel d</w>
auth or
ke t</w>
r ates</w>
n ings</w>
relea se</w>
f la
c it
ro ad</w>
can did
californ ia</w>
milit ants</w>
t le</w>
ic k</w>
g ives</w>
boo st</w>
tol l</w>
dro p</w>
agre e</w>
s of
d o</w>
un ion</w>
vic tory</w>
ug h</w>
sh ip
it al</w>
c le
bomb ing</w>
mur der</w>
pak ist
wel l</w>
ham as</w>
lo ss</w>
op en
##. #</w>
invest ment</w>
con ference</w>
re sp
jor dan</w>
pro mis
acc used</w>
pro t
in ed</w>
gam e</w>
st it
laun ch</w>
ea st
beg ins</w>
v y</w>
hol ds</w>
ru ling</w>
h om
st at
p on
as sa
ste m</w>
en er
om in
f m</w>
gh t</w>
emp lo
re bel</w>
laun ches</w>
b re
tex as</w>
con gress</w>
prosec ut
righ t</w>
champ ion
ch all
em er
mon th</w>
cana dian</w>
jo urn
condem ns</w>
cen ter</w>
s at
progra m</w>
tel e
di e</w>
pre ss</w>
coa st</w>
protest s</w>
pris on</w>
off ice</w>
at ive</w>
w as</w>
st a
air port</w>
f er
ol o
f ol
ge org
sp e
w al
dur ing</w>
tal i
si ble</w>
u t</w>
figh ting</w>
polic y</w>
m a</w>
in ing</w>
l er</w>
ion al</w>
ma y
c ab
ec e</w>
batt le</w>
g h</w>
p il
ow n
wa it</w>
off er</w>
se a</w>
s ing</w>
pea ce
und ed</w>
str y</w>
acc ident</w>
ch ri
jur y</w>
tho us
terror ism</w>
tai pe
ro le</w>
we en</w>
west ern</w>
c l
t own</w>
east ern</w>
tra ff
## ,###</w>
u d</w>
continu e</w>
taipe i</w>
ro man
ra l</w>
is lam
su it</w>
t -
ener gy</w>
cel e
cla sh</w>
gu l
mid east</w>
ran ts</w>
i ous</w>
mar ch</w>
ad e</w>
s sion</w>
mo st</w>
dut ch</w>
ken ya</w>
ne pal</w>
jo bs</w>
d ish</w>
jo h
po ses</w>
with dra
brea k</w>
c lu
the ir</w>
igh ts</w>
journ al
di re
pakist ani</w>
b en
issu e</w>
indu stry</w>
s in
res cu
minist ers</w>
si ons</w>
bet ween</w>
retur ns</w>
d at
en ding</w>
su dan</w>
con su
thous ands</w>
v ing</w>
lan ds</w>
financ ial</w>
americ a</w>
ra c
thro ugh</w>
con vic
il ian</w>
s on
b or</w>
n ov
ec tion</w>
wat er</w>
sh ows</w>
t t</w>
fam ily</w>
is s</w>
pu l
stud y</w>
ka sh
ti c</w>
cam bo
chri st
plan t</w>
y er</w>
lea ve</w>
ar ms</w>
j i
s om
gre ece</w>
issu es</w>
pri v
kee p</w>
venezuel a</w>
no w</w>
re form</w>
thre at</w>
## th</w>
alleg ed</w>
mov es</w>
coun tries</w>
ver y</w>
go es</w>
contro l</w>
cele br
d am
ce p
us ing</w>
jo in</w>
it i</w>
id ence</w>
mex ican</w>
b on
w n</w>
o ts</w>
b acks</w>
dem and</w>
gu il
ing ton</w>
nation s</w>
ur ged</w>
ru n</w>
pop e</w>
f oo
ukra ine</w>
u ps</w>
m ir</w>
comm it
as ks</w>
a ids</w>
i f</w>
loo k</w>
h ist
sea son</w>
chall en
malay sian</w>
tali ban</w>
er e</w>
fin ds</w>
lo c
se p
d r
rea se</w>
su c
b y</w>
ga ins</w>
memb ers</w>
o l</w>
mon ths</w>
con sid
for m
som al
d it
soldi er</w>
m ate</w>
li k
t un
pro pos
mon ey</w>
ut e</w>
c o</w>
h er</w>
ea se</w>
ic ks</w>
pos sible</w>
infl ation</w>
e y
deb ate</w>
s anc
nor th
tre at
b er</w>
ara b</w>
li ber
ir anian</w>
ro w</w>
p p
bu y</w>
ne ss</w>
el s</w>
re sol
acti v
s can
mu l
fin als</w>
cor rup
sp ace</w>
le y</w>
t ow
st ro
stor m</w>
cab ine
lawma kers</w>
islam ic</w>
fe ars</w>
q a
stud ents</w>
inc rease</w>
ch air
re ta
sw iss</w>
st ric
cabine t</w>
me dia</w>
j er
wa sh
# n
argent ina</w>
ear nings</w>
sy stem</w>
ire land</w>
mat ch</w>
w ea
il legal</w>
dat a</w>
ti m
l y
st -
z es</w>
lik ely</w>
tra in</w>
t ball</w>
dec ision</w>
ro c
syri a</w>
spor ts</w>
e ment</w>
f ur
au stri
tran s
su res</w>
il la
da m</w>
crit ici
la bor</w>
guil ty</w>
d ar
t ic
er y</w>
ne w
y ment</w>
explo sion</w>
j an
disput e</w>
par is</w>
r s</w>
sig n
f und</w>
sho t</w>
te mp
kash mir</w>
in dic
f ar
t ary</w>
ar ds</w>
ag ency</w>
develop ment</w>
un g</w>
ar af
wo unded</w>
nam es</w>
d in
musli m</w>
iv al</w>
wel comes</w>
contra ct</w>
vie w</w>
po sts</w>
defen ds</w>
b ird</w>
araf at</w>
star ts</w>
olymp ics</w>
leg is
corrup tion</w>
niger ian</w>
pac t</w>
gen cy</w>
c z
ch ur
effor ts</w>
ma in
fut ure</w>
du e</w>
s ite</w>
por tu
r ats</w>
se x</w>
wash ington</w>
st op</w>
inter net</w>
g ive</w>
f ed</w>
sanc tions</w>
riv er</w>
ne go
nego ti
an ia</w>
hosp ital</w>
f ree
inte rest</w>
del eg
sev en</w>
pro mo
prof its</w>
pro ble
h in
pris on
si ve</w>
fin d</w>
produc tion</w>
o -
may or</w>
y ers</w>
ship s</w>
t .</w>
te l</w>
or e</w>
g ir
s it
le ss</w>
er ing</w>
cu ba</w>
dou b
man ag
cri mes</w>
scan d
ple dges</w>
th ers</w>
fil m</w>
r e</w>
u k</w>
democ rats</w>
ban ks</w>
susp ects</w>
beg in</w>
r us</w>
dro ps</w>
bosn ia</w>
stri kes</w>
fo ur
low s</w>
shoo ting</w>
chan ges</w>
m its</w>
cro at
senten ced</w>
continu es</w>
str on
chair man</w>
re f
sal e</w>
te chn
pol l</w>
t s
re publ
n ers</w>
d a</w>
s lo
ho st</w>
ear th
author ities</w>
st and
colom bia</w>
re li
se e</w>
bo dy</w>
mo sco
ug anda</w>
u e</w>
ch er</w>
buil d</w>
stru ction</w>
cas es</w>
on a</w>
jo int</w>
gro ups</w>
d an
govern or</w>
f un
d le</w>
## #,###</w>
mosco w</w>
ju st
ar ab
e ds</w>
cur ren
m ea
refuge es</w>
yp rus</w>
c yprus</w>
in cre
emb as
is e</w>
k n
on -
st ers</w>
id es</w>
hal f</w>
s ing
f oc
un ivers
cz ech</w>
compan ies</w>
cu l
z one</w>
ann ivers
di t</w>
y a
georg ia</w>
po ints</w>
agre es</w>
g r
pan el</w>
annivers ary</w>
im pro
deb t</w>
proj ect</w>
pres sure</w>
incre as
pac if
sa fe
g oo
resp on
ad vis
k ur
low ing</w>
con go</w>
threat ens</w>
on es</w>
pla ce</w>
sen ior</w>
ca st</w>
v ice</w>
emer gency</w>
de man
r a</w>
exec uti
f le
z er
l in</w>
l ist</w>
jo b</w>
chil d</w>
sur v
sel l</w>
min e</w>
ath s</w>
pus h</w>
m ln</w>
al ban
& amp
rema ins</w>
f unds</w>
s o</w>
b ir
st ay</w>
st ation</w>
ja il</w>
pacif ic</w>
acc uses</w>
hea ds</w>
ut ed</w>
k en</w>
ex ports</w>
g ood</w>
e ight</w>
boo k</w>
qu e</w>
le t
sou th
fl or
al- qa
char ge</w>
eth i
repor ted</w>
prov ince</w>
da v
ri es</w>
el l</w>
put in</w>
bul gar
resu me</w>
mp s</w>
mar ks</w>
re signs</w>
scand al</w>
con firms</w>
protest ers</w>
v ia</w>
om s</w>
un ve
a k</w>
an ces</w>
for ms</w>
fi eld</w>
me mor
ac qu
coun try</w>
l a</w>
yu go
ab il
ethi op
yugo sla
st on</w>
rea ches</w>
sen d</w>
wa ys</w>
sp ea
com ple
de aths</w>
p ur
cla im</w>
bosn ian</w>
fra ud</w>
con stit
for d</w>
t ig
g ri
b ig
ha iti</w>
am i</w>
su pre
n a</w>
if e</w>
sett le
chur ch</w>
st ea
air lines</w>
t am
pol and</w>
embas sy</w>
n is</w>
invest ors</w>
d own
secre tary</w>
ja iled</w>
buil ding</w>
ku wait</w>
vis ion</w>
test s</w>
re r</w>
qu e
ste p</w>
s an</w>
play ers</w>
ic it</w>
egyp ti
flor ida</w>
sen ds</w>
y an</w>
st re
co al
n i
miss ile</w>
l ate</w>
peace kee
diplo m
fi res</w>
s an
exper ts</w>
po st</w>
tel ls</w>
g ian</w>
ight ly</w>
gul f</w>
da ys</w>
fe d
m ed</w>
se en</w>
lit tle</w>
e p
ra id</w>
f est
fin ance</w>
al e
dire c
\ /
r ing</w>
tri p</w>
ac cor
mo un
ta in</w>
bla ck</w>
ph one</w>
ric e</w>
am bas
ambas sad
st ren
e mber</w>
al o
legis lat
coal ition</w>
par t</w>
fed eral</w>
di v
ac u
cra shes</w>
swe den</w>
stren g
org an
## #
war d</w>
con struction</w>
concer ns</w>
mu st</w>
g ing</w>
am ong</w>
braz ilian</w>
h and
b ru
rais e</w>
fa ir</w>
y -
mic ro
sof t</w>
l ight</w>
fl ight</w>
ac cep
c au
pre par
en ter
er c
sl ightly</w>
ma ker</w>
r w
ter m</w>
w o</w>
adv ance</w>
te e</w>
i fi
tro u
ch ed</w>
bla sts</w>
cla shes</w>
supre me</w>
ch ing</w>
st ance</w>
and an</w>
re al</w>
reg ional</w>
on al</w>
bla ir</w>
e duc
p end
fi f
deman ds</w>
ste ps</w>
safe ty</w>
d l
b i</w>
an e</w>
pol ls</w>
w ife</w>
ran t</w>
stru gg
loc al</w>
cu st
lo ses</w>
ur s</w>
co x</w>
sp o
ho st
com pe
ar o
m ing</w>
# q</w>
sh ould</w>
ent ary</w>
cli mate</w>
ra in</w>
pol ish</w>
it ive</w>
re ds</w>
pro gress</w>
open ing</w>
pre sen
nam ed</w>
sad dam</w>
the y</w>
sa f
earth quake</w>
iz ation</w>
com man
def icit</w>
ab b
s lu
en vir
er ship</w>
ab use</w>
envir on
a way</w>
er a</w>
g -
tan z
deleg ation</w>
fu el</w>
ent al</w>
ro y
convic ted</w>
sco res</w>
s am
mu gg
ev acu
iz e</w>
at eg
fl ights</w>
l ong</w>
indu stri
ch ers</w>
with out</w>
sch e
egypti an</w>
dru gs</w>
y el
deta ined</w>
u al</w>
col l
y ou
wor l
w rit
pre sses</w>
ang ol
com mission</w>
tur ns</w>
s mugg
ic op
hel icop
lar gest</w>
h or
arre sts</w>
b ec
ne t
w ould</w>
c are</w>
sla ms</w>
co m</w>
ju ly</w>
hop e</w>
we d
m it
ma dri
iz ed</w>
olo gy</w>
madri d</w>
fest ival</w>
inde pend
con trib
can cel
si c</w>
n as
pa st</w>
cre dit</w>
end ed</w>
ta king</w>
go v</w>
k ar
quar ter
lank an</w>
b c
d omin
gi ant</w>
o s
dra w</w>
g m</w>
s ince</w>
lan d
v illa
ten nis</w>
colom bian</w>
jun e</w>
e c</w>
dead ly</w>
mc ca
americ ans</w>
m en
champion ship</w>
sci enti
me di
fri end
al lies</w>
d ition</w>
mis s</w>
ac t</w>
y co
terror ist</w>
w ing</w>
im f</w>
ba se</w>
i b
pu ts</w>
candid ate</w>
s er</w>
offic er</w>
##- ##</w>
reli ef</w>
fu r</w>
as se
ur ge</w>
v ed</w>
ambassad or</w>
fut ures</w>
tra vel</w>
fa v
cro ss
mcca in</w>
cam p</w>
us $</w>
au l
j ack
go p</w>
ol s</w>
ha ils</w>
re -
sm all</w>
f at
x in
pl un
reg ion</w>
e t</w>
n y</w>
g ov
ru le</w>
li b
p er</w>
du ce</w>
st u
ex tra
leban ese</w>
s wee
c ia</w>
ma s</w>
re ti
w to</w>
ne ar
tur n</w>
sch o
year -
investig ation</w>
fur ther</w>
soc i
univers ity</w>
h us
com ing</w>
can cer</w>
an -
ch en</w>
conc ern</w>
dar fur</w>
o w</w>
tal k</w>
shar ply</w>
no .</w>
is land</w>
a ys</w>
conf idence</w>
champ ions</w>
challen ge</w>
pas sen
ser ies</w>
war ning</w>
per u</w>
bre ak
su per
st er
com b
cambo dia</w>
rel ations</w>
bc -
ir ish</w>
promis es</w>
micro soft</w>
mid dle</w>
clu b</w>
n at
spec ial</w>
zam bia</w>
att end</w>
g ain</w>
n ine</w>
rescu e</w>
par ties</w>
c ea
ma d
s a</w>
accor d</w>
kee ps</w>
bet ter</w>
p leads</w>
hur ric
brea ks</w>
traff ic</w>
tra ining</w>
settle ment</w>
cri me</w>
ic a</w>
or der</w>
tou gh</w>
se par
at temp
str ateg
vo tes</w>
g ay</w>
priv ate</w>
gu ard</w>
educ ation</w>
f ans</w>
f arm
post pon
st ake</w>
c at
exp ects</w>
champ ion</w>
crit ic
just ice</w>
h und
gr and</w>
critici zes</w>
ti ve</w>
emplo yment</w>
del ay</w>
i o</w>
sp ending</w>
bro ad
a o</w>
i i</w>
al ger
o un
off en
law yer</w>
l ish</w>
er t</w>
pas ses</w>
re ser
ro b
ak es</w>
g a</w>
chan ged</w>
w ood</w>
pre pa
g al</w>
riv al</w>
s il
democ ra
j am
af f
t al</w>
ill s</w>
f ish
foc us</w>
l ig
i o
cea se
c er
jo ins</w>
be st</w>
e ing</w>
g iv
ban s</w>
loo ks</w>
tre as
fol lowing</w>
relea sed</w>
st ars</w>
journal ist</w>
au l</w>
swe dish</w>
activ ists</w>
lat est</w>
at lan
b lu
me mber</w>
n korea</w>
ch ile</w>
mar y</w>
re qu
e qu
commit tee</w>
th er
qual ifi
t ech</w>
med ical</w>
are a</w>
re sid
pro poses</w>
n ic
de red</w>
fl ic
ke ts</w>
ser b</w>
b ln</w>
do w</w>
pri ze</w>
c a</w>
ti al</w>
## #-
we ather</w>
executi ve</w>
st ic</w>
d al
ag o</w>
roman ia</w>
exten ds</w>
resol ution</w>
h u</w>
u m
ex port</w>
it ing</w>
m un
fi re
hur t</w>
p c</w>
hea t</w>
h es</w>
po se</w>
est s</w>
gro und</w>
prosecut ors</w>
ger y</w>
t ting</w>
so ur
l ers</w>
el l
b c</w>
ser bia</w>
plo t</w>
k er
consu mer</w>
suc ce
re view</w>
sli de</w>
ne l</w>
d op
mea sures</w>
cri min
tour ism</w>
tar get</w>
bon ds</w>
do g</w>
portu gal</w>
ad or</w>
o k
con flic
pro cess</w>
ch o
g y
n ation</w>
ag u
civ il</w>
dis co
c ath
w ide</w>
nor way</w>
seiz e</w>
immig ration</w>
lo s</w>
or ity</w>
su ff
po or</w>
scienti sts</w>
n y
fre sh</w>
se mi
sel f</w>
sea s</w>
ta ble</w>
sh ut
re v
quest ions</w>
dl rs</w>
ang el
contro ver
a m</w>
b ea
s mo
e don
lo an</w>
bo und</w>
in jury</w>
sur ge</w>
near ly</w>
hi m</w>
bo ur
hund reds</w>
dis a
put y</w>
de puty</w>
la h</w>
yo ung</w>
l or
streng th
stru c
be ing</w>
ad op
high -
un it</w>
repor ting</w>
s ar
rema in</w>
au to</w>
aro und</w>
hea vy</w>
lo sses</w>
ra di
lea ding</w>
in sur
te en</w>
d ly</w>
in f
dec la
m ag
ale m</w>
jer us
wee k
out put</w>
jerus alem</w>
de mon
o thers</w>
de plo
ve z</w>
croat ia</w>
effor t</w>
be hin
al li
pat ri
ec u
ho stage</w>
le vel</w>
hi b
a ut
in qu
ic ation</w>
del ays</w>
f lo
offic ers</w>
mus eu
e an</w>
mu sic</w>
p i
behin d</w>
air line</w>
sec tor</w>
f s</w>
ch ec
sur gery</w>
gre en
mat ic</w>
ser vic
ab or
it es</w>
ad minist
vi de
susp ended</w>
polic e
blo ck</w>
al ert</w>
hear t</w>
sa id</w>
n e</w>
ann an</w>
tra ck</w>
cra ck
na vy</w>
on e-
a si
direc tor</w>
proble ms</w>
por t
mac edon
r y
fri day</w>
con serv
am o</w>
in ten
hu a</w>
fa ils</w>
hol id
b in</w>
w ish</w>
ch ic
re ven
s wit
ur y</w>
st ing</w>
play er</w>
p it
ha m</w>
prison ers</w>
re public</w>
mil li
cit iz
bo y</w>
p ers</w>
in o</w>
milit ant</w>
ha d</w>
nam e</w>
w oo
demon str
ic ans</w>
el ine</w>
re search</w>
b is
p ip
in ation</w>
ti mes</w>
hist or
&amp ;</w>
ssi ve</w>
p le</w>
arm ed</w>
ta in
techn ology</w>
mon day</w>
friend ly</w>
yel ts
yelts in</w>
helicop ter</w>
ris k</w>
cha vez</w>
ul t</w>
mo b
tow ard</w>
mis ses</w>
co me
ven tion</w>
plan es</w>
d ig
x es</w>
rel ig
year- old</w>
wor ks</w>
iv ory</w>
b loo
bomb ings</w>
t on
four th</w>
unve ils</w>
cro ss</w>
civ il
reco very</w>
prosecut or</w>
pat i
so on</w>
foo tball</w>
mor ning</w>
po int</w>
an nu
tu e
tue sday</w>
col le
mo ther</w>
g ore</w>
fore cast</w>
t sun
se ssion</w>
in spec
je t</w>
bo at</w>
in tel
crack down</w>
ma ss</w>
inc lu
surv iv
over seas</w>
ill a</w>
re forms</w>
lin ks</w>
com pla
bar ak</w>
st an</w>
c ities</w>
sp ar
tar gets</w>
gu an
coun t</w>
bo dies</w>
z y</w>
scho ols</w>
al-qa ida</w>
par k</w>
ser bs</w>
pris es</w>
be comes</w>
treat y</w>
d ate</w>
a se
hurric ane</w>
w ant</w>
ro ss</w>
gov t</w>
n ba</w>
st af
fu l
industri al</w>
dra ws</w>
ex hib
stud ent</w>
sun day</w>
che chn
xin hua</w>
e s
al ty</w>
candid ates</w>
guan tan
chechn ya</w>
elec ted</w>
curren cy</w>
# th</w>
mo ur
guantan amo</w>
contrib uted</w>
immig rants</w>
c ric
champion ships</w>
ar t</w>
f ig
awar d</w>
traff ic
se n</w>
squ ad</w>
ris ing</w>
museu m</w>
out side</w>
comman der</w>
farm ers</w>
ken yan</w>
ch em
spor t</w>
k a</w>
ac e
propos al</w>
au gu
adv ances</w>
ta ke
sp y</w>
wor ries</w>
ish es</w>
inju res</w>
mo zam
it h</w>
rat ic</w>
r o</w>
to o</w>
bo eing</w>
p ic
ma king</w>
big gest</w>
ack ed</w>
fa il
somal i</w>
sup ply</w>
ran gers</w>
h en
al le
on ly</w>
law suit</w>
sup por
form ation</w>
de stro
clo ser</w>
ce o</w>
pre dic
staf f</w>
pro -
su es</w>
je wish</w>
a vo
t en</w>
ar ch
com pu
co sts</w>
ne ed</w>
s ars</w>
h y
bel ar
po well</w>
arab ia</w>
compu ter</w>
gre en</w>
inv ol
a ds</w>
floo ds</w>
ou l</w>
ey es</w>
p ra
lin ked</w>
ac tor</w>
ma in</w>
h en</w>
awar ds</w>
pr ince</w>
th ur
mac ao</w>
ju mp</w>
tour ists</w>
soc ial</w>
n omin
wil liam
du m</w>
b es</w>
mon it
fam il
argent ine</w>
au g
mo der
kur dish</w>
civil ians</w>
tu ral</w>
re gu
st y</w>
gen er
be t</w>
# st</w>
ethiop ia</w>
cl er
wh en</w>
na z
hist ory</w>
cru de</w>
servic es</w>
hel ps</w>
prot ection</w>
exp an
ma de</w>
dop ing</w>
st .</w>
re feren
f bi</w>
ve ter
susp ends</w>
qual if
sche du
sh ow
gir l</w>
cra ft</w>
el e
joh n</w>
hun g
po is
bulgar ia</w>
bo yco
op ec</w>
ut es</w>
democ ratic</w>
yugosla via</w>
ma ss
sco re
dou ble</w>
bla ck
ir y</w>
in k</w>
on line</w>
stra ight</w>
in jur
jan u
sep t.</w>
journal ists</w>
ase an</w>
lif ts</w>
impro ve</w>
un employment</w>
st al
constit ution</w>
w id
gun men</w>
ba d</w>
wed ne
wedne sday</w>
sur ve
promis e</w>
i a
vide o</w>
ef f
sh u
william s</w>
thur sday</w>
i -
f ron
recor ds</w>
fi ed</w>
do m</w>
democra cy</w>
con n
g le</w>
bur g</w>
see king</w>
tanz ania</w>
floo d</w>
stea dy</w>
us -
u r</w>
do es</w>
al y
go ing</w>
h ard</w>
vis t</w>
mar ri
as s
#n d</w>
austri a</w>
lin k</w>
ic h</w>
dis ease</w>
si x
me dic
co up</w>
shor t</w>
re stric
ore d</w>
syri an</w>
cas h</w>
f ather</w>
insur ance</w>
s or
dav is</w>
bomb er</w>
do z
no bel</w>
nu mber</w>
hear ing</w>
olo g
austri an</w>
bil ity</w>
tam il</w>
sp r
p raises</w>
bom bs</w>
i um</w>
for um</w>
o k</w>
p un
j ak
ben ef
referen dum</w>
ban k
roc ket</w>
prot ect</w>
inqu iry</w>
gh ter</w>
pos itive</w>
lig ence</w>
ac king</w>
senten ce</w>
host ages</w>
th an
disa ster</w>
re sum
kill er</w>
holid ay</w>
u ation</w>
d pr
ple dge</w>
ba se
assa ss
lo se</w>
am p</w>
lawma ker</w>
if t</w>
a z
s korea</w>
ho using</w>
g n
arri ve</w>
gra de</w>
le t</w>
ch el
ad mits</w>
m y
somal ia</w>
dpr k</w>
sa ve</w>
k an
bu ys</w>
shar on</w>
qu its</w>
ref uses</w>
ac ross</w>
de l</w>
pla ys</w>
ar ta</w>
promo te</w>
hu ge</w>
p ho
dra ft</w>
cu ban</w>
shi ite</w>
t ric
we b</w>
figh ters</w>
bro wn</w>
dead line</w>
g in
ye men</w>
dec line</w>
colle ge</w>
angol a</w>
fir st-
refuge e</w>
ju st</w>
be come</w>
janu ary</w>
lib ya</w>
fre ed</w>
hal t</w>
se ver
enter prises</w>
vo ters</w>
jack son</w>
ag ric
fil es</w>
mor oc
ore s</w>
critic ism</w>
law yers</w>
gro ws</w>
concer ned</w>
jo ble
an t
treat ment</w>
p ent
ne eds</w>
ce ment</w>
jak arta</w>
ill ing</w>
st and</w>
su e</w>
tr ying</w>
net work</w>
minist ry</w>
de fe
b and</w>
tim or</w>
administ ration</w>
se y</w>
lif t</w>
cy c
doc tors</w>
ul ation</w>
plan ned</w>
independ ence</w>
me ss
dis sid
br ing</w>
conflic t</w>
d riv
ka z
angel es</w>
ov e</w>
ug andan</w>
tour nam
fla t</w>
abb as</w>
iraq is</w>
ho tel</w>
ent ers</w>
di alo
v acc
co st</w>
f -
con gre
wh ile</w>
all -
oc to
in su
tsun ami</w>
abil ity</w>
trou b
hu man
u a
as si
pa ren
air craft</w>
win ning</w>
dri ve</w>
n ic</w>
prepa res</w>
e dge</w>
v ers</w>
h ic
cath ol
po ol</w>
g ab
ex erc
bel gian</w>
ev en</w>
pac k
ang er</w>
a w
je ts</w>
t ops</w>
ira c</w>
ch irac</w>
st an
stor e</w>
k h
ban ned</w>
con t
er r
octo ber</w>
ag on</w>
nov ember</w>
d h
agric ul
sup ports</w>
increas es</w>
bo w
fu ll</w>
slo v
de part
te mber</w>
sep tember</w>
diplo matic</w>
id ed</w>
a h
t ics</w>
smugg ling</w>
h ut
suc cess</w>
main land</w>
spe ech</w>
joble ss</w>
# r
win ner</w>
eth nic</w>
annu al</w>
bo ston</w>
a u</w>
re lat
m ental</w>
br ings</w>
relig ious</w>
oper ations</w>
sw ine</w>
joh n
exten d</w>
tournam ent</w>
take over</w>
intel ligence</w>
e p</w>
ho w</w>
cric ket</w>
acti vist</w>
ac y</w>
r on</w>
withdra w
co st
mb le</w>
tru ce</w>
conf ident</w>
a vi
se oul</w>
hung ary</w>
d i</w>
lat in</w>
at er</w>
sat ur
cal led</w>
exp ec
ve hic
hea d
il es</w>
bol iv
bla mes</w>
t ition</w>
ou l
k o</w>
se x
roman ian</w>
ist ic</w>
a ims</w>
republ icans</w>
par ts</w>
tour ist</w>
c ies</w>
i p</w>
a ide</w>
dialo gue</w>
diplom at</w>
in formation</w>
emplo ye
sla in</w>
ly wood</w>
mo squ
f er</w>
republ ican</w>
har ra
le ft</w>
co p
tele com</w>
s son</w>
que en</w>
o m</w>
shor t
parliam entary</w>
den oun
bab y</w>
ecu ador</w>
deta ine
boyco tt</w>
mer ger</w>
mar ine</w>
al ist</w>
depart ment</w>
commun ist</w>
sk i</w>
f ear</w>
pil ot</w>
oc key</w>
cre w</w>
rece ives</w>
ath ens</w>
pent agon</w>
pip eline</w>
exp and</w>
spe ed</w>
ic es</w>
wel come</w>
ukra in
su s</w>
ji ang</w>
l or</w>
ste el</w>
belar us</w>
v a
coun ter
b ond</w>
j ones</w>
im ports</w>
h and</w>
sar ko
il a</w>
gre at</w>
wea k</w>
re st
score board</w>
it ar
cha se</w>
resid ents</w>
ba il
wee ks</w>
ex tre
sarko zy</w>
histor ic</w>
consid ers</w>
pre ce
cambo dian</w>
contra c
sh el
ric h</w>
produc ts</w>
peacekee pers</w>
che chen</w>
you th</w>
far m</w>
dam age</w>
s k</w>
bas ke
famil ies</w>
mass ac
gu n</w>
ti bet</w>
con duc
at e
tig er</w>
viet nam
i k
fa st</w>
mar t
ab ove</w>
ten s</w>
def eat</w>
radi o</w>
mil an</w>
sup er</w>
ho o
ex presses</w>
wor king</w>
z z
succe ss
kaz ak
per son
d anish</w>
withdraw al</w>
cro w
est ab
fe w</w>
baske tball</w>
i ed</w>
di f
co ca
asse mb
bel gi
hom es</w>
mus harra
ne igh
venezuel an</w>
q at
er o
musharra f</w>
test if
as soci
rw anda</w>
r are</w>
d au
b ay</w>
qualifi er</w>
ag ed</w>
in it
ir a</w>
bank rup
is lands</w>
ny c</w>
vietnam ese</w>
ish ed</w>
en ter</w>
ad dre
treas ury</w>
ch en
p ir
o dy</w>
to b
an im
doc u
decla res</w>
at eral</w>
ra il
ber lin</w>
is es</w>
n ad
k in
doc tor</w>
un ity</w>
u l</w>
he z
belgi um</w>
acc o</w>
la u
chic ago</w>
tur ing</w>
consid er</w>
base ball</w>
att or
ven ture</w>
ie t</w>
augu st</w>
ma kers</w>
s .
hez bol
attemp t</w>
la y</w>
polit ics</w>
tob acco</w>
secre t</w>
a wa
christ mas</w>
de but</w>
t ings</w>
la ws</w>
ve red</w>
ev idence</w>
gi ants</w>
clo sed</w>
is la
rus si
u ght</w>
tru ck</w>
m y</w>
pul ls</w>
israel is</w>
hezbol lah</w>
loo king</w>
### m</w>
grow ing</w>
riv als</w>
are as</w>
ne pal
mar ath
t igh
pen alty</w>
manag er</w>
au ction</w>
cross -
plun ge</w>
proj ects</w>
kill ings</w>
ra s</w>
satur day</w>
del ay
vic e-
ukrain ian</w>
ro ck</w>
sh en
as k</w>
war n</w>
spea ker</w>
n ar
lo st</w>
ac cess</w>
b at
ro l
wh ere</w>
relea ses</w>
l -
wh e
reta il</w>
ho p</w>
con dit
re as
ten sions</w>
prepar e</w>
p rac
cla ssi
w an
bo ss</w>
r an</w>
sel ls</w>
h #n
s ent</w>
pow er
pol l
ne ther
l us
ker ry</w>
den mark</w>
announ ce</w>
pl us</w>
ch ry
h#n #</w>
alli ance</w>
strateg y</w>
v at
ua e</w>
war e</w>
run ning</w>
ev er</w>
al low</w>
ca use</w>
hun t</w>
cancel s</w>
ath le
mu barak</w>
h an
man u
nether lands</w>
vo w</w>
tea ms</w>
th ing</w>
h l</w>
un ions</w>
mob ile</w>
worl ds</w>
tw o-
ky r
con fir
sp rea
mil o
am ne
sc ri
ce re
wat ch
s le
h ill</w>
bar cel
sl er</w>
resum es</w>
elec t</w>
do me
ber y</w>
respon se</w>
kyr gy
senten ces</w>
expan sion</w>
sev ic</w>
milo sevic</w>
p over
v an</w>
marath on</w>
n an
macedon ia</w>
fac tory</w>
barcel ona</w>
assemb ly</w>
ke l</w>
sit uation</w>
ar sen
quar ters</w>
reg ist
re sign</w>
ic ian</w>
offen sive</w>
ev ent</w>
ti l</w>
si mp
ca re
pus hes</w>
lar ge</w>
it er
pro ce
thre ats</w>
mid day</w>
n ight</w>
fin land</w>
controver si
bour se</w>
in tro
end or
comb at</w>
f t
cel l</w>
shut tle</w>
dome stic</w>
s low</w>
musli ms</w>
t ations</w>
fif a</w>
villa ge</w>
out look</w>
abor tion</w>
ri er</w>
st e</w>
sup p
h ang</w>
gu err
chry sler</w>
sat ell
satell ite</w>
bo ys</w>
b it
be at
amne sty</w>
man ila</w>
air e</w>
pp ed</w>
li t</w>
pro per
t yp
ea ses</w>
ba h
chel sea</w>
un til</w>
threat en</w>
m ol
dis misses</w>
x ing</w>
assa ult</w>
co oper
separ at
eng lish</w>
controversi al</w>
lea der
her o
at ives</w>
c c</w>
d y
de als</w>
ber g</w>
cere mon
massac re</w>
sal v
presid ency</w>
fa il</w>
k ings</w>
e ve</w>
tro op</w>
g or
te en
ma sters</w>
as sets</w>
yan ke
investig ate</w>
stre sses</w>
ro u
ser bian</w>
w on</w>
mov ie</w>
avo id</w>
lo ans</w>
fa r</w>
doz ens</w>
sen ator</w>
qu it</w>
ir o</w>
out break</w>
d river</w>
m o</w>
cen tur
chem ical</w>
e t
s -
go al</w>
wo unds</w>
fi red</w>
li ke</w>
v s</w>
u z
##- year</w>
nas a</w>
ch e</w>
ba y
we alth</w>
ey e</w>
r allies</w>
con i</w>
h all</w>
mozam bi
mozambi que</w>
y le</w>
ma ssive</w>
ir s</w>
naz i</w>
fun eral</w>
g en</w>
bil li
trib un
und i</w>
bur undi</w>
win ter</w>
or dered</w>
ba r</w>
to yo
h im
requ est</w>
ed a</w>
sur pris
st ly</w>
pre v
b ack
a us
proble m</w>
i res</w>
h ockey</w>
h it
ch i</w>
v ian</w>
i ent</w>
arsen al</w>
h ands</w>
chie fs</w>
challen ges</w>
ill e</w>
de rer</w>
regu lat
traffic king</w>
toyo ta</w>
ba i</w>
inv est</w>
de al
chan ce</w>
vat ican</w>
gen oc
c ing</w>
hol lywood</w>
john son</w>
ag end
genoc ide</w>
stat us</w>
id enti
sum mer</w>
re bound</w>
ss man</w>
exper t</w>
i er</w>
fe bru
febru ary</w>
an aly
wil d
roy al</w>
al ties</w>
zam bian</w>
- fire</w>
rej ect</w>
re pla
strength en</w>
c ars</w>
paren ts</w>
withdra ws</w>
delay ed</w>
it e
ne tan
diplom ats</w>
zer land</w>
swit zerland</w>
leader ship</w>
l ic
bis hop</w>
bail out</w>
du bai</w>
we ight</w>
h aul</w>
cathol ic</w>
prov ide</w>
injur ies</w>
d ow
sett le</w>
bal lo
pen s
dic t</w>
week end</w>
an ese</w>
in -
bel ow</w>
manu fac
nor we
f fe
air bus</w>
defe ats</w>
ber lus
bankrup t
sp lit</w>
agend a</w>
g ran
quest ion</w>
mosqu e</w>
mic ha
berlus coni</w>
gu ang
co al</w>
pover ty</w>
sp ot</w>
su gg
cour se</w>
si on
c ut
sh e</w>
netan ya
ent ry</w>
lo u
writ er</w>
fe at
sign ation</w>
en ces</w>
north west</w>
con g
ten tion</w>
ric a</w>
j i</w>
surve y</w>
portu gu
n om
man del
lo ut</w>
il ity</w>
b hut
hop e
as y
commun ity</w>
classi c</w>
alleg ations</w>
watch dog</w>
g al
sa s</w>
pa ys</w>
be an</w>
u ph
micha el</w>
gu ate
guate mal
sof t
sel ling</w>
fore ig
su dan
fac ing</w>
sh ed</w>
pil ots</w>
netanya hu</w>
north east</w>
gu ards</w>
for ward</w>
fin ish</w>
u. s.
lo ck
suppor ters</w>
seiz ed</w>
pe tro
q #</w>
on y</w>
air ways</w>
g an</w>
euro s</w>
celebr ates</w>
cy pri
do d
sing er</w>
passen ger</w>
ob serv
m ut
sudan ese</w>
st ol
me ts</w>
yu an</w>
mal e</w>
alban ia</w>
t op
boo sts</w>
ro me</w>
fin ed</w>
celebr ate</w>
sol ution</w>
dau ghter</w>
u.s. -
sh i</w>
qat ar</w>
fun ding</w>
re signation</w>
lu m</w>
op tim
coun ty</w>
k ab
wor th</w>
si sts</w>
c is
er ce</w>
com pens
tr on
la s</w>
al ists</w>
ad es</w>
rea m</w>
vo ting</w>
fore st</w>
ti e</w>
ac coun
- up</w>
en ing</w>
deta in</w>
s korean</w>
plan ning</w>
al ity</w>
goo gle</w>
marri age</w>
s man</w>
memb ership</w>
in ter</w>
cli mb
exhib ition</w>
b y
victi m</w>
ro ber
lo ve</w>
d p</w>
bel ie
al e</w>
troub led</w>
extra dition</w>
ou gh</w>
civ ilian</w>
quest ion
dec ide</w>
bankrupt cy</w>
saf e</w>
pa y
sh oc
hon or</w>
be k
optim istic</w>
cost a</w>
a zer
surviv ors</w>
re sear
portugu ese</w>
mo d
memor ial</w>
be ef</w>
alger ia</w>
e .</w>
ic k
li ver
compe tition</w>
manag ement</w>
dec ember</w>
itar ian</w>
a h</w>
lit hu
f are</w>
th ra
attor ney</w>
tro p
sen ators</w>
c ard</w>
re vol
indic ted</w>
th -
at tra
a use</w>
g rants</w>
reven ue</w>
cou ra
yanke es</w>
wh at</w>
t ons</w>
ro c</w>
mandel a</w>
ve ment</w>
negoti ations</w>
t g
ca uses</w>
le one</w>
liver pool</w>
te m
ro se</w>
ov a</w>
ru m
bri dge</w>
t ation</w>
arm en
indi es</w>
sea t</w>
la ck</w>
ar ing</w>
taiw anese</w>
t r</w>
t ack
norwe gian</w>
wor ker</w>
ter min
ra il</w>
devel op</w>
trop ical</w>
gu ar
post -
cler ic</w>
hoo d</w>
ho me
t old</w>
re gul
ar m</w>
k ids</w>
sur plus</w>
cease -fire</w>
n z</w>
bec ause</w>
ter y</w>
shen z
pro fe
le e</w>
sit es</w>
doub les</w>
b ed</w>
zimbab we
pack age</w>
giv en</w>
car go</w>
soft ware</w>
ne ts</w>
si s</w>
fi el
figh ter</w>
propos ed</w>
kab ul</w>
free dom</w>
io c</w>
vie ws</w>
pro sp
jor d
ru g
cle ars</w>
passen gers</w>
di um</w>
organ iz
crimin al</w>
jord anian</w>
ici p
ici ans</w>
fe der
milli ons</w>
sp ill</w>
presid ents</w>
re duce</w>
confir med</w>
har d
li ves</w>
blu e</w>
l en
ed ges</w>
ar iz
med al</w>
sch e</w>
moder ate</w>
strugg le</w>
re duc
e red</w>
sm ith</w>
tra vel
im prov
def end</w>
m ight</w>
b arre
est er</w>
m ill
gu ine
y ed</w>
thre e-
mo tor
georg ian</w>
br on
sur ren
ne ed
environ ment</w>
ac a
wo es</w>
p ick</w>
sw im
gro w</w>
ban king</w>
semi finals</w>
ye t</w>
qual ity</w>
ira cy</w>
pow ers</w>
mess age</w>
dol e</w>
wa ve</w>
ow ner</w>
ceremon y</w>
re new
bo t
re rs</w>
do or</w>
cor por
att le</w>
re call</w>
condit ions</w>
u ef
uef a</w>
deta ils</w>
sci ence</w>
t land</w>
shenz hen</w>
prece de</w>
ba il</w>
human itarian</w>
el and</w>
du ces</w>
p icks</w>
m el
it or</w>
tran sport</w>
ne ars</w>
coca ine</w>
ab duc
he al
dif feren
di c</w>
centur y</w>
c old</w>
re comm
prev ent</w>
ec b</w>
cur b</w>
slu mp</w>
bu ying</w>
tig ers</w>
n er
asy lum</w>
us ly</w>
jer sey</w>
f ly</w>
ba ij
azer baij
mar t</w>
f ea
co -
c ir
asi a-
ag ent</w>
bloo d</w>
proper ty</w>
bil ateral</w>
crit ics</w>
terror ists</w>
croat ian</w>
woo ds</w>
bi ds</w>
na v
dire ct</w>
in aug
inaug ur
m ist
hosp ital
h ran</w>
v an
us d</w>
advis ory</w>
au st</w>
la den</w>
l ights</w>
b o</w>
v s.</w>
w ere</w>
al lows</w>
b ut
reser ves</w>
assass ination</w>
al d</w>
si bility</w>
ol ds</w>
citiz ens</w>
roc kets</w>
cre ate</w>
re e</w>
in come</w>
t ly</w>
peacekee ping</w>
id ing</w>
te hran</w>
s burg</w>
blo ck
a .</w>
hi ke</w>
conc lu
z ed</w>
alban ian</w>
him self</w>
g as
b p</w>
lon g-
la kers</w>
cal m</w>
vi ve</w>
sh r
ser ve</w>
rece ive</w>
fail ure</w>
#r d</w>
fore x</w>
com mon
lan ding</w>
fron t</w>
environ mental</w>
cy cl
rug by</w>
de tention</w>
cis co</w>
ca str
ra ids</w>
cou ple</w>
s cal
south east</w>
bir th
the m</w>
ss ing</w>
ho t</w>
rais ing</w>
swee p</w>
mon gol
hol oc
ho urs</w>
pu ll</w>
g ather</w>
fif th</w>
st im
addre ss</w>
ex am
spo ke
a \/
f l</w>
dod gers</w>
rw andan</w>
bulgar ian</w>
del iv
pas s</w>
c lar
mul ls</w>
q tr</w>
anc ient</w>
so ar</w>
mo stly</w>
it ors</w>
elec tron
wat ch</w>
im port</w>
e ver
lea k</w>
investig ators</w>
hun ger</w>
cease fire</w>
bo x</w>
sub si
s cre
gab e</w>
a ver
t ice</w>
g dp</w>
come back</w>
b ad
sh ut</w>
pri x</w>
init i
f el
un changed</w>
uti onal</w>
mu gabe</w>
co ver
sever al</w>
la ke</w>
vir us</w>
docu ments</w>
v a</w>
trans fer</w>
ri ot</w>
cau ti
so x</w>
mis t</w>
un cer
re vis
postpon ed</w>
le y
castr o</w>
pr in
infl u
reco gn
po und</w>
rail way</w>
predic ts</w>
hun gar
s cor
denoun ces</w>
mis m</w>
dissid ent</w>
er ra</w>
plan ts</w>
g ren
tou gh
a\/ h#n#</w>
##. ##</w>
d ings</w>
cust ody</w>
clo sure</w>
chen ey</w>
and ed</w>
on ing</w>
expec tations</w>
sin ks</w>
stron ger</w>
r ying</w>
de tro
banglade shi</w>
employe es</w>
n on-
min ing</w>
ig n
inter ior</w>
b un
pop ulation</w>
f und
s ara
mis sion
da ily</w>
ariz ona</w>
coll ision</w>
worl d
cong rat
in sp
for man
u lar</w>
holoc aust</w>
wan ted</w>
bro ther</w>
ac ts</w>
mov ing</w>
liber ia</w>
slo ven
sa il
open er</w>
ch oo
n ish</w>
vol can
ta ji
rece ssion</w>
bo th</w>
ju d
fav or
vacc ine</w>
tea chers</w>
nepal i</w>
cro wn</w>
laun ched</w>
pri est</w>
accep t</w>
gol f</w>
si erra</w>
lic en
k at
fle e</w>
er up
sta ys</w>
police men</w>
detro it</w>
re ment</w>
m b</w>
ge tting</w>
ace h</w>
u ral</w>
clo sing</w>
t y
g ates</w>
&amp ;
vis a</w>
th ir
fe derer</w>
moroc co</w>
f y</w>
an y</w>
priv at
accep ts</w>
restric tions</w>
wil d</w>
typ ho
maj ority</w>
high way</w>
d or
atlan ta</w>
run s</w>
fo under</w>
bea ch</w>
mis sions</w>
en h
bhut to</w>
st le</w>
auth or</w>
wal k</w>
postpon es</w>
ic ations</w>
ca su
un rest</w>
con vention</w>
christ ian</w>
with in</w>
u mb
n fl</w>
fish ing</w>
need ed</w>
disput ed</w>
ar ti
ssi onal</w>
pos ed</w>
p ga</w>
h i</w>
h o</w>
we b
care er</w>
re ve
sy d
nat ural</w>
af p</w>
quarter finals</w>
sec on
pl es</w>
car din
hi j
stim ul
o d
crit ical</w>
consu l
bor n</w>
li mits</w>
pol e</w>
comm ents</w>
s now</w>
op poses</w>
te dly</w>
fe male</w>
congrat ul
tribun al</w>
o il
k ov
aca dem
veter an</w>
mer kel</w>
b low</w>
le ar
##- year-old</w>
dis ney</w>
spar ks</w>
blo cks</w>
poll ution</w>
dec lines</w>
lo ck</w>
ra y</w>
pati ents</w>
russi ans</w>
n es</w>
in o
yo u</w>
withdra w</w>
ta ins</w>
s cen
t om
sum mary</w>
we igh
sha re
re calls</w>
guine a</w>
o hi
vol ley
sh e
ge or
aus si
ar i</w>
d r</w>
ar t
surpris e</w>
g ang</w>
est im
constit utional</w>
polit ician</w>
car ib
st able</w>
ju mps</w>
re t
sugg ests</w>
f ine</w>
ver dict</w>
ur u
ma il</w>
foreig ners</w>
fri end</w>
c king</w>
common wealth</w>
cust oms</w>
st ability</w>
de v
anti- terror</w>
uru gu
ri s</w>
dis rup
carib bean</w>
ac kers</w>
di ed</w>
ohi o</w>
com promise</w>
vir gin
is c
acc id
stor ms</w>
ser ious</w>
off s</w>
mar ines</w>
volley ball</w>
ma d</w>
kan sas</w>
inclu ding</w>
evacu ated</w>
pir ates</w>
de st</w>
' ##</w>
asia- pacific</w>
ken ne
peace ful</w>
im port
hungar ian</w>
as h</w>
ou sted</w>
exerc ise</w>
w r
ra d
qualif ying</w>
stri p</w>
seiz es</w>
p .</w>
contro l
se l</w>
boo ks</w>
bas ed</w>
a i
jam a
ca iro</w>
est on
br us
mov ed</w>
let ter</w>
sli ps</w>
produc er</w>
th y</w>
ple a</w>
boliv ia</w>
af ter
ho sts</w>
fu g
re presen
or din
h ou
zimbabwe an</w>
sta dium</w>
police man</w>
bal i</w>
suff ers</w>
reser ve</w>
re gre
re cru
con ce
d- quarter</w>
sp urs</w>
o '
ku wa
k icks</w>
fer ry</w>
syd ney</w>
stol en</w>
ri o</w>
lea ving</w>
for ced</w>
sli p</w>
ha it
schedu le</w>
fea red</w>
mu ch</w>
st ops</w>
m om
fi ji</w>
ro cks</w>
pro mp
dit ional</w>
re in
cooper ate</w>
sk y</w>
con test</w>
c able</w>
stron au
oc t.</w>
mal aw
a stronau
bur n</w>
sch ol
lam a</w>
di vision</w>
l un
sol id
gol den</w>
ethiop ian</w>
slov ak
sla ying</w>
g #</w>
wit ness</w>
cle an</w>
te red</w>
fin nish</w>
fa iled</w>
al ong</w>
birth day</w>
tur n
stat ement</w>
ha w
alger ian</w>
nic ar
nicar agu
y our</w>
s wor
stric t</w>
o ks</w>
f ish</w>
iz es</w>
viol ent</w>
supp lies</w>
simp son</w>
sc are</w>
illa s</w>
goo ds</w>
t ight</w>
d u</w>
po ten
tr a</w>
pac e</w>
lo oms</w>
z er</w>
w re
u es</w>
mp ing</w>
virgin ia</w>
re iter
char ity</w>
tor ture</w>
ter ms</w>
compens ation</w>
ru ral</w>
ir ing</w>
s f
g ad
comm erc
de t
ten eg
mon teneg
hope ful</w>
ma s
ev o</w>
en cies</w>
pat ro
busine sses</w>
exec ution</w>
ter rit
beat en</w>
. a.</w>
pan ama</w>
de ser
se c</w>
lif ting</w>
f ru
war ds</w>
ip s</w>
whe ther</w>
al-qa eda</w>
sour ces</w>
al ive</w>
w ol
sur ges</w>
sco tland</w>
pul lout</w>
fat al</w>
nom ine
gun man</w>
a c</w>
trou ble</w>
x i</w>
head quarters</w>
ten sion</w>
stimul us</w>
sh ift</w>
n i</w>
conduc t</w>
chil ean</w>
rus h</w>
fa sh
acc us
im pact</w>
#- year</w>
sh ell</w>
kazak h
cyc ling</w>
spoke sman</w>
p aul</w>
mul ti
low ed</w>
typho on</w>
susp en
ne g
shor e</w>
ro ad
detaine es</w>
d p
ke p
explo des</w>
aul t</w>
aga z
spo t
hol ding</w>
di ff
en coura
m agaz
low ers</w>
sara j
lu x
ro ute</w>
co w
z en
de ut
sh op
discus ses</w>
qu ick</w>
pri mary</w>
comple te</w>
cul tural</w>
p ed</w>
author ity</w>
per forman
athle tes</w>
ra ces</w>
high est</w>
ev a</w>
ad d</w>
u tions</w>
sp ring</w>
lo sing</w>
sp i
pa ir</w>
gir ls</w>
del ta</w>
resol ve</w>
condem n</w>
mi ami</w>
ar ies</w>
tri c</w>
war ming</w>
saraj evo</w>
bah rain</w>
z ai</w>
if ication</w>
hea ded</w>
sen g</w>
fish er
e der</w>
medi ate</w>
li mit</w>
hal ts</w>
bi o
sex ual</w>
mor tg
it ions</w>
test ing</w>
in sists</w>
ab road</w>
m t</w>
benef its</w>
bir th</w>
e a</w>
inter im</w>
resear chers</w>
re fin
ele ss</w>
prov ides</w>
pop ular</w>
strugg les</w>
im e</w>
st one</w>
polic ies</w>
ma ur
en ron</w>
si t</w>
de ep
rea k</w>
n ur
v o</w>
st ery</w>
pro bes</w>
k ne
ig an</w>
pa in
so ars</w>
smo king</w>
op pon
li ve</w>
it re
repor ter</w>
part icip
kazakh stan</w>
four -
to s</w>
af firms</w>
tele vision</w>
cit es</w>
bow l</w>
l i</w>
bla me</w>
o t
inten si
in stit
hospital ized</w>
ho u</w>
cru ise</w>
to tal</w>
l .a.</w>
figh ts</w>
st ory</w>
or ies</w>
fil ip
w age</w>
prac tice</w>
mat er
stri ker</w>
lan gu
corpor ate</w>
ang els</w>
kar zai</w>
pre -
dal ai</w>
ag ents</w>
conserv ative</w>
elec tric
atlan tic</w>
sli des</w>
sh ad
hero in</w>
dec .</w>
be en</w>
south west</w>
reiter ates</w>
gh ana</w>
a x
w ake</w>
miss iles</w>
campa ig
ri ots</w>
car rying</w>
bay ern</w>
la dy</w>
eng ine
own ers</w>
ro eder</w>
m ates</w>
prof it
equ ip
sp on
dro ught</w>
azerbaij an</w>
alo m</w>
over haul</w>
hus band</w>
char les</w>
reti rement</w>
kenne dy</w>
ss ed</w>
fig ure</w>
el im
contrac ts</w>
mart in</w>
slovak ia</w>
giv ing</w>
er to</w>
deut sche</w>
bel grade</w>
car ol
trib al</w>
gra ft</w>
er itre
di am
dec ides</w>
rescu ed</w>
ky i</w>
w er</w>
w i
di ver
barre l</w>
up set</w>
fat ah</w>
comple tes</w>
ag as
commerc ial</w>
pil gri
jun ta</w>
cam p
su u</w>
l ation</w>
doub t</w>
bel l</w>
cypri ot</w>
on ce</w>
ju dges</w>
ation al</w>
plun ges</w>
moun t</w>
tan ker</w>
sl alom</w>
mad agas
equip ment</w>
t ative</w>
du ras</w>
ag en</w>
inc ident</w>
f iv
b on</w>
six -
fran cisco</w>
hon duras</w>
chan nel</w>
v ent
se m
sch roeder</w>
guerr illas</w>
g p</w>
al most</w>
no -
den y</w>
it h
hon ors</w>
adop ts</w>
wa ste</w>
publ ish
kuwa iti</w>
dam ages</w>
tack le</w>
sou ght</w>
s in</w>
s ic
k mt</w>
re ver
mb les</w>
tun is
z z</w>
nov .</w>
angol an</w>
polit icians</w>
geor ge</w>
ab u</w>
th ef
ru b
re marks</w>
prison er</w>
ol e</w>
min ent</w>
re news</w>
ti bet
agricul ture</w>
il i
pu erto</w>
share hol
tu mble</w>
independ ent</w>
acti ve</w>
hus se
ea sy</w>
c le</w>
gre ater</w>
# \/
re place</w>
est ate</w>
dav id</w>
a v
stra it</w>
le ans</w>
b ills</w>
air s</w>
executi ves</w>
malaw i</w>
hi v</w>
tem por
im ple
p ping</w>
a sion</w>
s lows</w>
ex it</w>
fash ion</w>
ad o</w>
power ful</w>
sy n
sp ying</w>
h ang
ful ly</w>
fin ally</w>
c pc</w>
ban g
ch ester</w>
uph olds</w>
elec ts</w>
am bush</w>
cul ture</w>
cru c
sen ding</w>
col or
mp tion</w>
mig rants</w>
bu l</w>
bla med</w>
ear ns</w>
ad b</w>
indi ans</w>
an sw
b acking</w>
ag encies</w>
lin er</w>
husse in</w>
di d</w>
ist an
inv ites</w>
exten sion</w>
po unds</w>
wor st</w>
shoo t</w>
f ile</w>
##- #</w>
feat ures</w>
sa v
istan bul</w>
don ates</w>
tea cher</w>
hou ston</w>
f a</w>
congratul ates</w>
be ating</w>
th ere</w>
it ation</w>
on to</w>
un likely</w>
j ol
sf eld</w>
rum sfeld</w>
cli mb</w>
driv ers</w>
develop ing</w>
sin o-
ris ks</w>
s amp
g rant</w>
ck y</w>
suspen sion</w>
por ted</w>
le g</w>
as ked</w>
jam es</w>
inte l</w>
bun de
acqu ire</w>
fin es</w>
yugosla v</w>
sta ur
re staur
lo y
- hit</w>
me t</w>
k im</w>
h our</w>
s old</w>
swor n</w>
su its</w>
pur chase</w>
im age</w>
casu alties</w>
tre ss</w>
tre at</w>
res or
ko k</w>
er -
reta ins</w>
part n
a sh
ta xes</w>
sci ent
feder ation</w>
fal ling</w>
an ium</w>
partn ership</w>
sprea d</w>
on g
ta r</w>
st un
sub way</w>
repor tedly</w>
world wide</w>
w heat</w>
ro om</w>
guatemal a</w>
dig ital</w>
z o
att acked</w>
sh akes</w>
ro d
poten tial</w>
ec tions</w>
clea red</w>
reco ver</w>
pen sion</w>
dis arm
b right</w>
maur it
climb s</w>
sp end</w>
m on</w>
ec ting</w>
ang ry</w>
sig ned</w>
land mark</w>
co s</w>
volcan o</w>
bang kok</w>
mo del</w>
milit ia</w>
li er</w>
floo ding</w>
or leans</w>
k y</w>
stand off</w>
in ks</w>
monteneg ro</w>
ec tive</w>
shoo ts</w>
estab l
e z</w>
bri ef
shu ts</w>
go als</w>
d ong</w>
op ti
land slide</w>
am ent</w>
sett les</w>
free ze</w>
exp ands</w>
fug itive</w>
her o</w>
co w</w>
up beat</w>
ear th</w>
magaz ine</w>
cut ting</w>
y i
ge dly</w>
bur y</w>
alle gedly</w>
comm on</w>
vehic les</w>
u mp
teen ag
en ed</w>
performan ce</w>
ta ken</w>
ol mer
n pc</w>
ga r</w>
fig ures</w>
ur anium</w>
inte re
re struc
re store</w>
en i</w>
elec tric</w>
cla ss</w>
k il
ss or</w>
sch u
ran ge</w>
adv oc
w im
im ed</w>
presen ce</w>
m al</w>
f ate</w>
car ter</w>
il ities</w>
up sets</w>
offic es</w>
com mission
sla m</w>
sat is
dp p</w>
al ing</w>
lo t
ir i</w>
inspec tors</w>
vis itors</w>
tran sp
ron al
hea v
ag ing</w>
exper i
batt les</w>
ri ed</w>
manufac turing</w>
br an
olmer t</w>
n .
r .</w>
qu a
oc cu
t out</w>
or ing</w>
n hl</w>
man s</w>
y em
ex press</w>
k el
sig ning</w>
ra ins</w>
on- dollar</w>
hea ding</w>
congre ssional</w>
b ing</w>
g on
re c
win d
cow boys</w>
tor al</w>
doub ts</w>
cruc ial</w>
wor k
st reak</w>
par agu
in n
min ers</w>
op tions</w>
my stery</w>
ob j
ch ol
avi ation</w>
concer t</w>
z hou</w>
vo ices</w>
sy ste
jan .</w>
sen eg
legislat ive</w>
aussi e</w>
ex tra</w>
ak a</w>
## s</w>
tanz anian</w>
short age</w>
ed itor</w>
ti on
kne e</w>
wim ble
car rier</w>
w w
dis miss
b id
al i</w>
par ade</w>
shar p</w>
carol ina</w>
br on</w>
arab s</w>
wimble don</w>
thef t</w>
re conc
pres ent</w>
ac tress</w>
f ake</w>
tin y</w>
bo un
re bu
in king</w>
- gen</w>
progra ms</w>
play off</w>
de ep</w>
col umb
u li
po t</w>
mic h
euro zone</w>
- ##</w>
commit ment</w>
soc ie
ren a</w>
vol un
ro ll</w>
man n</w>
agricul tural</w>
secur ities</w>
dow ns</w>
ass i</w>
h ints</w>
broad ca
ti s</w>
al as
ac tions</w>
ac o</w>
z stan</w>
surv ives</w>
madagas car</w>
j im
mortg age</w>
guar an
chec k</w>
ra in
lor d</w>
vehic le</w>
tar ge
ite ms</w>
su n</w>
kyrgy zstan</w>
shar ing</w>
organ ization</w>
div ided</w>
opti mism</w>
mo s</w>
ma chin
f ies</w>
sch war
in j
fiv e-
b ars</w>
s low
increas ed</w>
immig rant</w>
v p</w>
tw ins</w>
gren ade</w>
ch ad</w>
reta il
l on</w>
al lowed</w>
n -
man chester</w>
ar ity</w>
urugu ay</w>
bomb ers</w>
vel s</w>
w is</w>
awa its</w>
fre es</w>
assi stance</w>
st ands</w>
reve als</w>
re patri
con dol
elec toral</w>
al es</w>
om ing</w>
rou ge</w>
resp ect</w>
lat er</w>
con ver
co ver</w>
son y</w>
sn ow
re lay</w>
p s
don ors</w>
cau ght</w>
je ws</w>
inv ent
hel ping</w>
f ia</w>
trib ute</w>
stand ards</w>
ea l</w>
advis er</w>
le ts</w>
ch amp</w>
c .</w>
se t
sche me</w>
fo und
hait ian</w>
driv ing</w>
commun ications</w>
n al</w>
war t</w>
pl at
ia ea</w>
controver sy</w>
cauti ous</w>
ch am
re m
kat r
vo ice</w>
con ven
stree ts</w>
fo x</w>
f an</w>
cho ice</w>
electric ity</w>
arm strong</w>
ca stle</w>
en ough</w>
wal es</w>
s mal
p lea
ing er</w>
com memor
a im</w>
win d</w>
mar s</w>
der ing</w>
bra ces</w>
tun nel</w>
ac ker</w>
an thra
u de</w>
k g</w>
dem ic</w>
nar ro
langu age</w>
ch s</w>
war ned</w>
ko s</w>
cha os</w>
mov ement</w>
gi uli
wat ers</w>
test im
indic es</w>
de fi
st yle</w>
pois ed</w>
## m</w>
lon ger</w>
col li
ath let
reti res</w>
moun tain</w>
color ado</w>
wea k
mat ches</w>
katr ina</w>
c us</w>
r ating</w>
qu iet</w>
ex ce
person al</w>
giuli ani</w>
curren t</w>
bal k
mor gan</w>
kn oc
el ines</w>
sk ating</w>
bri bery</w>
anthra x</w>
athlet ics</w>
sid es</w>
k ir
f f</w>
success ful</w>
don ald</w>
deplo yment</w>
wel fare</w>
if ts</w>
ch ip</w>
testif y</w>
en jo
domin ican</w>
sun ni</w>
rad ical</w>
ph y</w>
b ors</w>
accid ents</w>
kur ds</w>
an o</w>
z aire</w>
stoc k
sol ve</w>
bas que</w>
wea ker</w>
ol a</w>
j ad</w>
ici al</w>
d ream</w>
ah mad
separat ist</w>
legislat ure</w>
investig ating</w>
veter ans</w>
sov iet</w>
b lan
dic k</w>
associ ation</w>
di s</w>
gu ests</w>
re construction</w>
re open</w>
i x</w>
testif ies</w>
op pose</w>
ine jad</w>
an j
gg ing</w>
part ner</w>
to ge
h an</w>
c ig
p iracy</w>
enh ance</w>
di strict</w>
weigh s</w>
vo ys</w>
susp end</w>
mo il</w>
disarm ament</w>
b ou
tex t
syste ms</w>
testim ony</w>
disco very</w>
ahmad inejad</w>
consid ering</w>
tur moil</w>
am s</w>
anim al</w>
analy sts</w>
per u
pe res</w>
ou th</w>
hol y</w>
cle an
cra ck</w>
toge ther</w>
mongol ia</w>
chan cel
a val
n w</w>
mor s</w>
busine ssman</w>
elim in
si ves</w>
shoo tout</w>
ex changes</w>
low -
legislat or</w>
g lo
oper a</w>
i ber
b .</w>
ac count</w>
tel l</w>
re si
ir ut</w>
explo sions</w>
be irut</w>
if f</w>
cancel ed</w>
win ners</w>
surren der</w>
inn oc
conf ron
bec k
pro duce</w>
defen ding</w>
t yco
mac y</w>
b at</w>
fire fighters</w>
comm entary</w>
fam e</w>
cycl one</w>
jo ur
el ing</w>
nomin ation</w>
ow le
ev ents</w>
- taking</w>
stro ke</w>
sh ipp
pla ying</w>
ad ver
x i
ve gas</w>
tu res</w>
si ght</w>
se -
con voy</w>
scient ist</w>
os car</w>
n ab
bu st</w>
re opens</w>
min es</w>
st ant</w>
s u</w>
initi ative</w>
ff le</w>
a wait</w>
ric k</w>
tigh tens</w>
alas ka</w>
sel s</w>
o x
a chie
st ores</w>
## #.#</w>
rece iv
re affirms</w>
ili ation</w>
dro pped</w>
bur ied</w>
z ing</w>
tt i</w>
pa id</w>
p y
se min
re vive</w>
al so</w>
lin e
if y</w>
ag assi</w>
s ca
extre m
aug .</w>
relat ives</w>
prin cess</w>
respon sibility</w>
re- election</w>
re n</w>
go al
chancel lor</w>
tri ed</w>
propos als</w>
la shes</w>
invol ved</w>
estab lish</w>
un ding</w>
ve to</w>
he bron</w>
di stri
dec lar
b ers</w>
sc o</w>
nu mb
lithu ania</w>
isc al</w>
f iscal</w>
observ ers</w>
il ing</w>
sp an</w>
tri als</w>
g ate</w>
renew ed</w>
j .</w>
ru st</w>
afgh ans</w>
ta y
tor ch</w>
high lights</w>
reconc iliation</w>
question ed</w>
mol d
da im
sem is</w>
joh an
fisher men</w>
big ger</w>
tough er</w>
olog ical</w>
ill y</w>
destro ys</w>
ch as
r and</w>
p lead</w>
con dition</w>
cam ero
benef it</w>
aval an
spea ks</w>
wed ding</w>
win ds</w>
l ight
exec uted</w>
main tain</w>
al co
s ons</w>
o h
mag ic</w>
avi v</w>
p ion
pion e
gun s</w>
ail ing</w>
cour ts</w>
kn icks</w>
resor t</w>
nation wide</w>
ja zz</w>
than ks</w>
mar i
jama ica</w>
car ds</w>
val ley</w>
sa o</w>
ro ads</w>
comm and</w>
regulat ors</w>
re shu
quarter ly</w>
hom eless</w>
fe ver</w>
acqu it
nig er</w>
spot light</w>
zen eg
zeneg ger</w>
sloven ia</w>
si e
schwar zenegger</w>
activ ities</w>
re well</w>
n ative</w>
or tho
monit or</w>
h ill
road side</w>
nad al</w>
mich igan</w>
gam b
ma h
explo sives</w>
sel f-
profit -taking</w>
nu ke</w>
h amp
conserv atives</w>
commission er</w>
co ffe
numb ers</w>
mo sle
fla g</w>
un ic
disco vered</w>
es cal
#\/ ##</w>
gu es</w>
tic ket</w>
break through</w>
ad or
qua ke
il ton</w>
defen der</w>
tay lor</w>
shoc k</w>
yem eni</w>
ger mans</w>
strateg ic</w>
agree ments</w>
swim ming</w>
ri ft</w>
patro l</w>
k .</w>
w illing</w>
spr int</w>
ow ned</w>
k ara
tyco on</w>
re move</w>
al a</w>
sign als</w>
extra d
dis ab
re cent</w>
bro thers</w>
t is
sing le</w>
regre ts</w>
invol vement</w>
e ta</w>
ad el
pan ic</w>
p el
streng th</w>
pp er</w>
ip o</w>
c tic</w>
stat e-
resul t</w>
pla ced</w>
h ow
cover age</w>
yan g</w>
ta sk</w>
ju ana</w>
viol ations</w>
str anded</w>
sp ir
show down</w>
squ are</w>
neigh bors</w>
brus sels</w>
tibet an</w>
le vels</w>
fran k
f aul
endor ses</w>
co ordin
ce l</w>
i als</w>
do x</w>
v ar
mid -
under ing</w>
ex- president</w>
crow d</w>
tra ge
relat ed</w>
kh mer</w>
ri f
haw ks</w>
nav al</w>
s w</w>
p oul
fol low</w>
th en</w>
ga z
uz bek
uzbek istan</w>
tru st</w>
st abb
de p
tra ders</w>
pal ace</w>
down hill</w>
sho p</w>
se ven
gra ve</w>
fir mer</w>
revol ution</w>
struc ture</w>
medic ine</w>
f da</w>
n ec
un e
isla m</w>
buil ds</w>
re actor</w>
retur ning</w>
legis lation</w>
ph ones</w>
ortho dox</w>
ib m</w>
# ,
t ight
attra c
to m</w>
ri de</w>
goo d
coffe e</w>
chol era</w>
cal ling</w>
br y
kee ping</w>
k i</w>
co ol</w>
co de</w>
bla ze</w>
ol ine</w>
bul ls</w>
vice- premier</w>
rober t</w>
an ge
re sources</w>
a stro
read ing</w>
diff ic
buil t</w>
fi x</w>
w al-
wal- mart</w>
kore ans</w>
con firm</w>
stre ss</w>
hea r</w>
eritre a</w>
ea ch</w>
com put
di p</w>
mill er</w>
fe es</w>
a be
convic ts</w>
car to
aff airs</w>
sco tt
p aul
in mates</w>
g in</w>
refin ery</w>
guang dong</w>
her e</w>
th r
astronau ts</w>
ronal do</w>
ok la
li m
camero on</w>
se attle</w>
rac ing</w>
jun ior</w>
e re
contro ls</w>
li ving</w>
nomine e</w>
d anger</w>
compla int</w>
oc ean</w>
hom a</w>
fri ends</w>
d '
im mediate</w>
li qu
har v
compe te</w>
stand ard</w>
por tun
pati ent</w>
oppon ents</w>
op portun
found ation</w>
fav or</w>
cross- strait</w>
b ear</w>
v ac
profe ssor</w>
ssi ons</w>
neigh bor
schu ma
ne sses</w>
peru vian</w>
ric o</w>
ma o
exp o</w>
w a</w>
b -
domin ate</w>
am az
op her</w>
air ports</w>
a board</w>
presen ts</w>
ss men</w>
i ow
fin ding</w>
awar ded</w>
tho se</w>
st am
kyrgy z</w>
### th</w>
pl o</w>
del iver
announ ced</w>
an tit
e sp
bud dh
beck ham</w>
schuma cher</w>
os ce</w>
ne ver</w>
green span</w>
gra in</w>
eng ine</w>
break ing</w>
stan ding</w>
to x
min d</w>
sour ce</w>
h a</w>
cre ates</w>
l ec
d un
ric an</w>
re pe
and er
ma fia</w>
com mod
ti ed</w>
g il
con sum
tra il</w>
eff ect</w>
p ath</w>
exerc ises</w>
strugg ling</w>
recomm ends</w>
ent -
comm erce</w>
detaine e</w>
de v</w>
gon z
div or
st ations</w>
h ing</w>
ch er
conn ection</w>
part ners</w>
## #-#</w>
per f
dic t
di ps</w>
to -
se tting</w>
ab and
seneg al</w>
paragu ay</w>
six th</w>
prosp ects</w>
p tion</w>
v ig
wor ried</w>
en voys</w>
af i</w>
vis iting</w>
te a</w>
n ight
cam er
z ar
val ue</w>
im mun
patri ots</w>
tan k</w>
sc ru
la undering</w>
cl a</w>
aut o
ret ire</w>
med ve
hop ing</w>
d na</w>
k rem
gu id
acc use</w>
w ings</w>
okla homa</w>
mu mb
gas oline</w>
cross ing</w>
ji had</w>
al i
conclu des</w>
nicaragu a</w>
ju vent
rob bery</w>
char ter</w>
deta ins</w>
bla cks</w>
pres sion</w>
extrem ists</w>
dev ils</w>
bra in</w>
# st-
medic are</w>
iow a</w>
car ry</w>
al ter
re fl
medve dev</w>
m -
financ ing</w>
chin a-
scal e</w>
juvent us</w>
far -
anti- war</w>
war ner</w>
tr in
prosec ution</w>
spon s
pay ments</w>
oil -
kee per</w>
ed wards</w>
schedu led</w>
f it</w>
eth ics</w>
in side</w>
high- tech</w>
tra ins</w>
eston ia</w>
w on
al ab
ya ho
yaho o</w>
tri ump
stri king</w>
inte g
evacu ation</w>
do gs</w>
disab led</w>
re fe
for mul
promo tes</w>
par am
mil k</w>
h at
war rant</w>
k ia</w>
pho to</w>
ru mors</w>
new castle</w>
improv ed</w>
ag o
subsi dies</w>
scor e</w>
mour ns</w>
monit oring</w>
l o</w>
cop a</w>
wil li
scott ish</w>
krem lin</w>
hill ary</w>
disput es</w>
har to</w>
sla u
re stra
cit ing</w>
ent u
brit on</w>
w ine</w>
sharehol ders</w>
mumb ai</w>
ital ia</w>
invest or</w>
rais ed</w>
lan ce</w>
fa rewell</w>
x on</w>
no te</w>
el ds</w>
cel tics</w>
out lines</w>
le ft
kara chi</w>
k ick</w>
gra du
coun ts</w>
volun te
if ies</w>
bo xing</w>
' ll</w>
sett lers</w>
ra v
ra bin</w>
it is</w>
declar ation</w>
st op
ho uses</w>
art ist</w>
week ly</w>
on aire</w>
thro ws</w>
st abil
sam e</w>
fl ying</w>
erup ts</w>
da r</w>
ch i
hi kes</w>
stu dies</w>
cam ps</w>
bra ves</w>
rea ched</w>
la os</w>
vol u
tro phy</w>
trage dy</w>
ren t</w>
continu ed</w>
tight en</w>
nation als</w>
cas ino</w>
ta d
shop ping</w>
coun ter</w>
bal ance</w>
sprea ds</w>
su bur
rat ings</w>
har ry</w>
anc ed</w>
min or</w>
nam i
avalan che</w>
le wis</w>
helicop ters</w>
di ana</w>
liber ian</w>
f c</w>
and -
unve il</w>
po t
ath lon</w>
at ory</w>
macedon ian</w>
de scri
rac ial</w>
chall eng
bo x
at or
ni k
exp ect</w>
demonstr ate</w>
ra b
fir ing</w>
b it</w>
ti onal</w>
mee tings</w>
f lies</w>
der ly</w>
con fe
wid ens</w>
suff er</w>
lu c
boo m</w>
ac le</w>
t ical</w>
pro pose</w>
mon s</w>
bru ins</w>
dis crimin
sa u
cont act</w>
salv ador</w>
war nings</w>
w ers</w>
us ers</w>
taji k
ww ii</w>
dissid ents</w>
ch ron
yo un
ab uses</w>
eu -
diplo macy</w>
off shore</w>
h iv
filip ino</w>
mun ich</w>
intro duce</w>
deb ates</w>
adop t</w>
mari juana</w>
lim ited</w>
li br
al ize</w>
z ic</w>
s ity</w>
for -
b ish
stand ings</w>
i de
indi a-
bas es</w>
b ak
le n</w>
bi e</w>
we igh</w>
ti v
rescu ers</w>
cor n</w>
wr ong</w>
ja h</w>
demonstr ators</w>
antit rust</w>
sho ts</w>
mo tion</w>
th ink</w>
li e
armen ia</w>
villa gers</w>
tho mas</w>
restruc turing</w>
hun ting</w>
wor ry</w>
poul try</w>
ph y
pe ter
d- qtr</w>
n bc</w>
ja ils</w>
f it
dan ger
trin id
mea sure</w>
en na</w>
spec ulation</w>
electron ics</w>
be y
favor ite</w>
fe b.</w>
f #</w>
cust om
christ opher</w>
wit nesses</w>
men tal
nas da
por n</w>
ic eland</w>
do ing</w>
den ied</w>
moroc can</w>
t te</w>
reg ime</w>
over all</w>
hin du</w>
settle ments</w>
s ma
mozam b
to ss</w>
ta x
lib yan</w>
ic c</w>
c rus
rod dick</w>
differen ces</w>
ch ain</w>
slov ak</w>
secur e</w>
ric h
m ira
cig are
exp la
dra ma</w>
j it
invest ments</w>
congre ssman</w>
ver ing</w>
foc uses</w>
fi xing</w>
sa w</w>
ur ban</w>
mo tor</w>
ex pe
b l
mag n
iz ing</w>
it ude</w>
der by</w>
att led</w>
an ge</w>
gen e
repla ces</w>
pois oning</w>
la b</w>
fl u
sh ire</w>
restaur ant</w>
m na
harv ard</w>
gy mna
gol d
for t</w>
pho tos</w>
one- day</w>
legislat ors</w>
consum ers</w>
p sy
negoti ators</w>
teenag er</w>
ro g
fiel der</w>
europe ans</w>
inv asion</w>
pa in</w>
hel ped</w>
bo unds</w>
ar tic
mo on</w>
left ist</w>
lit er
tor ies</w>
temp le</w>
m ers</w>
ha v
dut y</w>
anti- terrorism</w>
st al</w>
critici ze</w>
condol ences</w>
rac ism</w>
cana di
u cla</w>
trinid ad</w>
techn ical</w>
io usly</w>
v in</w>
sy mp
g- #</w>
e ding</w>
de port
asi ad</w>
al ization</w>
lo west</w>
b m
se ats</w>
min ority</w>
l er
bro ken</w>
w ary</w>
ro ma</w>
prepar ing</w>
pilgri ms</w>
occu p
shad ow</w>
pr inc
princ ip
##- month</w>
tran sit</w>
sil ver</w>
m outh</w>
decla red</w>
il it
pre gn
acqu is
main tains</w>
critici zed</w>
zo o</w>
cor p.</w>
bish ops</w>
ill ness</w>
te es</w>
stron g
separat ists</w>
p raise</w>
govern ments</w>
hear s</w>
wo und</w>
sa r</w>
cra cks</w>
tor onto</w>
kov ic</w>
w .</w>
s kep
au di
z i
l ending</w>
exp lor
em ents</w>
accus ations</w>
secre tar
o v</w>
improv ing</w>
d ance</w>
am end
kar ad
karad zic</w>
emb attled</w>
deser t</w>
danger ous</w>
vir gin</w>
threat ened</w>
su gar</w>
perf ect</w>
l are</w>
ha il</w>
- off</w>
xin jiang</w>
up coming</w>
the ater</w>
formul a</w>
a ides</w>
activ ity</w>
vol at
mur ders</w>
govern ing</w>
fac ts</w>
nor mal</w>
nasda q</w>
moun ts</w>
g on</w>
uncer tain</w>
in mate</w>
de termin
mour n</w>
g us
estim ates</w>
compe tit
unk en</w>
un ite</w>
tic kets</w>
pe t</w>
defen d
diam ond</w>
prepa red</w>
pal in</w>
p ad
or i</w>
t ren
min ton</w>
ko v</w>
ic als</w>
bad minton</w>
satis fied</w>
milit i
f ell</w>
ea sing</w>
u. k.</w>
man date</w>
t ac
rol ls</w>
im um</w>
del hi</w>
dec is
v in
mod ern</w>
tow ards</w>
sun g</w>
re treat</w>
separ ate</w>
impro ves</w>
defi ant</w>
de ter
bar rier</w>
negoti ate</w>
fil ms</w>
you ths</w>
promp ts</w>
nan ke</w>
lat via</w>
fa ith</w>
ber nanke</w>
ar ts</w>
star ting</w>
rea d</w>
kn own</w>
tur ned</w>
re quest
no on</w>
ore n
no tes</w>
fiel ds</w>
distri b
hand ling</w>
c s</w>
ro ok
ou ght</w>
ch -
ra mp
exp el
adver tis
exhib it</w>
tra ditional</w>
ru led</w>
la bor
cardin als</w>
au c
un h
n is
integ ration</w>
ar son</w>
c i
re ality</w>
deleg ates</w>
can cel</w>
academ y</w>
si em
le ss
ris t</w>
con ten
inter vention</w>
gran d
tajik istan</w>
im ing</w>
hi res</w>
ur a</w>
sca m</w>
pri ority</w>
pla ces</w>
north eastern</w>
ko hl</w>
increas ing</w>
identi fied</w>
g ##</w>
bra d
siem ens</w>
mur dered</w>
fur t</w>
che ss</w>
- finals</w>
s nu
pro minent</w>
g ath
en sure</w>
sol ar</w>
gen eva</w>
wor ds</w>
resi stance</w>
lou is
exten ded</w>
e missions</w>
surviv or</w>
green peace</w>
gra des</w>
commit ted</w>
uncer tain
j en
iv o
de sign</w>
clu bs</w>
we ight
ro ck
is ol
deliv ers</w>
tox ic</w>
it als</w>
do ors</w>
wel ls</w>
vi enna</w>
st ics</w>
hon ored</w>
compla ints</w>
bri ef</w>
rub ber</w>
ma ver
lan ders</w>
form ed</w>
fac tions</w>
me ter</w>
in ers</w>
foo t</w>
f ers</w>
dead lock</w>
bomb ay</w>
ar gu
mozamb ican</w>
un iver
differen t</w>
am e</w>
semin ar</w>
ig a</w>
el derly</w>
ca ution</w>
ballo t</w>
wh y</w>
swee ps</w>
s cra
foo t
dec lare</w>
c r</w>
pp cc</w>
p ha
for mal
c ppcc</w>
at ure</w>
all- star</w>
## ers</w>
ten se</w>
sie ge</w>
influ ence</w>
gol ese</w>
tunis ia</w>
strength ens</w>
ish ment</w>
fle et</w>
ep i
h afi</w>
frank furt</w>
divor ce</w>
ge ment</w>
gamb ling</w>
dis play</w>
war m</w>
pos itions</w>
go s</w>
dal las</w>
th ak
test ed</w>
samp ras</w>
re d
sha ke
reti red</w>
boliv ian</w>
im pea
w ire
pro stit
fal lu
un its</w>
transp lan
tempor ary</w>
se ed</w>
la ys</w>
ino is</w>
ill inois</w>
ex por
w rest
re new</w>
pa yment</w>
n owle
ack nowle
ly on</w>
in os</w>
destro y</w>
block ade</w>
innoc ent</w>
ing ing</w>
hosp itals</w>
ha wa
bu cks</w>
al bright</w>
ref use</w>
fallu jah</w>
ste wart</w>
re bounds</w>
p ist
us e
ste st</w>
si ung</w>
ne sburg</w>
johan nesburg</w>
ever y
c bs</w>
re pea
lau re
inter -
har iri</w>
thak sin</w>
y ang
monit ors</w>
import ant</w>
cel tic</w>
po p</w>
ne u
d les</w>
mosle m</w>
ma c</w>
fal se</w>
cen sus</w>
susp ic
bu y
roy o</w>
guerr illa</w>
ar royo</w>
sing les</w>
lux ury</w>
p na</w>
convic tion</w>
chec ks</w>
ag gre
adel ph
territ ory</w>
produc ers</w>
pl ic
negoti ator</w>
mon t</w>
it a</w>
israel i-
gra m
employe e</w>
o usly</w>
control led</w>
unic ef</w>
sea l</w>
m eat</w>
licen se</w>
bey ond</w>
oh siung</w>
mc donald</w>
ka ohsiung</w>
how ard</w>
ho l</w>
tour s</w>
s acked</w>
person nel</w>
celebr ations</w>
ma ster</w>
ven us</w>
fa stest</w>
a side</w>
val en
de par
armen ian</w>
th a
sa ch
de an</w>
to day</w>
shipp ing</w>
i ana</w>
si gh
se rena</w>
pra gue</w>
bron cos</w>
ange red</w>
wit t</w>
pione er</w>
mo tors</w>
fam ous</w>
per son</w>
k -
wire less</w>
organiz ers</w>
f p</w>
tow er</w>
abduc ted</w>
text ile</w>
stal led</w>
con sp
sl iga</w>
see kers</w>
disc ip
bunde sliga</w>
lau ds</w>
intro duces</w>
im prison
fail ing</w>
ban ker</w>
uz be
christ ians</w>
c ze
secon d-
off ering</w>
ser iously</w>
ar d
acquit ted</w>
st akes</w>
lu f
islam ists</w>
ro m
ra ge</w>
jo ining</w>
fac ilities</w>
artic le</w>
sn ip
or i
o to</w>
ele ph
e k</w>
ac tors</w>
it self</w>
chan ces</w>
spea k</w>
choo se</w>
blu es</w>
blo c</w>
success or</w>
set back</w>
inter view</w>
ver sion</w>
regul ation</w>
reco vers</w>
hom eland</w>
du l
accoun ts</w>
weak ens</w>
ke i</w>
ir on</w>
cu bs</w>
t il
wit z</w>
war planes</w>
scen e</w>
re moved</w>
brea st</w>
aff ect</w>
ex ile</w>
cla ss
ar ia</w>
th or
mut ual</w>
i que</w>
an ians</w>
## #.##</w>
l v
jol ts</w>
high s</w>
ce -
afric ans</w>
us a</w>
pur sue</w>
hor se</w>
th ie
hear ings</w>
electron ic</w>
vis ions</w>
up grade</w>
run off</w>
publish er</w>
ly n
ac ting</w>
wh it
hon da</w>
ti ves</w>
ph arm
i ers</w>
fi at</w>
cyc le</w>
arch bishop</w>
adelph ia</w>
sov ere
shor t-
loo m</w>
in fra
gu in
dur an</w>
spr ing
ran ks</w>
h is
sp ace
reduc tion</w>
g ing
dam aged</w>
wal la
m bek
mbek i</w>
id ent
democra t</w>
b acked</w>
mo bil
long- term</w>
in gh
form al</w>
ber t</w>
than sa</w>
luf thansa</w>
el er
us et
uset ts</w>
so y
shoo tings</w>
sach usetts</w>
ri t</w>
mas sachusetts</w>
investig ates</w>
cel ls</w>
to go</w>
ste in</w>
contin ental</w>
nor dic</w>
nik kei</w>
lear n</w>
exp en
ex clu
k le</w>
it age</w>
per man
no kia</w>
unh cr</w>
dro w
cardin al</w>
issu ed</w>
da i</w>
buil dings</w>
z en</w>
pop ul
line up</w>
acc eler
up per</w>
mour ning</w>
la y
threat ening</w>
ri ers</w>
mal aria</w>
slow down</w>
lo g
broad way</w>
ser ial</w>
pit ch</w>
form ing</w>
cur few</w>
un beaten</w>
ro up</w>
pl um
ig roup</w>
cit igroup</w>
ch op
and re
qualifi ers</w>
qu akes</w>
nis san</w>
ty son</w>
tr o</w>
reco vering</w>
quake -hit</w>
le h
show ing</w>
ra ys</w>
light ning</w>
ic ally</w>
a imed</w>
w ic
re ly</w>
k id
ing -
f ill</w>
dr illing</w>
con solid
bur ns</w>
w ang</w>
tel s</w>
oper ating</w>
mar se
e m</w>
pha se</w>
la sh</w>
k i
v id
sy m
med als</w>
ang ers</w>
un ification</w>
ton y</w>
pe so</w>
fac ility</w>
de sign
sa b
net works</w>
kazak h</w>
israel -
fe wer</w>
wor sen
wor d</w>
te ens</w>
don ations</w>
ve s
tow ns</w>
mer ge</w>
industri es</w>
he witt</w>
h p</w>
bor ders</w>
ol e
ish ing</w>
ou ts</w>
devel ops</w>
coll ection</w>
ten ed</w>
ex pul
pic ture</w>
curren cies</w>
ak i</w>
or ig
tain ted</w>
s ong</w>
exp els</w>
uncertain ty</w>
repor ters</w>
mo b</w>
mar gin
f ms</w>
deport ation</w>
af fair</w>
comple x</w>
com ment</w>
sil ence</w>
har ass
harass ment</w>
f low</w>
y- general</w>
tra des</w>
rom ney</w>
en ship</w>
answ ers</w>
inspec tion</w>
col on
co pper</w>
b all
subsi di
g les</w>
bry ant</w>
ven ue</w>
lithu anian</w>
d ir
abe th</w>
tan ks</w>
semi final</w>
play offs</w>
anc ing</w>
tw ice</w>
su harto</w>
marke ting</w>
h as
st ages</w>
n on
g l
f fl
. .</w>
. ..</w>
tw in</w>
marse ille</w>
im poses</w>
epi demic</w>
de va
che t</w>
valen cia</w>
ti me
open ed</w>
id er</w>
citiz enship</w>
sam sung</w>
rest ive</w>
pen n
brit ons</w>
accoun ting</w>
qu ick
north western</w>
di st
tele phone</w>
dh aka</w>
chec k
#- month</w>
writ ers</w>
me ans</w>
busine ssmen</w>
willi am</w>
s ac
in al</w>
g ang
dec ade</w>
bm w</w>
u ta
emer ges</w>
commun ists</w>
bir ds</w>
u x</w>
cir cu
est yle</w>
discrimin ation</w>
jud icial</w>
g ear</w>
cle m
sad r</w>
privat ization</w>
wat er
al u
th om
sp ear
re mo
citiz en</w>
ul ti
socie ty</w>
retur ned</w>
# th-
under goes</w>
t ment</w>
request s</w>
s ick</w>
leg end</w>
dr ill</w>
ch t</w>
lot tery</w>
in er</w>
hon duran</w>
yel low</w>
deplo y</w>
see ded</w>
s and
mon aco</w>
l ion</w>
inaugur ation</w>
guang zhou</w>
reven ge</w>
hand over</w>
bar red</w>
wid ow</w>
li ons</w>
gra bs</w>
gen e</w>
fer r
turn out</w>
ti f
slau ghter</w>
shi eld</w>
sa u</w>
re tali
li sts</w>
hy un
bis sau</w>
uzbe k</w>
tu al</w>
represen tative</w>
in st
w cup</w>
villa ges</w>
stu di
ol dest</w>
o ta</w>
ging rich</w>
uta h</w>
mo gad
mogad ish
mogadish u</w>
k sw
infra structure</w>
y es</w>
respon sible</w>
mold ova</w>
hyun dai</w>
du mping</w>
mu ll</w>
is ed</w>
far- right</w>
comput ers</w>
war -
w l</w>
pa k</w>
ov ic</w>
b ree
ifi ed</w>
rook ie</w>
i red</w>
columb ia</w>
ai g</w>
mun ici
min ute</w>
er ial</w>
vol ksw
stan ley</w>
en for
ar ch</w>
al ized</w>
after noon</w>
. #</w>
wa iting</w>
pp i</w>
ic on</w>
aver t</w>
phil adelphia</w>
p an</w>
formal ly</w>
cze chs</w>
clin ches</w>
a de
volksw agen</w>
tun e</w>
top -
presid ent-
libr ary</w>
if fs</w>
tri ple</w>
cat ch</w>
re b
p t</w>
ay an</w>
adv ice</w>
volat ile</w>
op tion</w>
ful l-
el iz
kh an</w>
president- elect</w>
me chan
h ab
dem ol
ti anj
tianj in</w>
sin king</w>
re count</w>
counter part</w>
attra ct</w>
z an
ra mos</w>
le -
w is
taji k</w>
sk a</w>
hol m</w>
hal f-
conn ec
bo ats</w>
assa d</w>
in ated</w>
deliv er</w>
amaz on</w>
s bc</w>
particip ate</w>
louis iana</w>
ish i</w>
h ag
dismiss ed</w>
der a
yi elds</w>
so und</w>
pro di</w>
ici ous</w>
fru str
ab sen
re build</w>
bol ster</w>
leg acy</w>
- col
z a
shel ling</w>
resu mption</w>
od ds</w>
la st-
be er</w>
restra int</w>
first- half</w>
law suits</w>
k ing
destro yed</w>
ti a</w>
secre ts</w>
liber al</w>
inspec tions</w>
go t</w>
fac tion</w>
bi as</w>
belie ved</w>
thro w</w>
ha ving</w>
gener ation</w>
ff s</w>
stron gh
f as
co t
wre ck</w>
on ey</w>
e ss
ar ctic</w>
ro ots</w>
regul ations</w>
sh ifts</w>
pro ve</w>
end angered</w>
ch ment</w>
t ch</w>
fin ishes</w>
or ities</w>
consu late</w>
colli de</w>
v illa</w>
pe ter</w>
maurit ania</w>
en em
demonstr ation</w>
asse ss</w>
tor nad
post al</w>
insu rer</w>
g est
car n
p a</w>
mis sour
eliz abeth</w>
ch air</w>
ar ist
ad ditional</w>
wo o</w>
st o
secretar y-general</w>
reta in</w>
mid fielder</w>
isla mist</w>
instit ute</w>
pre vention</w>
b bc</w>
expel led</w>
tit les</w>
olog ists</w>
il leg
b les</w>
web site</w>
perman ent</w>
h ire</w>
al italia</w>
li e</w>
em ir
de sig
at p</w>
st irs</w>
ri o
priv acy</w>
no thing</w>
maver icks</w>
alco hol</w>
alab ama</w>
sad c</w>
oper ator</w>
travel ers</w>
reco vered</w>
w ages</w>
solid arity</w>
scre en</w>
p ag
missour i</w>
le eds</w>
im pas
den ver</w>
pre li
bel fast</w>
war m
sol id</w>
sever e</w>
i z</w>
fo es</w>
tran spor
sh ak
scru tiny</w>
tu be</w>
stric ken</w>
south eastern</w>
diffic ult</w>
cle ar
in ning</w>
enter tain
campaig ns</w>
u gh
tic ut</w>
sub ishi</w>
mit subishi</w>
id ers</w>
connec ticut</w>
th a</w>
reshu ffle</w>
gol ds</w>
co te</w>
bul l
bo b</w>
spec i
sin k</w>
inter nal</w>
choo ses</w>
yu kos</w>
lock ed</w>
counc il
can nes</w>
ca sts</w>
se qu
heal thy</w>
har ve
sh er
o sa
under way</w>
sol ana</w>
sail ors</w>
pen gu
her itage</w>
experi ence</w>
celebr ation</w>
be coming</w>
y n
y ard</w>
u bs</w>
prof ile</w>
desig ner</w>
b ble</w>
neg ative</w>
immun ity</w>
dict ator</w>
con golese</w>
attrac ts</w>
sub marine</w>
quick ly</w>
pat ent</w>
en ix</w>
ab an
spec ies</w>
mom ent
ha z
c enters</w>
t- wing</w>
plat form</w>
cop y
su sta
si ster</w>
shr ine</w>
per ry</w>
ster o
saf rica</w>
par tial</w>
k or
intensi fies</w>
bran ch</w>
br and</w>
tru th</w>
soci alist</w>
s car
ne s
is landers</w>
war ri
un il
fav ors</w>
dec ades</w>
bo w</w>
tur ning</w>
le s
la z
hiv \/
tar iffs</w>
sa har
a f</w>
j a</w>
ste el
manufac tu
k entu
kentu cky</w>
fu sion</w>
cou ples</w>
air liner</w>
re me
margin ally</w>
c i</w>
ann a</w>
z he
ship ment</w>
re pair</w>
mo us
mah ath
mahath ir</w>
hiv\/ aids</w>
h ed</w>
so me
sec t</w>
remo te</w>
pa irs</w>
kill ers</w>
turk men
t ear</w>
pas s
lou is</w>
ho tels</w>
ma ster
ko m</w>
wind ows</w>
ou tra
h ing
dol ph
consp iracy</w>
austral ians</w>
l is
h ate</w>
g ger</w>
dar k</w>
zer o</w>
lif ted</w>
fe in</w>
super -
question ing</w>
po l</w>
import ance</w>
ig nor
bour g</w>
turkmen istan</w>
mar iners</w>
manag ers</w>
re building</w>
o ec
is ation</w>
sid er</w>
ro wing</w>
mig rant</w>
del iber
sy lv
prepar ations</w>
hawa ii</w>
del l</w>
de ported</w>
be ars</w>
associ ated</w>
sa ying</w>
run ner</w>
o au</w>
l pga</w>
den gue</w>
refe ree</w>
ku ala</w>
ex po
di ves</w>
traffic kers</w>
scho ol
preli min
oec d</w>
mp ur</w>
lu mpur</w>
in t
impas se</w>
denoun ce</w>
ch man</w>
tad ores</w>
schol ar</w>
retail ers</w>
pho enix</w>
liber tadores</w>
broad cast</w>
ag a</w>
sav ings</w>
re y</w>
offici ally</w>
moment um</w>
equ ity</w>
bid ding</w>
swit ch</w>
sh ake</w>
re action</w>
protest ors</w>
z i</w>
s wa
k now</w>
k ins</w>
in ner</w>
h agen</w>
f e</w>
v and
ro und
fa ster</w>
en rich
bur ma</w>
paul o</w>
at ely</w>
regulat or</w>
off ered</w>
mur ray</w>
ill er</w>
hol e</w>
ab c</w>
sp in</w>
h att
disco ver</w>
cro p</w>
s bank</w>
iv an
init ial</w>
de e
sin n</w>
fire works</w>
ch ips</w>
reg ions</w>
en tal
as sures</w>
anti- drug</w>
aban don
govern ors</w>
ga ys</w>
explor ation</w>
da y
tour ney</w>
si ans</w>
ic sson</w>
er icsson</w>
b ies</w>
ne v
i ors</w>
woo d
r att
first- quarter</w>
bi den</w>
b ic
acknowle dges</w>
sum mons</w>
fac e
dis man
con sec
al ism</w>
ad ded</w>
tea m
petro le
ar a</w>
ivo ire</w>
in i</w>
im pose</w>
ha sh
#- year-old</w>
vo ter</w>
stat ue</w>
pr o</w>
peter sburg</w>
ore gon</w>
medi ation</w>
hurric an
th ly</w>
smo o
promo tion</w>
if ic
hi jack
gu yan
eg o</w>
y land</w>
rea dies</w>
overn ight</w>
bu ff
ven port</w>
v it
si es</w>
li v
l ins</w>
ide a</w>
h id
gran ted</w>
da venport</w>
d ler</w>
c lon
p en</w>
n korean</w>
fe els</w>
ut ility</w>
lo t</w>
t ant</w>
pen ding</w>
oc k</w>
nami bia</w>
mad off</w>
g lance</w>
el ite</w>
chan ging</w>
ann e</w>
mo dest</w>
lin ers</w>
sur vive</w>
ma u
injur ing</w>
impro vement</w>
hing is</w>
gold man</w>
air strike</w>
milli on-dollar</w>
identi fy</w>
guid elines</w>
at a</w>
strong ly</w>
sta m</w>
s ist</w>
re la
petrole um</w>
m all</w>
er ror</w>
domin ates</w>
rev eal</w>
ea gles</w>
al arm</w>
tre e</w>
spar k</w>
ler chrysler</w>
daim lerchrysler</w>
p ino
min utes</w>
triump h</w>
me tho
ja x</w>
inv ited</w>
hen ry</w>
fe el</w>
custom ers</w>
att end
a jax</w>
suppor ting</w>
di a
c ad
aut onom
arch it
or ange</w>
compla ins</w>
acquis ition</w>
is on</w>
d ent</w>
alter native</w>
tru cks</w>
su r</w>
pro to
mor tar</w>
mic hel
gus on</w>
fil m
fer guson</w>
sh ir
prac tic
impea chment</w>
tal king</w>
pol y
pengu ins</w>
ou st</w>
k in</w>
evacu ate</w>
econom ics</w>
ear lier</w>
dr inking</w>
anti- corruption</w>
san ta</w>
qu est</w>
n el
ident ity</w>
har d-
rel ation
en e
clo ud</w>
y weight</w>
wild fires</w>
li sted</w>
clin ch</w>
si ber
sau dis</w>
down town</w>
cep t</w>
c ited</w>
anti- government</w>
alban ians</w>
vis as</w>
suspic ion</w>
sen .</w>
mac au</w>
ferr ari</w>
de -
smal ler</w>
shar ks</w>
ric hard</w>
exam ine</w>
e tary</w>
bas ra</w>
balk an</w>
ay a</w>
w i</w>
tac tics</w>
cho sen</w>
ber ry</w>
w iz
v il
sun s</w>
revis ed</w>
per io
war s</w>
re h
mb o</w>
kil o
c at</w>
tu mbles</w>
trans ition</w>
jur ors</w>
en a</w>
d' ivoire</w>
ne so
min neso
guatemal an</w>
gu ide</w>
duc ks</w>
co .</w>
tou ts</w>
sh oul
produc t</w>
pregn ant</w>
emir ates</w>
par don</w>
mer r
th em
g ift</w>
wild fire</w>
re ward</w>
re views</w>
me an</w>
e- mail</w>
indi vid
hu an</w>
be c</w>
o be
memor y</w>
ex iled</w>
ea s</w>
a shes</w>
surve ill
surveill ance</w>
pot ter</w>
p in
mo m</w>
expan ding</w>
buddh ist</w>
strongh old</w>
ron g
hus hen</w>
b lin
targe ted</w>
nas car</w>
dis placed</w>
attemp ts</w>
an tar
n an</w>
mur dering</w>
ec tor</w>
advertis ing</w>
rob in
re duces</w>
pa ying</w>
over turns</w>
laure ate</w>
he ed</w>
cross- border</w>
clu es</w>
box er</w>
pp ers</w>
inclu de</w>
he m</w>
mu d
minneso ta</w>
mar tial</w>
as set</w>
al bu
sylv ania</w>
pen hagen</w>
k k</w>
co penhagen</w>
amend ment</w>
ste aling</w>
spi rit</w>
ro ut</w>
per form</w>
merr ill</w>
i an-
friend ship</w>
tex t</w>
kore as</w>
ep a</w>
sp an
reven ues</w>
pus hing</w>
j r.</w>
ea ster</w>
so aring</w>
si ze</w>
sa ving</w>
chem icals</w>
ac ce
ti ps</w>
por tra
j sters</w>
cli jsters</w>
can al</w>
vol vo</w>
op h
hijack ed</w>
#. #-
t rea
snip er</w>
rac ist</w>
p age</w>
is si
zan zi
sol om
mar sh
jit ters</w>
bur ning</w>
arist ide</w>
particip ation</w>
op in
fro zen</w>
ar bit
am en</w>
re mov
inter ven
ho t
fe ds</w>
di stance</w>
determin ed</w>
termin al</w>
sw ing</w>
re- elected</w>
invol ving</w>
gor don</w>
fe ud</w>
#, ###-
w oul
transplan t</w>
re member</w>
in nov
cro at</w>
anim als</w>
invent ories</w>
docu ment</w>
cra shed</w>
con sor
blo cking</w>
z ny</w>
us ual</w>
stra in</w>
pas sport</w>
guaran tee</w>
glo be</w>
fl yers</w>
defen sive</w>
surren ders</w>
prelimin ary</w>
nation alist</w>
fre estyle</w>
roy als</w>
l ore</w>
mo ody</w>
mar ad
marad ona</w>
mao ist</w>
gonz ale
gonzale z</w>
am bit
stan ford</w>
py ong
pyong yang</w>
par aly
ham burg</w>
g lit
billi ons</w>
tou ch</w>
que bec</w>
or ial</w>
con si
con sen
pe tition</w>
cont acts</w>
mater ial</w>
jim ori</w>
fu jimori</w>
acqu ires</w>
remov al</w>
pro m</w>
ho use
bo tt
sam e-
pino chet</w>
m ir
sk ipp
f en
ever ton</w>
billi on-dollar</w>
&amp; t</w>
m ath</w>
lun ch</w>
lat vian</w>
bal tic</w>
unk n
prov inc
provinc ial</w>
phil lies</w>
hang s</w>
de st
bra ce</w>
w ta</w>
st ick</w>
sor ship</w>
sign ific
se mit
run way</w>
reduc ed</w>
pos ing</w>
anti- semit
- in</w>
perio d</w>
bra wl</w>
wild life</w>
v on
param ilit
paramilit ary</w>
camp us</w>
val u
penn sylvania</w>
miss issi
in nings</w>
s election</w>
ke ys</w>
de vice</w>
univers ities</w>
stal ls</w>
shut down</w>
motor ola</w>
mid d
gal ax
dri ves</w>
aut om
astro s</w>
imple ment</w>
ar ily</w>
sign al</w>
ol es</w>
mov ies</w>
gg ers</w>
face book</w>
uti ve</w>
sla shes</w>
pa st
comm its</w>
c attle</w>
spe ed
k it
jo in
enfor cement</w>
d ak
weight lifting</w>
s acks</w>
re pre
m or</w>
dr c</w>
announ cement</w>
wh ole
recogn ition</w>
pr int</w>
mississi ppi</w>
less ons</w>
fin ances</w>
expul sion</w>
du ties</w>
at &amp;t</w>
tren d</w>
pain ting</w>
ne o-
leh man</w>
e very</w>
sil ent</w>
investig ated</w>
inc ur
cur bs</w>
ban kers</w>
su l
st ay
ra y
min imum</w>
in door</w>
hit ting</w>
brad ley</w>
advoc ates</w>
emb ar
di ego</w>
comple ted</w>
a ol</w>
fu n</w>
troub les</w>
in y</w>
car bon</w>
ag an</w>
ad jour
a ch
war ship</w>
v iv
u pris
tor n</w>
smugg lers</w>
plo tting</w>
hur dles</w>
extre mist</w>
crit ic</w>
bul l</w>
ant as</w>
sh ine</w>
har mon
camp bell</w>
seiz ure</w>
scienti f
ra da</w>
col labor
##- hour</w>
re pri
qu es</w>
de pot</w>
consor ti
b reach</w>
u a</w>
tal s</w>
rock ies</w>
rece ption</w>
qualif y</w>
munici pal</w>
hal f
c p
thir d-quarter</w>
s lowing</w>
re stor
q antas</w>
pol io</w>
intere sts</w>
free zes</w>
dec ided</w>
com pound</w>
war lord</w>
w right</w>
s oren
narro ws</w>
cypri ots</w>
-col a</w>
pat rick</w>
over come</w>
e mo
bro ught</w>
stor ies</w>
ran king</w>
intere sted</w>
fu els</w>
c ent
fil ed</w>
cycl ist</w>
ill ed</w>
gro zny</w>
eff ects</w>
n t
mater ials</w>
hand ed</w>
two- year</w>
susp icious</w>
pal m</w>
olog ist</w>
de z</w>
part is
par ks</w>
oil- for-
let ico</w>
ir anians</w>
consec utive</w>
colom bo</w>
ch ev
br inging</w>
at letico</w>
# m</w>
sh ing</w>
se als</w>
ov ers</w>
op ol
man hatt
manhatt an</w>
l ing
indic tment</w>
ie l</w>
enrich ment</w>
em be
co l</w>
zanzi bar</w>
gymna stics</w>
guyan a</w>
est rada</w>
co s
su ed</w>
conce ssions</w>
bo oming</w>
ber th</w>
woul d-
would- be</w>
ro unds</w>
rat ifies</w>
n ice</w>
mar lins</w>
le f
brief ly</w>
bot sw
air strikes</w>
###- ##</w>
sp ur</w>
low n</w>
lat ed</w>
encoura ges</w>
al ed</w>
viol ating</w>
serv ants</w>
sahar a</w>
pur suit</w>
phy s
p kk</w>
consen sus</w>
coca -cola</w>
re es</w>
pri de</w>
de pu
ce me
ratt les</w>
oil-for- food</w>
j in
gov .</w>
e e
counter fe
consorti um</w>
me ters</w>
gro unds</w>
ga ining</w>
e igh
cot ton</w>
al ready</w>
ren ault</w>
ea ks</w>
d om
ten tative</w>
ran ean</w>
med iter
ear n</w>
car tel</w>
bon uses</w>
volunte ers</w>
ser ie</w>
s ky
depu ties</w>
cor re
buy out</w>
an war</w>
tele kom</w>
pur chas
m ent
gar den</w>
ffl es</w>
du ke</w>
bro ad</w>
bab ies</w>
upris ing</w>
targe ting</w>
seven th</w>
proto col</w>
pit cher</w>
lon g
gra f</w>
dro pping</w>
coa ches</w>
al one</w>
aband on</w>
scientif ic</w>
n ie</w>
entertain ment</w>
doc um
crimin als</w>
wil son</w>
unve iled</w>
tal e</w>
t down</w>
pris ons</w>
i k</w>
clin ic</w>
z ones</w>
sh ru
exp anded</w>
at om
sub po
slu mps</w>
put ting</w>
mediter ranean</w>
laz io</w>
intensi fy</w>
pe ar
nepal ese</w>
dl r</w>
chic ken</w>
bo b
bla ke</w>
yang t
south western</w>
m ation</w>
col um
billi onaire</w>
spe e
inter rog
bol ton</w>
block ed</w>
vo kes</w>
us c</w>
t ches</w>
pat aki</w>
environ mental
sigh ts</w>
unkn own</w>
sail or</w>
mon u
ea -
don ation</w>
au dit</w>
att acking</w>
sp at</w>
ma ke
inf ected</w>
f ts</w>
cre ation</w>
yangt ze</w>
don ate</w>
mongol ian</w>
insu l
galax y</w>
don e</w>
descri bes</w>
att ends</w>
wid er</w>
ten nes
ri y
lay offs</w>
insu rers</w>
canadi ans</w>
bloo dy</w>
tru e</w>
sel ves</w>
pakist an
kep t</w>
ish -
g ong</w>
al an</w>
home town</w>
guin ea-
guinea- bissau</w>
ex emp
don or</w>
tol er
ra m
ra dar</w>
in dy</w>
depar ture</w>
deliver y</w>
deal ers</w>
con tam
univers al</w>
harve st</w>
do ha</w>
sc ars</w>
re start</w>
pen alties</w>
ov an</w>
indi ana</w>
di ving</w>
tennes see</w>
sen ti
lock er
locker bie</w>
ex ec</w>
ra ges</w>
nec ess
mc car
gab on</w>
com pa
c run
argu ments</w>
mus ical</w>
mill en
f cc</w>
emer ge</w>
cul t</w>
commod ities</w>
co ps</w>
bus y</w>
administ rat
on er</w>
g one</w>
div id
copy right</w>
an der</w>
w ik
vic tor
vi e</w>
pre vi
er ation</w>
c ker</w>
v ille</w>
nomin ations</w>
mon etary</w>
ine -
in sider</w>
fund am
al lowing</w>
sex u
recogn ize</w>
po et</w>
high- level</w>
see ds</w>
gor ges</w>
floo d-
van cou
vancou ver</w>
under go</w>
s cu
let ters</w>
high- speed</w>
en lar
dem o</w>
av ail
vice- chairman</w>
soren stam</w>
mon ks</w>
mom ent</w>
emer ging</w>
def y</w>
w ho
w fp</w>
transpor tation</w>
power -
e ve
d ates</w>
ass ist</w>
alle ges</w>
sal t</w>
ri d
pl u
di e
b li
albu m</w>
whole sale</w>
w ed</w>
re called</w>
assi stant</w>
volu me</w>
in cen
gun fire</w>
b ac
attemp ted</w>
to ok</w>
g an
fund -
extrad ite</w>
bu yers</w>
bro w
relation ship</w>
publ ic
pro ves</w>
pe de</w>
mal i</w>
je wel
con tain
sp ac
mon d</w>
advis or</w>
ob st
l igh
hurrican es</w>
ham ilton</w>
cau tions</w>
ar th
us s</w>
ulti mat
regist ration</w>
practic es</w>
ben e
wh ale</w>
th ought</w>
stock holm</w>
st amp</w>
si er</w>
offen se</w>
gu est</w>
break away</w>
answ er</w>
sa ves</w>
pass age</w>
embe zz
bur ton</w>
balk ans</w>
ster ity</w>
dam as
au sterity</w>
an x
in ti
crun ch</w>
clar k</w>
ro man</w>
n in
j ian</w>
auto makers</w>
adv ant
#- day</w>
time table</w>
ramp age</w>
ine z</w>
di ve</w>
defe ated</w>
co p</w>
al on
. j.</w>
ves sel</w>
tur ks</w>
gaz prom</w>
botsw ana</w>
bit ter</w>
h sbc</w>
wh ich</w>
vo ted</w>
see ms</w>
pen insu
o a</w>
i ble</w>
damas cus</w>
an c</w>
under ground</w>
r ings</w>
je t
con tain</w>
cat ches</w>
bloo d
smo ke</w>
ry der</w>
reg ain</w>
promp t</w>
me ga
ital ians</w>
fi erce</w>
arti sts</w>
su red</w>
nu g
eston ian</w>
cre ws</w>
sh ir</w>
own ership</w>
op posed</w>
hand le</w>
flo ck</w>
expe l</w>
ab ol
une sco</w>
same- sex</w>
repea t</w>
just ices</w>
chur ches</w>
an cy</w>
ad ing</w>
th an-
tan a</w>
sur ge
ris on</w>
nation alists</w>
minist erial</w>
wre ck
ut t
sla sh</w>
pos sibility</w>
investig ator</w>
d v
tar ian</w>
repla cement</w>
i g</w>
h iring</w>
ar rival</w>
wol ves</w>
rej ected</w>
pakistan is</w>
ni um</w>
mart inez</w>
he ats</w>
fe eling</w>
don na</w>
surv ival</w>
publ ished</w>
o g
nic ole</w>
hur ts</w>
gener als</w>
fer red</w>
ea ds</w>
e vic
ro k</w>
opportun ity</w>
c af
sp ree</w>
riv al
ip e</w>
inter ference</w>
eff ici
e w</w>
dis miss</w>
deal er</w>
ca a</w>
far mer</w>
exp lore</w>
endor se</w>
diam on
de struction</w>
challeng er</w>
soci alists</w>
shi ites</w>
protest ing</w>
e co
than- expected</w>
sovere ign
sovereign ty</w>
nicaragu an</w>
n t</w>
ma ine</w>
ke en</w>
fer re
bron ze</w>
w en</w>
council or</w>
cigare tte</w>
y un
ter ing</w>
r c</w>
olymp i
millen nium</w>
alle n</w>
ten ham</w>
ra ma
i ro
develop ed</w>
ar rivals</w>
a st
ou sts</w>
nor mal
astronau t</w>
pea k</w>
emp ha
dis eases</w>
conflic ts</w>
air y</w>
v ill
sic huan</w>
pri ests</w>
o as</w>
lin ing</w>
elimin ate</w>
al ex
tal ent</w>
rober ts</w>
neighbor hood</w>
coa stal</w>
b y-
b ation</w>
wiz ards</w>
ultimat um</w>
tempor arily</w>
revis es</w>
repre ne
o ke</w>
me tro</w>
li ps</w>
inf ection</w>
ent reprene
dy nam
dit ors</w>
def use</w>
continu ing</w>
ballo ts</w>
th al</w>
relig ion</w>
palest ine</w>
m und</w>
id eas</w>
distrib ution</w>
car ries</w>
##- day</w>
tsun am
to t
d c</w>
be th
at ri
syn ago
state- owned</w>
st ream</w>
sa y
prov in
ut ing</w>
re unification</w>
fol lows</w>
serv ing</w>
s ley</w>
re loc
play ed</w>
hamp shire</w>
avail able</w>
sw ings</w>
pra yer</w>
ou ster</w>
lob by
fo ster</w>
ea ger</w>
b lows</w>
us- led</w>
tw ent
out going</w>
gu ez</w>
dru g-
comb ined</w>
ca using</w>
c n
be ans</w>
al p
peninsu la</w>
extrad ited</w>
bea ut
nel son</w>
host ile</w>
goal keeper</w>
enter ing</w>
den g</w>
liber ty</w>
deep ens</w>
cli ppers</w>
uti on
sear ches</w>
ori oles</w>
israeli- palestinian</w>
di oc
ve ments</w>
ra ft</w>
il e
ca used</w>
sear ching</w>
regist ers</w>
nev ada</w>
h ilton</w>
com s</w>
ban ning</w>
ba st
v ul
provin ces</w>
fla sh</w>
ab k
v ital</w>
sk i
shoul der</w>
schol ars</w>
h ud
cu bans</w>
regist er</w>
p anda</w>
k ie
fran k</w>
beaut y</w>
sh ines</w>
j ef
fe e</w>
ex ist
en ty</w>
stam pede</w>
san che
retail er</w>
reme m
e- up</w>
dir ty</w>
bus es</w>
bunde sbank</w>
athle te</w>
## ##s</w>
warri ors</w>
fle xi
a iding</w>
to d
medi ator</w>
green house</w>
de por
col e</w>
wa ves</w>
v i</w>
them selves</w>
le on
l ure</w>
demonstr ations</w>
deb ts</w>
crow ds</w>
bo urn
ar ding</w>
re al
rama dan</w>
qa eda</w>
cro ft</w>
boun ce</w>
vel y</w>
ing ly</w>
dr .</w>
. c.</w>
val ent
o es</w>
gl ory</w>
foo ds</w>
dis arm</w>
tric k</w>
tr y
ren ce</w>
occup ation</w>
no d</w>
lob by</w>
sk ip</w>
recor d-
ra iders</w>
power- sharing</w>
mb er
la bel
teen age</w>
stabb ed</w>
sa in
mu m</w>
a ###</w>
s men</w>
rob bers</w>
reas ons</w>
nt $</w>
n g</w>
bourn e</w>
swee t</w>
pro bation</w>
nomin ated</w>
hy dro
er ies</w>
abandon ed</w>
ut ers</w>
t atives</w>
represen tatives</w>
is se</w>
e x</w>
deal ing</w>
w rong
ra fa
nug gets</w>
hear d</w>
com pos
car los</w>
c is</w>
be headed</w>
aver age</w>
s mart</w>
o c</w>
moder n
mo o
gri p</w>
e bay</w>
doz en</w>
re z</w>
magn itude</w>
du mp</w>
att ers</w>
a ung</w>
suff ering</w>
mon opol
li sting</w>
f ab
di g</w>
clean up</w>
y .</w>
se- ###</w>
oun t</w>
nomin ates</w>
ft se-###</w>
ab i</w>
senti ment</w>
r he
faul ts</w>
c d</w>
abor ig
u el</w>
sw ift</w>
riy ad
riyad h</w>
join tly</w>
ist ics</w>
gh am</w>
dolph ins</w>
docum entary</w>
cau ca
bi ha
rema ining</w>
lyn ch</w>
licen ses</w>
invest s</w>
dismiss al</w>
cric ke
b ly</w>
ar di
- final</w>
p one</w>
euro -
dioc ese</w>
di ag
accor ds</w>
vi or</w>
ta xi</w>
pac ers</w>
le ment</w>
le hem</w>
expla in</w>
ex xon</w>
c kers</w>
beth lehem</w>
plo t
n. y.</w>
mer ck</w>
hur dle</w>
critic ises</w>
stun s</w>
sen sit
ro o
pl a</w>
ph el
or acle</w>
multi -
k on
candid acy</w>
a x</w>
w ire</w>
tunis ian</w>
ou i</w>
euro #</w>
che er</w>
shr inks</w>
rol ling</w>
mor ris</w>
mar it
comman ders</w>
atom ic</w>
ut u</w>
spons or</w>
por to</w>
pear l</w>
machin e</w>
li p
swee ping</w>
stabb ing</w>
s i</w>
ra f
p y</w>
p in</w>
ma x
j ack</w>
decis ions</w>
ad ams</w>
the me</w>
lea gues</w>
gath ering</w>
ar cha
adop tion</w>
treas on</w>
r in
phel ps</w>
n ile</w>
hu b</w>
bio tech</w>
an kle</w>
tre es</w>
tra der</w>
publ ishes</w>
individ ual</w>
bar gain</w>
univer si
skep tical</w>
post pone</w>
n caa</w>
liqu id
val ues</w>
symp ath
pist ons</w>
engine ers</w>
ter -
sh ops</w>
ma donna</w>
inj ure</w>
er son</w>
conserv ation</w>
s unken</w>
no- confidence</w>
cor e</w>
cn n</w>
cathol ics</w>
bro ok
tot tenham</w>
th o</w>
subsidi ary</w>
so tho</w>
lux em
le sotho</w>
k l
his panic</w>
five- year</w>
d ry</w>
ca val
nomine es</w>
inv itation</w>
bro ther
v u
rev ival</w>
pun ishment</w>
ic ate</w>
holid ays</w>
consu mption</w>
be n</w>
jo e</w>
de pression</w>
co ke</w>
ba yer</w>
sp ots</w>
sk ir
sec ures</w>
o scars</w>
enjo ys</w>
defend ant</w>
d ons</w>
cla imed</w>
u ds</w>
stu ck</w>
sco tt</w>
ro oney</w>
ro dri
re put
p ts</w>
luxem bourg</w>
k ina</w>
hy bri
cal if
wal ks</w>
v w</w>
us h
nat ure</w>
mer co
lin d
short ages</w>
p son</w>
over time</w>
cre di
air space</w>
addre sses</w>
universi ade</w>
sco pe</w>
s cul
iz on</w>
incur sion</w>
exec utes</w>
wik il
rou ts</w>
pun ish</w>
or ph
ma yor
bag s</w>
w bc</w>
vac ation</w>
tigh ter</w>
tele coms</w>
s reb
sreb ren
srebren ica</w>
gar cia</w>
foo t-
co ok</w>
an y
tr illion</w>
indic ates</w>
dev il</w>
c rush</w>
autonom y</w>
vig il
tran sm
prosp ect</w>
pre ssed</w>
op el</w>
mb ling</w>
as -
travel s</w>
su b</w>
s op
pati ence</w>
endor se
de pos
boo sting</w>
ba g</w>
att ackers</w>
vice- president</w>
un co
su d
stay ing</w>
spor ting</w>
ren ov
jo kovic</w>
in fil
e bol
d jokovic</w>
char ac
ad mit</w>
wikil eaks</w>
phil ip</w>
nar row</w>
li est</w>
i ar</w>
f an
come dy</w>
all- time</w>
w ear</w>
ten ing</w>
sen se</w>
pol ling</w>
li st
high light</w>
gir l
f is
eve rest</w>
eff ective</w>
salv age</w>
direc tors</w>
calif .</w>
bur ned</w>
wor se</w>
viol ation</w>
ste ve</w>
promo ting</w>
n on</w>
merco sur</w>
man eu
imprison ed</w>
gi b
ep is
contrac tor</w>
assa ul
th ings</w>
senten cing</w>
sec tarian</w>
popul arity</w>
p ig
nov el
bo y
scre ening</w>
over sight</w>
ik i</w>
go d</w>
smugg led</w>
saf in</w>
new ly</w>
mar yland</w>
insur gency</w>
floo ded</w>
bi athlon</w>
archa e
ste v
pro lif
nur ses</w>
bo t</w>
me tro
jour ney</w>
ander son</w>
yi eld</w>
ur ing</w>
sm ith
sa bot
rat ify</w>
par al
on ed</w>
fundam ental
fe st</w>
fam ed</w>
me tal</w>
illeg ally</w>
cre ating</w>
vie wing</w>
tur ner</w>
lis bon</w>
intro duc
inde xes</w>
in dig
g ur
fu ls</w>
disrup t</w>
sel es</w>
resp ond</w>
my ster
mon tre
ia af</w>
fin a</w>
end i</w>
b one</w>
arbit ration</w>
' re</w>
u sive</w>
organiz ations</w>
organ ized</w>
mid west</w>
e se-
cont ent</w>
coa ching</w>
a ires</w>
su l</w>
sl ight</w>
re serv
paral ymp
negoti ating</w>
ham mer</w>
gra ms</w>
com or
be ha
ambassad ors</w>
v inc
si um</w>
robin son</w>
rea ching</w>
p ack</w>
m r
li a
ju li
explo sive</w>
stat ements</w>
ro utes</w>
partis an</w>
ill ery</w>
ge ars</w>
emplo yers</w>
ecu ador
cy ber
conf isc
absen ce</w>
w au
law ed</w>
enjo y</w>
econom ies</w>
dera ils</w>
blo om
belie ves</w>
wat ching</w>
tre ated</w>
ster dam</w>
m .</w>
ly n</w>
k ick
hal ted</w>
am sterdam</w>
to es</w>
sab res</w>
ri an</w>
nor man</w>
ne ys</w>
marit ime</w>
hope fuls</w>
fla mes</w>
econom ist</w>
div ide</w>
requ ire
protest ant</w>
mo sul</w>
#r d-qtr</w>
ven ice</w>
tele communications</w>
rej ection</w>
monu ment</w>
girl friend</w>
enem y</w>
en ko</w>
carn ival</w>
night club</w>
i us</w>
first- round</w>
f arms</w>
aff ected</w>
a qu
rais er</w>
pro bing</w>
opportun ities</w>
ne tt</w>
in ho</w>
guaran tees</w>
t ty</w>
space walk</w>
res mo</w>
or ch
opin ion</w>
memor ies</w>
mau resmo</w>
hom er</w>
c ateg
ber man</w>
bar bar
sanche z</w>
rea u</w>
re moves</w>
out come</w>
me se</w>
fra c
e ye
a b</w>
z y
hun g</w>
gar t</w>
carto on</w>
be red</w>
a st</w>
y ans</w>
pas sing</w>
fle eing</w>
fa a</w>
engine er</w>
at ures</w>
analy st</w>
sing h</w>
rever se</w>
os se
im per
f unded</w>
bro ker</w>
tra iner</w>
semi -finals</w>
mur doc
g ifts</w>
full- year</w>
bur ial</w>
al loc
wh el
ti er</w>
naz is</w>
mo thers</w>
in an</w>
im a</w>
territ ories</w>
rodri guez</w>
pre tax</w>
k out</w>
bc- yugoslavia</w>
viv endi</w>
spi ke</w>
shoc ks</w>
l loy
hav en</w>
exec utions</w>
d up</w>
cor ps</w>
brook lyn</w>
sy mb
ra ms</w>
har bor</w>
du b
de sk</w>
br ands</w>
ash croft</w>
two- day</w>
ski ing</w>
rol l
oc a</w>
n ell</w>
establ ishes</w>
bon us</w>
ak ed</w>
san tos</w>
s elected</w>
righ t-wing</w>
g ged</w>
ebol a</w>
down plays</w>
div ers</w>
d in</w>
w ishes</w>
thom pson</w>
thie ves</w>
synago gue</w>
s na
n ag
murdoc h</w>
montre al</w>
knoc ks</w>
caval iers</w>
writ ing</w>
prot ecting</w>
outra ge</w>
ha inan</w>
e ating</w>
c lif
abk haz
war saw</w>
mob il</w>
long time</w>
ar kansas</w>
skipp er</w>
s mann</w>
prostit ution</w>
im minent</w>
hon or
g li
bi ans</w>
radi o
pro bab
ny se</w>
i b</w>
gri m</w>
el even</w>
biha c</w>
#n d-qtr</w>
see ing</w>
pro- democracy</w>
pan thers</w>
mal ta</w>
g at
disrup ts</w>
d il
bur mese</w>
avo ids</w>
six- party</w>
pre ven
pra yers</w>
k ad
fi del</w>
a iming</w>
tra cks</w>
ten der</w>
spec t
sloven ian</w>
secon d-quarter</w>
sa int</w>
russi a-
regu lar</w>
lock heed</w>
dre ams</w>
def ies</w>
ba sic</w>
advoc ate</w>
sym po
sympo sium</w>
rev ives</w>
patro ls</w>
p it</w>
mut iny</w>
monopol y</w>
ment ation</w>
eu r</w>
an men</w>
z em
utt gart</w>
tri ggers</w>
st uttgart</w>
lo ad</w>
ion age</w>
f ence</w>
esp ionage</w>
di visions</w>
su ing</w>
repatri ation</w>
of ten</w>
he dge</w>
c al</w>
plea sed</w>
m ec
im ported</w>
f air
con temp
chan g</w>
ang l
transp a
sn at
sensit ive</w>
resear cher</w>
om o</w>
lun ar</w>
l ying</w>
g cc</w>
fre d
f- ##</w>
d airy</w>
ceme tery</w>
cauca sus</w>
b ill
art illery</w>
a ero
wh ist
tar iff</w>
t illa</w>
ss ment</w>
sp it
revol ution
j ar
enlar gement</w>
eleph ant</w>
com p
ce ments</w>
bu ffe
alli ed</w>
to y</w>
sp reading</w>
har sh</w>
belie ve</w>
st ated</w>
so unds</w>
euro ###</w>
e ven
commemor ate</w>
brief s</w>
ba hamas</w>
au gh
sum o</w>
sel y</w>
sa ved</w>
reh abil
rab bi</w>
lie berman</w>
lear ning</w>
im er</w>
film maker</w>
ul ster</w>
nin th</w>
divid end</w>
con s</w>
compla in</w>
cham ps</w>
ch ens</w>
bur kina</w>
tt es</w>
li fe
ji ang
imple mentation</w>
deman ding</w>
y ings</w>
tornad o</w>
sp ends</w>
sla yings</w>
receiv ed</w>
pi ece</w>
novel ist</w>
g all
blin d</w>
tem per
na ja
naja f</w>
er n
ea sier</w>
colle ges</w>
bre men</w>
sp l
ow en</w>
one- year</w>
mig ration</w>
cro ps</w>
af fir
acce ssion</w>
wis con
wiscon sin</w>
the -
te ars</w>
stea l</w>
s al</w>
pon ders</w>
ig ned</w>
er ad
embas sies</w>
bi ke</w>
t one</w>
retali ation</w>
k har
inaugur ated</w>
i a-
accep table</w>
a vian</w>
tra dition</w>
t z</w>
shar if</w>
re trial</w>
mer cur
gree t</w>
dia bet
bre wers</w>
be ef
you tube</w>
wi desp
widesp read</w>
t y-
spear s</w>
son ics</w>
se mic
pir ate</w>
heav yweight</w>
gra ves</w>
f lam
a ven
vi a-
re sur
k m</w>
inter pol</w>
intel lec
go -
dis sol
c ry</w>
aus ch
wr ite</w>
sev illa</w>
rescu es</w>
p ru
nur se</w>
la dies</w>
jo se</w>
ev asion</w>
mp ed</w>
fi xed</w>
deplo yed</w>
z ers</w>
wreck age</w>
th in</w>
regre t</w>
mo gu
g- ##</w>
estim ate</w>
deplo res</w>
a se</w>
heal th
fal lout</w>
de ports</w>
## kg</w>
ton nes</w>
thro wn</w>
q b</w>
pas sion</w>
mi ke</w>
mar ked</w>
fren chman</w>
tu red</w>
mit ted</w>
conce des</w>
chen ko</w>
ausch witz</w>
sen sex</w>
mayor al</w>
gad hafi</w>
de gre
bo dy
blu e
assa ils</w>
yugosla via-
u.s.- led</w>
t b</w>
mega wat
hor ror</w>
e e</w>
yan ks</w>
sa oui</w>
pit ches</w>
mous saoui</w>
je op
for ge</w>
dre am
de parts</w>
coun ting</w>
bur gh</w>
to ys</w>
the ory</w>
span i
semic on
semicon duc
one- da
h yp
ev ol
ga ve</w>
batt ling</w>
trans -
pi erce</w>
m age</w>
li u</w>
jo y</w>
gre at
die sel</w>
b au
wal ker</w>
sur in
sugg est
soy beans</w>
q ing</w>
hero es</w>
cor p</w>
###- ###</w>
tion ed</w>
sp ent</w>
shar k</w>
ic rc</w>
y ne</w>
um i</w>
tg om
repe ats</w>
re consider</w>
mon thly</w>
mon tgom
hid den</w>
h k
vel and</w>
t mund</w>
sw im</w>
su g
re agan</w>
r d</w>
oppon ent</w>
o .j.</w>
mur derer</w>
mer ce
jama ican</w>
il and</w>
du res</w>
dor tmund</w>
dis gra
dec ries</w>
tsunam i-
necess ary</w>
mi x</w>
inaugur ates</w>
hij ack</w>
commun ication</w>
war time</w>
tom b</w>
sal ary</w>
megawat i</w>
fac tor</w>
eigh th</w>
cath ay</w>
bec ker</w>
tin a</w>
subur b</w>
ship ments</w>
past or</w>
n abb
mist ake</w>
mil d</w>
in augu
inaugu ral</w>
down turn</w>
car riers</w>
br une
beha vior</w>
abduc tion</w>
z ur
signific ant</w>
resid ence</w>
reas on</w>
p es</w>
famil iar</w>
bol lywood</w>
zu ma</w>
shel ter</w>
ro ugh</w>
predic t</w>
pad res</w>
mist akes</w>
ha r</w>
g it
foot- and-
cor s
cle veland</w>
ya f</w>
squ ee
say yaf</w>
narro w
honor ary</w>
t ful</w>
sp ur
s lower</w>
ra mal
qualifi ed</w>
o i</w>
hun ter</w>
as co</w>
aband ons</w>
t in</w>
qu ota</w>
k is
disa sters</w>
audi ence</w>
acqu its</w>
ti an
st icks</w>
rest ored</w>
par is
heav ily</w>
cler ics</w>
ch ell</w>
at ra</w>
wo unding</w>
qualif ies</w>
land slides</w>
foot-and- mouth</w>
f oil</w>
atlan tis</w>
succe ed</w>
rev iv
rel ics</w>
i .</w>
e b
b lat
un -
ta ining</w>
sa ints</w>
par dons</w>
lu la</w>
awar e</w>
an ton
u pro
u ms</w>
le m</w>
ky oto</w>
ik sson</w>
h iding</w>
fac tories</w>
er iksson</w>
develop ments</w>
br ink</w>
at ic</w>
spac ec
spacec raft</w>
son -
refl ects</w>
ps v</w>
mo ore</w>
kilo grams</w>
kh at
khat ami</w>
dh abi</w>
den ted</w>
trans fers</w>
three- year</w>
sub sid
sch al
narrow ly</w>
k ath
fi zer</w>
equ al</w>
academ ic</w>
wa its</w>
th u
de dic
boo k
swim mer</w>
psy chi
gra b</w>
ch an</w>
ace ut
te t</w>
super- g</w>
stop ped</w>
pre ss
mer chan
ie ty</w>
h q</w>
ar ran
advis ers</w>
success fully</w>
sol o</w>
sid el
prepar ation</w>
pen g</w>
hybri d</w>
for tune</w>
emp ire</w>
dro wn</w>
consi dered</w>
co pe</w>
bat tered</w>
sub mits</w>
scul p
re p
ni kov</w>
min gham</w>
lor ds</w>
inclu des</w>
hij ackers</w>
g ru
bir mingham</w>
b- shares</w>
su ez</w>
mit chell</w>
mercur y</w>
ju ven
ja ys</w>
inv ite</w>
em ir</w>
desp er
coun try
clo uds</w>
bloom berg</w>
ya cht</w>
tiv ity</w>
t ome</w>
st ones</w>
p fizer</w>
brune i</w>
sk ins</w>
sk ies</w>
ro ster</w>
mal dives</w>
contrib ute</w>
che chens</w>
ur i
mo del
iz er</w>
free -
dis pat
cru ises</w>
control lers</w>
cauti ously</w>
bu reau</w>
at op</w>
ta ste</w>
solom on</w>
pro bed</w>
pla stic</w>
moun tains</w>
le ver
ine ss</w>
inc id
fa o</w>
du o</w>
ca sp
broadca sting</w>
sma sh</w>
pharm aceut
inter cep
gene tic</w>
fru it</w>
es n</w>
do esn</w>
d .</w>
ant icip
advant age</w>
ad ul
ad ed</w>
#th- qtr</w>
sug gest</w>
sho e</w>
res ist</w>
patri ot</w>
nabb ed</w>
hor n</w>
dec ree</w>
bar cla
w b</w>
un clear</w>
tun is</w>
th ough</w>
sur prises</w>
s se</w>
resol ved</w>
rav aged</w>
promis ing</w>
pres sures</w>
conven e</w>
am an</w>
snu b</w>
sidel ined</w>
over whel
inf ant</w>
st ig
qu ie
fu jian</w>
environmental ists</w>
bet ting</w>
ser ves</w>
ramal lah</w>
rafa h</w>
of a</w>
incid ents</w>
fal un</w>
b ackers</w>
tur bul
tre ats</w>
por sche</w>
kin son</w>
ec tors</w>
ut r
motor cycle</w>
l .</w>
im ages</w>
g and
exper im
diag no
b oca</w>
w y
ti vo</w>
sp ies</w>
pre serve</w>
patri arch</w>
har m</w>
fra g
un less</w>
tou m</w>
tian anmen</w>
stero id</w>
l us</w>
inc in
gi e</w>
conclu de</w>
a str
tra c
si de
phil lips</w>
op er</w>
fo g</w>
depos its</w>
co yo
beg inning</w>
ar c</w>
un prece
unprece dented</w>
re fut
org an</w>
min orities</w>
m l
j on
gh ali</w>
din ner</w>
chri s</w>
stal em
pan demic</w>
p ill</w>
mor ales</w>
insp ect</w>
four- year</w>
ex tin
e man</w>
com plic
# b</w>
ter nal</w>
pe z</w>
na iro
nairo bi</w>
k ic
fas o</w>
ex tor
wea ken
sur ging</w>
spor ts
smoo th</w>
nov el</w>
khar toum</w>
in cu
gand hi</w>
d oms</w>
vo d
v is</w>
com pl
brother hood</w>
writ es</w>
turk men</w>
th ese</w>
ra ble</w>
hit ler</w>
fel low</w>
exec s</w>
treas ur
si mon</w>
recru iting</w>
pra y</w>
pla gue</w>
lo oming</w>
kad hafi</w>
inter- korean</w>
embezz lement</w>
discip line</w>
black out</w>
an ch
tr e</w>
ti ous</w>
t ance</w>
ste pping</w>
pul led</w>
plum met</w>
nan dez</w>
mo de
fe ed</w>
bu ts</w>
ad dic
## st</w>
yugoslavia- kosovo</w>
who se</w>
tra cking</w>
dub lin</w>
cre te</w>
buil dup</w>
tru ckers</w>
pos si
mar ies</w>
hol ders</w>
cont ing
ab using</w>
volu mes</w>
t ney</w>
quar tet</w>
k am
k af
h au
econom ists</w>
deep er</w>
sharehol der</w>
revolution ary</w>
pilgri mage</w>
lon gest</w>
liter ature</w>
li bel</w>
ko be</w>
endorse ment</w>
diver sity</w>
al ways</w>
lo pez</w>
gh o
gen der</w>
ex t</w>
dis per
de buts</w>
d run
blat ter</w>
under -##</w>
stabil ize</w>
ro ss
ren o</w>
re pairs</w>
pic ked</w>
mul tin
mal iki</w>
four th-
fer til
fav ored</w>
dam e</w>
celebr ity</w>
by e</w>
an a
st ir</w>
sol e</w>
slow ly</w>
si sters</w>
scor ing</w>
k ar</w>
f .</w>
disco vers</w>
de fin
we red</w>
mon ia</w>
establ ished</w>
con struc
arth ur</w>
o ic</w>
mao ists</w>
l an</w>
ko iz
koiz umi</w>
inde fin
feat ure</w>
fa res</w>
develop er</w>
ann ie</w>
w eng
t us
ot as</w>
do s</w>
aut op
yan air</w>
wh ite
stri kers</w>
s ack</w>
r yanair</w>
el -
diabet es</w>
clo ck</w>
barcla ys</w>
t into</w>
scra mble</w>
proce ssing</w>
nab lus</w>
journ al</w>
infil tr
id ol</w>
fail ures</w>
chop per</w>
adv anced</w>
super vis
st all</w>
s col
off -
gra ham</w>
good will</w>
f at</w>
ec tion
dra matic</w>
ti ally</w>
str ing</w>
stalem ate</w>
re ness</w>
pas sports</w>
ha y
gir o</w>
disman t
d anc
black burn</w>
awa reness</w>
abkhaz ia</w>
z hang</w>
vul ner
teenag ers</w>
semiconduc tor</w>
riv ing</w>
quarter -finals</w>
previ ous</w>
predic ted</w>
pe ssi
pe dop
pedop h
ol der</w>
militi as</w>
j an</w>
ha un
flo or</w>
f id
en cla
sat el
radi ation</w>
qu otas</w>
pro of</w>
mira cle</w>
milli onaire</w>
ma x</w>
lar ger</w>
kar a</w>
explo de</w>
c ine
bo ws</w>
### s</w>
zur ich</w>
shad ows</w>
n els</w>
kin d</w>
instit utions</w>
b ats</w>
up grades</w>
un ita</w>
tri o</w>
remem bered</w>
m ls</w>
lar a</w>
ge -
cla iming</w>
ak os</w>
tw el
susta in
recru its</w>
pac ts</w>
n ine-
mil e</w>
mar cos</w>
ma id</w>
l u</w>
hu gh
casp ian</w>
wrest ling</w>
sw is
surge on</w>
ri des</w>
restric t</w>
re gains</w>
le sson</w>
la bel</w>
er ie</w>
emo tional</w>
defend ants</w>
bri bes</w>
a rena</w>
tri ps</w>
t ona</w>
st y
ran kings</w>
psy ch
op ium</w>
observ er</w>
mor al</w>
hor nets</w>
contrac tors</w>
satel lit
rec ip
or d</w>
lob b
lobb ying</w>
lin king</w>
li ers</w>
incen tives</w>
i or
gun ned</w>
fal cons</w>
d ling</w>
aw a</w>
ste ph
stam ps</w>
shru gs</w>
ref using</w>
n d</w>
k new</w>
ha ir</w>
ful ham</w>
exce ed</w>
en dea
endea v
cro ats</w>
cla ren</w>
bou tro
b in
t amp
mic kel
mickel son</w>
indone sians</w>
indig en
hom ers</w>
farm ing</w>
du ma</w>
co ck
cham ber</w>
b eng
u. s</w>
stre tch</w>
kn ight</w>
gang s</w>
fla res</w>
favor ites</w>
emp ty</w>
drun k</w>
weak ness</w>
us al</w>
thr iller</w>
sett led</w>
sec e
s elects</w>
qu ell</w>
publish ing</w>
pro duces</w>
out i</w>
mat ter</w>
la gos</w>
f old</w>
drow ned</w>
def am
che ers</w>
asse ssment</w>
sec tion</w>
ri ps</w>
filip inos</w>
f lown</w>
cost ly</w>
condem ned</w>
cigare ttes</w>
bar ro
at ers</w>
tri be</w>
three- day</w>
ric hard
richard son</w>
re members</w>
ia h</w>
fo iled</w>
far c</w>
eng ag
clo sures</w>
bur st</w>
archit ect</w>
affir mat
a er
toler ance</w>
st el
sa il</w>
ri der</w>
regist ered</w>
produc tivity</w>
of -
ic its</w>
dra wing</w>
con fusion</w>
circu it</w>
cer tif
c ite</w>
ble -
batt le
attor neys</w>
a sts</w>
w an</w>
scand als</w>
satellit es</w>
mex icans</w>
le st</w>
k abil
kabil a</w>
hugh es</w>
he ating</w>
euro ##</w>
yun nan</w>
super market</w>
sh eds</w>
pack ard</w>
kaf el
kafel nikov</w>
hen in</w>
fla gs</w>
fa ith
engine ering</w>
eco was</w>
earth quakes</w>
advis es</w>
w ba</w>
th inking</w>
stud ying</w>
sp a
lea ks</w>
deep en</w>
compos er</w>
bo sses</w>
bla zers</w>
aff ects</w>
sub prime</w>
peacekee per</w>
pe ps
hij acking</w>
expor ters</w>
bel t</w>
unil ateral</w>
to shi
toshi ba</w>
thro ugh
sail ing</w>
pow der</w>
pip e</w>
on ist</w>
l inger</w>
j ing</w>
it ure</w>
india- pakistan</w>
han oi</w>
f oul</w>
ea s
bro ke</w>
x ia</w>
sk ier</w>
rebu ffs</w>
pac kers</w>
m ming</w>
din osa
chron ic
back lash</w>
b lit
## ##-
sub st
studi o</w>
stea m</w>
spring bo
spec tor</w>
sh and
saf rican</w>
ob serve</w>
mess ages</w>
last- minute</w>
kid ney</w>
k ens</w>
gar ment</w>
for bes</w>
ene ss</w>
de ms</w>
as ser
purchas es</w>
pun ished</w>
pan -
ol iv
ignor e</w>
e us</w>
dul lah</w>
anti- doping</w>
win dow</w>
transm its</w>
t z
ra ul</w>
paren t</w>
nar co
kl m</w>
dr unken</w>
coyo tes</w>
buffe tt</w>
br un
americ as</w>
ro oms</w>
pol es</w>
osse tia</w>
na b</w>
ic ides</w>
flo tilla</w>
exten ding</w>
am ount</w>
- tech</w>
zem in</w>
j ockey</w>
comor os</w>
cer tain</w>
bo l</w>
thir d-
supp lier</w>
stor age</w>
sam oa</w>
pre scri
per mission</w>
p ile</w>
mar io</w>
indigen ous</w>
fre ight</w>
affirmat ive</w>
tamp a</w>
no by
noby l</w>
me an
hol dings</w>
cher nobyl</w>
sh ev
receiv ing</w>
pu p
n eal</w>
inspec tor</w>
he im</w>
dep t.</w>
clon ing</w>
b righ
weng er</w>
su isse</w>
o ka
medi ators</w>
dou gla
dea ux</w>
bor deaux</w>
blood shed</w>
be i</w>
- based</w>
un earth
sett ler</w>
salv ador
ro y</w>
ro bust</w>
profe ssional</w>
influ en
gre w</w>
ell i</w>
categ ory</w>
alon so</w>
ab dullah</w>
sp ell</w>
sel l-
mil est
le v
host ing</w>
clo sely</w>
broadca ster</w>
at roc
work shop</w>
subsid y</w>
shand ong</w>
renew al</w>
model s</w>
marri ed</w>
desper ate</w>
dan iel</w>
air plane</w>
za ire
pro ph
orch est
jer ry</w>
hol der</w>
gi o</w>
confron t</w>
cho ices</w>
ar io</w>
worsen s</w>
tro un
sp el
sor ry</w>
rev amp</w>
refu ge</w>
reas sure</w>
re transmits</w>
o sl
nat i</w>
lu cent</w>
ho ax</w>
histor ian</w>
h at</w>
fe et</w>
conven es</w>
azerbaij ani</w>
ar i
w ent</w>
ra t</w>
min g
min ds</w>
la ck
k ho
fat ally</w>
d ying</w>
che v</w>
ac les</w>
vic es</w>
tri -
to ol</w>
tea ching</w>
olympi akos</w>
multi ple</w>
im por
hij acker</w>
emb race</w>
deplo ys</w>
de port</w>
cam e</w>
al cat
neo- nazi</w>
manufactu rers</w>
hag ue</w>
daim ler</w>
confir mation</w>
cat astro
catastro ph
bot tom</w>
w le
shoo ter</w>
mul ling</w>
m d</w>
lin ed</w>
he wle
escal ates</w>
b out</w>
vir tual</w>
ti an</w>
or bit</w>
inte gr
gram my</w>
dis count</w>
cre ator</w>
counterfe it</w>
commod ity</w>
after math</w>
spl its</w>
oun ce</w>
osl o</w>
me tals</w>
li mit
climb ers</w>
chev ron</w>
####- ####</w>
ve ge
por k</w>
one-da yer</w>
off set</w>
hard line</w>
foot ball
ath in
world com</w>
twel ve</w>
prolif eration</w>
indic ts</w>
gra ded</w>
g over
eas ily</w>
d ji
corrup t</w>
c ats</w>
atroc ities</w>
am at
tal ity</w>
ri dge</w>
radio active</w>
moo d</w>
kur d</w>
interven e</w>
h ad
ev ed</w>
ev angel
dougla s</w>
di stric
dak ar</w>
check point</w>
arti f
vis itor</w>
tho use</w>
slu gg
shel ls</w>
sabot age</w>
s- ghali</w>
restaur ants</w>
repri eve</w>
recru it</w>
petro l</w>
mil es</w>
j agu
engag ement</w>
camer as</w>
but ter
boutro s-ghali</w>
bo xes</w>
ant ine</w>
al gi
ad ri
rival ry</w>
requ ire</w>
r ho
per mit</w>
mol est
har t
down grades</w>
cel l
c on</w>
#st- quarter</w>
z agre
wh ales</w>
ru bin</w>
mour inho</w>
man slaughter</w>
m la
im plic
gun battle</w>
for get</w>
f ades</w>
exce eds</w>
dra g</w>
athin ai
athinai kos</w>
alu min
alp ine</w>
sla ve</w>
schal ke</w>
prot ection
myster ious</w>
mis conduct</w>
la kes</w>
ici ary</w>
fran ch
cro sses</w>
bor rowing</w>
bc- na
antar ctic</w>
## #.
y u</w>
qat ari</w>
on ic</w>
olog ies</w>
m mer</w>
gree ts</w>
fal len</w>
belar u
aussi es</w>
am mun
ton ga</w>
sam ar
pen n</w>
os i</w>
o ak
ku k</w>
kir kuk</w>
clem ens</w>
z o</w>
t an</w>
subpo en
sub mit</w>
studi os</w>
sher iff</w>
recru it
pl ate</w>
christ ie</w>
carto ons</w>
super vision</w>
ro les</w>
o tic</w>
le thal</w>
hear ts</w>
fo e</w>
bur un
bi a-
ben ch
barro so</w>
vo ke</w>
pan athinaikos</w>
ill u
g yp
dit ch</w>
cz ar</w>
confron tation</w>
algi ers</w>
## ##-##</w>
ref used</w>
ordin ary</w>
obst acles</w>
mp er</w>
m tv</w>
k us
gol an</w>
co ol
chan an</w>
c incin
bu chanan</w>
an ski</w>
war ne</w>
tru mp</w>
t ent</w>
sustain able</w>
s berg</w>
quarter final</w>
mon arch
hud son</w>
ag e-
zagre b</w>
ve toes</w>
valent ine</w>
sub j
st a</w>
slugg ish</w>
shake -up</w>
s kills</w>
fred die</w>
f ault</w>
egypti ans</w>
de vices</w>
unearth ed</w>
un expected</w>
travel ing</w>
ro t
po a
pen sions</w>
insp ects</w>
extre mism</w>
en os</w>
e k
d ancing</w>
cam era</w>
c ure</w>
ben in</w>
al o</w>
y n</w>
urugu ayan</w>
reduc ing</w>
ken yans</w>
j ac
fore sts</w>
e es</w>
bal ti
b hp</w>
pol anski</w>
cor p
bra s</w>
assass inated</w>
and ans</w>
worsen ing</w>
war rants</w>
volunte er</w>
und p</w>
phil ips</w>
mla dic</w>
l ung</w>
fol lowers</w>
di et</w>
cincin nati</w>
anton io</w>
sal aries</w>
reas sures</w>
quarter back</w>
n gos</w>
invent ory</w>
dv d</w>
dr congo</w>
da e
cen ten
auc tioned</w>
tw a</w>
thor pe</w>
techn ologies</w>
ta bles</w>
riv ers</w>
par ole</w>
mit tal</w>
mechan ism</w>
h n</w>
erup t</w>
ammun ition</w>
ver izon</w>
u ts</w>
surin ame</w>
recogn izes</w>
ra d</w>
pain tings</w>
obj ects</w>
in- law</w>
counter -
aero space</w>
un usual</w>
ris ky</w>
ferre ro</w>
contain er</w>
co hen</w>
zhe jiang</w>
serv ed</w>
pro vis
p neu
militi amen</w>
fre igh
encoura ge</w>
depor tivo</w>
ban ana</w>
at tered</w>
###. ##-##</w>
s ick
ro ver</w>
resp ects</w>
ref usal</w>
ran ch</w>
poly gam
oper ators</w>
mec ca</w>
hor ses</w>
gla ss</w>
gam ble</w>
f ade</w>
el ig
bro oke</w>
an thro
z h
oka ys</w>
mel bourne</w>
man ned</w>
jud iciary</w>
err ors</w>
up on</w>
ru ler</w>
rio ting</w>
ps g</w>
pro pag
on- line</w>
me mo
mar e</w>
la id</w>
il o</w>
hand ball</w>
fol k</w>
fla me</w>
expo s</w>
diffic ul
deter mine</w>
cir cle</w>
ch u</w>
al tar</w>
ab n</w>
t ire</w>
stra its</w>
lo cal
gro unded</w>
f annie</w>
dr ink</w>
be st
arm ored</w>
walla bies</w>
un fair</w>
tur in</w>
tun g</w>
stra w</w>
st ern</w>
shop pers</w>
offen ders</w>
m iri</w>
gu y</w>
fran c</w>
f o</w>
camer on</w>
autop sy</w>
as -gen</w>
aggre ssive</w>
ve igh</w>
ur ging</w>
t ts</w>
saf ely</w>
re p.</w>
ju mping</w>
jo ined</w>
increas ingly</w>
f lower</w>
we al
un able</w>
siber ian</w>
re union</w>
od us</w>
m ia</w>
m end</w>
l back</w>
ex odus</w>
es sen
du el</w>
deter ior
sk in</w>
re luc
pre ssing</w>
pre c
mo ham
li ku
liku d</w>
lea se</w>
la cks</w>
incu mb
ho ol
fourth- quarter</w>
dji b
djib outi</w>
der ail
deb ris</w>
bene dict</w>
tribun e</w>
trans ferred</w>
spee dy</w>
sp in
ro gers</w>
regu lar
ra h</w>
man age</w>
kn ows</w>
fron t-
doub tful</w>
col leagues</w>
campaig ning</w>
un decided</w>
un acceptable</w>
ser bia-
s oil</w>
proph et</w>
pe ts</w>
lo ver</w>
lin col
lincol n</w>
hom o
epis co
cri p
blit z</w>
b j
anti-semit ism</w>
un ion
proce ed</w>
mc veigh</w>
kash miri</w>
high ly</w>
g loom</w>
flam en
buil der</w>
ambit ious</w>
ag s</w>
- the-
st aff
k la
hung ry</w>
f on
coll ect</w>
car lo</w>
bar riers</w>
ya o</w>
restor ation</w>
pel osi</w>
mold ovan</w>
may ors</w>
liter ary</w>
kie v</w>
fin ale</w>
eleph ants</w>
dr ills</w>
ch u
angl ican</w>
war ships</w>
victor ia</w>
tt en</w>
sh if
sal mon</w>
par ma</w>
neighbor ing</w>
kan da
kanda har</w>
he igh
every thing</w>
auc tions</w>
ts burgh</w>
t ang
refut es</w>
pit tsburgh</w>
per mits</w>
organ ize</w>
h .</w>
er re</w>
dire ction</w>
than k
sh ef
obj ections</w>
land mine</w>
el usive</w>
do om
con cor
balti more</w>
ator ium</w>
am ro</w>
ru ins</w>
ra ib</w>
prov oc
pos session</w>
obe sity</w>
mat ch-
i to</w>
h ills</w>
gh raib</w>
el ity</w>
el ian</w>
dre ss</w>
disgra ced</w>
diff er</w>
crow ded</w>
bus ch</w>
bu enos</w>
bomb ed</w>
ar ian</w>
teen -
sa chs</w>
sa arc</w>
rever ses</w>
pol ar</w>
pi g</w>
min er</w>
interrog ation</w>
h s</w>
fit ness</w>
ca v
ber mu
belaru sian</w>
bal anced</w>
att acker</w>
. com</w>
wel sh</w>
tim ore
timore se</w>
sell- off</w>
revis e</w>
nur sing</w>
niger ians</w>
ne ill</w>
mr s.</w>
master mind</w>
l ington</w>
d al</w>
alleg ation</w>
vic tories</w>
sub scri
steel ers</w>
ru ble</w>
ran k</w>
pan ts</w>
mon tana</w>
jiang su</w>
igh ty</w>
fund- raising</w>
disper se</w>
dem enti
b al</w>
rebel lion</w>
inf o</w>
ha as</w>
gradu ates</w>
expec ting</w>
dr o</w>
cre ditors</w>
bu yer</w>
ar ra
an kara</w>
treas ure</w>
th wart</w>
ta g</w>
state- run</w>
p oc
co a</w>
al izes</w>
tha is</w>
rus h
regul ate</w>
pneu monia</w>
mar tha</w>
la mb
l g</w>
ha i</w>
co o
che f</w>
ta s
secre cy</w>
me mo</w>
mag ist
hen man</w>
gonz ales</w>
dist ur
de posed</w>
conduc tor</w>
boun ces</w>
ber ger</w>
bankrup t</w>
ta ic
taic hung</w>
speed skating</w>
par mal
parmal at</w>
p our</w>
ne bra
nebra ska</w>
la ments</w>
hash ish</w>
fel t</w>
f ication</w>
ev ic</w>
bc- as-gen</w>
z id
y ale</w>
proce dures</w>
pois on</w>
im posed</w>
encla ve</w>
as sur
am man</w>
ib f</w>
glob alization</w>
for cing</w>
d angers</w>
cla sses</w>
auto maker</w>
artif icial</w>
al zhe
wel l-
ve -
sp ar</w>
ig ation</w>
hon ey
har den
fre y</w>
expla ins</w>
evacu ations</w>
da k</w>
consul tations</w>
come sa</w>
bur den</w>
be si
awa iting</w>
an ic</w>
vo s</w>
revol t</w>
resum ing</w>
ph il</w>
mon te</w>
is er</w>
ex- pm</w>
sympath y</w>
seven -
oper ate</w>
laun ching</w>
kel ly</w>
ha vel</w>
first- ever</w>
ex ternal</w>
du rable</w>
det ected</w>
v ous</w>
per sons</w>
marsh all</w>
in ations</w>
ex am</w>
e men</w>
discus sion</w>
ben f
turn around</w>
tri gger</w>
quie tly</w>
pu mp</w>
po ws</w>
oil ers</w>
h end
den ti
at -
ac p</w>
# k</w>
ut ilities</w>
stri ves</w>
spon sorship</w>
sep t</w>
semi -final</w>
run -off</w>
ri g</w>
pri zes</w>
pon der</w>
lo e
f ta</w>
effici ency</w>
ed -
e sa</w>
con sequ
bat ch</w>
va st</w>
stea d</w>
pre a
ob as
obas anj
obasanj o</w>
na sty</w>
m ighty</w>
im pre
fre sh
financ ier</w>
f urn
extre me</w>
ex iles</w>
car -
ar cel
alzhe imer</w>
w nba</w>
v ault</w>
under standing</w>
tod dler</w>
repla ced</w>
re vel
pris e</w>
ma bad</w>
le vy</w>
ko dak</w>
isla mabad</w>
hun ters</w>
euro- zone</w>
ec lip
chin ese-
at ta
tal ly</w>
some thing</w>
over comes</w>
milest one</w>
im oto</w>
es cor
cross- country</w>
clo thing</w>
chil d
benf ica</w>
st as
separ ation</w>
prot ected</w>
pro ud</w>
mo ya</w>
kil os</w>
doc k</w>
dae woo</w>
bermu da</w>
b age</w>
zid ane</w>
upro ar</w>
premi ership</w>
mor atorium</w>
la bo
jun iors</w>
hu i</w>
g i</w>
form ers</w>
em ma</w>
d amp
bro ker
bal let</w>
vent ures</w>
vacc ination</w>
possi bly</w>
or -
o tt</w>
new com
mist ak
j im</w>
in stru
ha b</w>
ft se</w>
fid elity</w>
endeav our</w>
d ag
a g</w>
z el
ter ia</w>
swe des</w>
sa d</w>
m am
lu cky</w>
jewel ry</w>
jen in</w>
hi -tech</w>
freigh ter</w>
el la</w>
e ves</w>
ua w</w>
roc ke
res a</w>
mar king</w>
m ous</w>
hash imoto</w>
bri be</w>
agre ed</w>
sou l</w>
re d-
michel le</w>
man i
git mo</w>
expen ses</w>
dra f
burun dian</w>
wal king</w>
un paid</w>
su ffe
spea king</w>
quar antine</w>
narco tics</w>
indi an-
deliver ies</w>
compa q</w>
an th
tra k</w>
soy bean</w>
ot ta
n go</w>
merce des</w>
me l</w>
m ys</w>
lu ck</w>
ke ane</w>
in ch</w>
goal ie</w>
dead locked</w>
col or</w>
bah rain
am trak</w>
ze era</w>
x -
wat ches</w>
to ols</w>
spec tive</w>
refl ect</w>
pic tures</w>
paul son</w>
pan am
ja zeera</w>
ent ly</w>
com ic</w>
c ree
as s</w>
accus ation</w>
v augh
top- seeded</w>
ste ep</w>
propag anda</w>
promis ed</w>
proce d
proced ure</w>
p ms</w>
op ts</w>
ma i
ja va</w>
inti mid
ight -
ft c</w>
eritre an</w>
dis closure</w>
awa ited</w>
y r
serbia- montenegro</w>
ro d</w>
ni ke</w>
m ills</w>
l one</w>
he ist</w>
gree ks</w>
gre ens</w>
extor tion</w>
di ans</w>
ca che</w>
att itude</w>
arm ing</w>
ye v</w>
y en
ne stle</w>
n ie
n ac
mo urn
men ing
maneu vers</w>
l eng
l ends</w>
k al
hait ians</w>
fl ed</w>
expo sure</w>
dou ble-
den ko</w>
cancel lation</w>
warm -up</w>
volcan ic</w>
ul tra
tigh tened</w>
thro wing</w>
th war
star bucks</w>
roc ker</w>
ro of</w>
ric he
recomm end</w>
per sist</w>
otta wa</w>
mode stly</w>
jan kovic</w>
bur ies</w>
wic kets</w>
vo c</w>
u ba</w>
te resa</w>
t own
shef field</w>
sa ab</w>
re match</w>
r ated</w>
protest er</w>
identi fies</w>
ha voc</w>
gri zz
f ic
e j
d .c.</w>
comm it</w>
cli ents</w>
brit ney</w>
bak er</w>
un s</w>
tigh tening</w>
ti pped</w>
sid elines</w>
run ners</w>
ross i</w>
mai den</w>
gi br
g ment</w>
g ary</w>
fil i
discus sions</w>
d- up</w>
clar ke</w>
af c</w>
strength ening</w>
stev ens</w>
sli m</w>
reshu ffles</w>
nic hol
miss ed</w>
bor ne</w>
won do</w>
wat son</w>
ta ek
taek wondo</w>
symb ol
rehabil itation</w>
re pay</w>
pro state</w>
night mare</w>
multin ational</w>
machin es</w>
m ofa</w>
jor dan
gu er
de po
cel lu
ballo on</w>
aggre ssion</w>
achie ve</w>
ss els</w>
sov a</w>
round up</w>
paris -
mus cle</w>
med alist</w>
mccar tney</w>
inter fer
fla ws</w>
eng ines</w>
el li
buff alo</w>
an z</w>
sho es</w>
marri ages</w>
la ura</w>
jun gle</w>
jim my</w>
it ives</w>
india- controlled</w>
hard t</w>
faul ty</w>
fa st-
degre e</w>
c ran
andre w</w>
zaire an</w>
tsunami- hit</w>
t c</w>
so m</w>
si m
pl enty</w>
ok in
je an</w>
human s</w>
decis ive</w>
cre ated</w>
con crete</w>
black water</w>
as a</w>
vacc ines</w>
tri m</w>
star ted</w>
publ ish</w>
h r
fund raising</w>
and y</w>
ad ding</w>
a sa
zar qa
zarqa wi</w>
spons ors</w>
rhe tor
quake -
pul ling</w>
pi an
no o
imprison ment</w>
he ath
heath row</w>
gri d</w>
ex hu
evacu ees</w>
barre ls</w>
#r d-quarter</w>
###- meter</w>
sym bol</w>
sur ing</w>
smugg ler</w>
sac rif
r yan</w>
pa int</w>
nec k</w>
moun ting</w>
au st
ator ial</w>
astr onom
vie wers</w>
taiw an-
sla very</w>
salvador an</w>
s c</w>
ro che</w>
plan et</w>
per ot</w>
n alban
nalban dian</w>
coun sel</w>
cle aring</w>
canadi ens</w>
c b
ar ians</w>
a den</w>
th es</w>
sum atra</w>
reli ance</w>
premi ere</w>
of i</w>
iv an</w>
inst all</w>
in doors</w>
gra ss
charac ter</w>
u -##</w>
spir it
spe eds</w>
plu g</w>
par ker</w>
mu ster</w>
m ath
lever kus
leverkus en</w>
h ec
g ation</w>
flexi bility</w>
dat ab
corre ct</w>
consequ ences</w>
com pre
al ter</w>
sh own</w>
pas sed</w>
fil ing</w>
f red</w>
ath er
adjour ned</w>
y denko</w>
wit ter</w>
tra ined</w>
ta o</w>
simp le</w>
s ings</w>
ri ding</w>
rat ification</w>
pig s</w>
kra j
gener ally</w>
eu -gen</w>
dra wn</w>
dav ydenko</w>
vide os</w>
turn over</w>
transpa ren
transparen cy</w>
si zes</w>
re hab</w>
mas s.</w>
har der</w>
ec a</w>
colon ial</w>
ber n
ra m</w>
no tor
gene tic
fo s
dec lining</w>
chron ology</w>
bar bad
barbad os</w>
w ag
t ata</w>
re for
mourn ers</w>
lack lu
label s</w>
hur ting</w>
fertil izer</w>
ec es</w>
#,###- year-old</w>
ve ts</w>
tt -
tt- packard</w>
swa z
protection ism</w>
is s
hewle tt-packard</w>
com a</w>
b yp
stru ck</w>
flamen go</w>
fin ger</w>
concor de</w>
web ber</w>
w u</w>
val uation</w>
top ple</w>
sh ers</w>
que t</w>
pharmaceut ical</w>
mening itis</w>
liber ation</w>
ke tt</w>
il er</w>
h overs</w>
du st</w>
com for
char ities</w>
anti- graft</w>
zz le</w>
wol fo
wolfo witz</w>
wa iv
tax -
re- sign</w>
mon ey
mar ry</w>
m claren</w>
l ton</w>
ku er
kuer ten</w>
in tru
he ights</w>
fran ce-
extra dit
er ity</w>
defam ation</w>
dee ply</w>
cy ber</w>
cor respon
conc ent
y ush
vulner able</w>
un i
re opening</w>
phy sic
ill o</w>
half time</w>
den ial</w>
dead liest</w>
col ts</w>
bar ric
b old</w>
tom or
roy ce</w>
refor mist</w>
mus ician</w>
good bye</w>
g us</w>
dinosa ur</w>
challeng ing</w>
vill arre
villarre al</w>
n ial</w>
it im
ha j
gra ss</w>
fin ger
exam ines</w>
en force</w>
d m
contemp t</w>
black hawks</w>
ban d
b ite</w>
wa re
w indies</w>
tun es</w>
s elec
probab ly</w>
orig inal</w>
liqu or</w>
hel m</w>
flood- hit</w>
bo arding</w>
alex ander</w>
a e
sen iors</w>
re treats</w>
provis ional</w>
plo ts</w>
mist re
hol es</w>
go- ahead</w>
gener ale</w>
ea sed</w>
down grade</w>
co ins</w>
a com</w>
y #k</w>
war fare</w>
typ e</w>
th inks</w>
son gs</w>
slu m</w>
she ep</w>
sep h</w>
rub ble</w>
rhetor ic</w>
privat isation</w>
pri maries</w>
kn owle
ka sp
jo seph</w>
isol ation</w>
influen za</w>
h ak
go tten</w>
won der</w>
wi den</w>
ta il</w>
t at
nan jing</w>
min ors</w>
innoc ence</w>
fla .</w>
eye ing</w>
encoura ging</w>
cor in
commun ities</w>
colon el</w>
bre ath
#. ####</w>
run away</w>
repatri ated</w>
recomm end
re de
pri orities</w>
pre va
mer cen
leg end
legend ary</w>
lan e</w>
labo rers</w>
gra ins</w>
diamon d
deliber ations</w>
compens ate</w>
ben ch</w>
be ts</w>
ba rely</w>
ve ssels</w>
tomor row</w>
ti mber
thu si
sil va</w>
sa m</w>
na r</w>
mc i</w>
liv est
livest ock</w>
f k</w>
enter prise</w>
en thusi
c les</w>
author izes</w>
al ps</w>
so l</w>
siber ia</w>
read iness</w>
ra dic
po ore
new s
j ay
insul ting</w>
h ackers</w>
#. ###</w>
shir ts</w>
ri d</w>
ret iring</w>
pon t</w>
per sists</w>
orchest ra</w>
lau gh
ju mbo</w>
isol ated</w>
inf ections</w>
indic ators</w>
hi p</w>
fis cher</w>
ed ward</w>
cli mber</w>
b leak</w>
a sp
## k</w>
w ives</w>
stri pped</w>
go d
en s
elimin ated</w>
discus sing</w>
com fort</w>
butter fly</w>
bu ster</w>
as king</w>
vi kings</w>
tra w
sur face</w>
sop ran
kra ft</w>
innov ation</w>
hal li
f lawed</w>
est er
el se
contrib ution</w>
condem nation</w>
aro v</w>
anti- dumping</w>
ak er</w>
acceler ate</w>
f ought</w>
doc ks</w>
da vos</w>
competit ive</w>
co in</w>
atri c</w>
amat eur</w>
univer se</w>
subst anti
p ng</w>
or deal</w>
mar ches</w>
kin men</w>
iv ely</w>
gar bage</w>
gam ing</w>
foreig n-
ev il</w>
d ging</w>
conduc ts</w>
compre hen
broadca sts</w>
bri g
bench mark</w>
tibet ans</w>
pus hed</w>
out line</w>
ic h
hu bble</w>
gla x
gibr altar</w>
ev ans</w>
establ ishment</w>
def ying</w>
de fl
come dian</w>
clu ster</w>
cla y</w>
analy sis</w>
zimbabwe ans</w>
un expec
unexpec tedly</w>
sil icon</w>
sev ens</w>
pre d
mogu l</w>
estim ated</w>
deta il</w>
broad band</w>
wel d</w>
spit zer</w>
it ely</w>
ist a</w>
i ke</w>
har ris</w>
halli burton</w>
ex cept</w>
ev alu
e dra
dr one</w>
diamond backs</w>
cro co
croco d
credi bility</w>
bro kers</w>
ar y-
af firm</w>
' ##s</w>
tor ren
st ating</w>
ro cky</w>
red skins</w>
portra it</w>
pi eces</w>
ong qing</w>
knowle dge</w>
in stead</w>
govern ance</w>
g ians</w>
fe aring</w>
exist ing</w>
entreprene urs</w>
coll ins</w>
ch ongqing</w>
bron x</w>
- held</w>
vod af
vodaf one</w>
t off</w>
swaz iland</w>
stat istics</w>
repea l</w>
re mark</w>
r in</w>
proper ties</w>
match- fixing</w>
li mbo</w>
ke vin</w>
ja m</w>
ha iled</w>
e on</w>
coordin ation</w>
ch oc
ceremon ies</w>
cellu lar</w>
bus h
b illy</w>
as sum
- time</w>
vi acom</w>
un cover</w>
tic a</w>
shak y</w>
riche st</w>
re ference</w>
nu kes</w>
ni xon</w>
n hardt</w>
mental ly</w>
loo ting</w>
l ings</w>
ith ner</w>
ge ithner</w>
fe eding</w>
explo res</w>
ear nhardt</w>
don nell</w>
corin th
#st- half</w>
yush chenko</w>
tri ms</w>
sol utions</w>
ro ger</w>
pre stig
parliam ent
o' neill</w>
mu ham
grow ers</w>
bru tal</w>
bosn ians</w>
weigh ing</w>
tim eline</w>
servic emen</w>
saf er</w>
re ally</w>
mis ery</w>
m yers</w>
it ting</w>
histor ical</w>
fin alize</w>
fal ters</w>
ex plan
eg gs</w>
ed ition</w>
crus hes</w>
comb ating</w>
beef s</w>
bc- eu-gen</w>
bat tery</w>
b ites</w>
## b</w>
wor ked</w>
t c
ro bot</w>
princip le</w>
pil es</w>
pat ter
ma e</w>
insp ires</w>
coun tdown</w>
col league</w>
an ew</w>
ab sent</w>
son g
respon ds</w>
pa ed
paed oph
p am
oper ational</w>
oak land</w>
metho d</w>
maurit anian</w>
m vp</w>
in formal</w>
ex- minister</w>
cru z</w>
by- election</w>
an ol</w>
y s
u cks</w>
tra ded</w>
tic ism</w>
spe eding</w>
sin ai</w>
short- term</w>
po e
nat o-
le bed</w>
is evic</w>
gest ure</w>
er als</w>
colum n</w>
ch ill</w>
can ucks</w>
bar ry</w>
arti facts</w>
accep tance</w>
stat e
re viewing</w>
re in</w>
peace fully</w>
om y</w>
mat ure</w>
ma z
critici zing</w>
corinth ians</w>
commit ments</w>
achie vements</w>
un ified</w>
ten ance</w>
st ag
no tice</w>
muham mad</w>
main tenance</w>
ju do</w>
inten sive</w>
gra ce</w>
frag ile</w>
ex cer
dra g
de s
cricke ters</w>
consolid ate</w>
cl an</w>
bul lets</w>
bu g</w>
be shir</w>
administrat or</w>
th at
ta ined</w>
swit ches</w>
spr inter</w>
sch ia
oo p</w>
okin awa</w>
in- harden
in-harden ne</w>
in duc
hen in-hardenne</w>
gib son</w>
g ins</w>
foc used</w>
fo unding</w>
fan ta
dal e</w>
conting ent</w>
condit ional</w>
bob by</w>
and o</w>
viol ated</w>
op ing</w>
me kong</w>
l end</w>
incumb ent</w>
host age-
fron tier</w>
fac ed</w>
ex posed</w>
edra l</w>
discus sed</w>
cele brit
celebrit ies</w>
cath edral</w>
bur ger</w>
woo s</w>
vic k</w>
sece ssion</w>
pic k
p and
over see</w>
notor ious</w>
machin ery</w>
jet liner</w>
intellec tual</w>
inclu ded</w>
gh ters</w>
ex press
choc ol
adop ted</w>
- to-
traffic ker</w>
thank s
thanks giving</w>
rein for
q west</w>
pl ing</w>
pal me
no tre</w>
inj ection</w>
in struc
hor mon
hol brooke</w>
episco pal</w>
ent e</w>
coordin ate</w>
car pet</w>
ath ers</w>
al izing</w>
- era</w>
- and-
zz les</w>
wea ken</w>
ter ry</w>
t all</w>
rest ores</w>
post war</w>
nami bian</w>
me x</w>
len ders</w>
ju bil
ivan isevic</w>
hab it
g ic</w>
expen sive</w>
evacu ates</w>
emplo yed</w>
denti als</w>
cre dentials</w>
cir cus</w>
cen sorship</w>
ar gue</w>
al- jazeera</w>
us h</w>
swim mers</w>
socie te</w>
sec tors</w>
sam ples</w>
rail road</w>
pian ist</w>
par king</w>
ner vous</w>
ki wis</w>
j .
in coming</w>
con feder
an tig
ag ra</w>
stero ids</w>
ro ut
rail ways</w>
prov iding</w>
op rah</w>
mu ter</w>
mo tiv
m ill</w>
k un
hk sar</w>
gur u</w>
fac ilit
den tial</w>
coura ge</w>
comprehen sive</w>
com muter</w>
broad er</w>
audi o</w>
archae ologists</w>
al er
#th- quarter</w>
youn ger</w>
va j
u ge
that cher</w>
sp en
r ing
pe uge
medic aid</w>
kov sky</w>
ir regular
inst all
exce ssive</w>
eu than
el ev
a q
#\/ #</w>
yen o
yeno ord</w>
subj ect</w>
que ens
petro bras</w>
o di</w>
neigh bor</w>
ku z
ju an</w>
iver son</w>
inter pre
hear t
fe yenoord</w>
eg ed</w>
bi of
ad ult</w>
um n</w>
u ding</w>
u .</w>
squ ash</w>
sk ele
re leg
ra cks</w>
m t.</w>
m r.</w>
lobby ist</w>
lea ked</w>
lan der</w>
h #</w>
glo omy</w>
ex- leader</w>
em my</w>
ea u</w>
e in
contam inated</w>
com ply</w>
are va</w>
wal esa</w>
unco vered</w>
scu ffle</w>
restric ts</w>
o u</w>
nov arti
novarti s</w>
max imum</w>
is ing</w>
fug itives</w>
e ful</w>
design ate</w>
dementi eva</w>
convic t</w>
challen ged</w>
braz il
boyco tts</w>
bon n</w>
b jor
youn gest</w>
warm up</w>
scre en
ra mi
pol o</w>
or lan
orlan do</w>
fin dings</w>
dow ned</w>
cler gy</w>
bul lish</w>
ad just
activ ate</w>
w igan</w>
trans mission</w>
st ent</w>
spirit ual</w>
shar p
sen s
scal es</w>
ro w
re tri
produc ing</w>
panam anian</w>
pa use</w>
over turn</w>
kho dor
khodor kovsky</w>
je sus</w>
introduc ed</w>
gath ers</w>
datab ase</w>
coo king</w>
weal thy</w>
thra shers</w>
ship yard</w>
ro e</w>
r ather</w>
pit ching</w>
net sova</w>
kuz netsova</w>
jeop ar
gro und
en ted</w>
bon es</w>
ade qu
#- ##</w>
tra de
sun nis</w>
queens land</w>
ow ing</w>
gu sta
glit ch</w>
gli mp
essen tial</w>
cu lo
cle an-
az nar</w>
aut umn</w>
wic ket</w>
war ring</w>
w ro
w ip
tri be
trea sures</w>
schol ar
relat ive</w>
pric ing</w>
o' neal</w>
hool ig
fra me
fore n
cour thouse</w>
b se</w>
assass in</w>
white water</w>
mi x
m gm</w>
def icits</w>
de si
an tin
ambit ions</w>
pl ed</w>
pa v
inqu est</w>
influ ential</w>
equ atorial</w>
com ed</w>
cas inos</w>
bel l
b ath</w>
associ ates</w>
shoc ked</w>
rob bed</w>
phil anthro
orig in</w>
oren tina</w>
mon k</w>
liquid ity</w>
lar ry</w>
johan sson</w>
grizz lies</w>
fi orentina</w>
euro tunnel</w>
est an</w>
erup tion</w>
er o</w>
con tri
ah n</w>
t witter</w>
stre am
stra ins</w>
repe ating</w>
re actors</w>
re act</w>
pe l</w>
mo di
modi fied</w>
m ie
f illed</w>
ear marks</w>
def ects</w>
crow ned</w>
cris es</w>
co us
che ating</w>
bahrain i</w>
anti- terrorist</w>
alco a</w>
ya ch
tri ples</w>
ssi on
rev amp
refe rees</w>
ra in-
pru dential</w>
post- war</w>
money -
moham med</w>
me te
lo gging</w>
len der</w>
jun k</w>
jar at</w>
gu jarat</w>
escal ation</w>
dro ugh
cover ing</w>
char gers</w>
wh ole</w>
ver sus</w>
test -
sp are</w>
russi an-
pat itis</w>
om a</w>
oil- rich</w>
obj ect</w>
ma o</w>
ku ch
he patitis</w>
h d</w>
ex its</w>
depo sit</w>
co st-
cine ma</w>
ch ides</w>
b b
anti qu
w inger</w>
torren tial</w>
ten dul
tendul kar</w>
sea hawks</w>
ru t
reli eved</w>
p est
id b</w>
his pan
fam ine</w>
commemor ates</w>
cher nom
ce iling</w>
caf e</w>
assa il
ad mitted</w>
w ran
u -
ri ders</w>
promo ted</w>
ma m</w>
kasp arov</w>
hom icide</w>
hang ed</w>
er ic</w>
deleg ate</w>
co ck</w>
brea d</w>
bran ches</w>
wol f</w>
sur ro
somal is</w>
sk ips</w>
ro gue</w>
on ica</w>
inten ds</w>
guang xi</w>
fur ious</w>
fund raiser</w>
e quality</w>
e cho
disman tle</w>
congre ssmen</w>
co ok
accus er</w>
ul u</w>
terr and</w>
slu g</w>
mit terrand</w>
jin tao</w>
cors ica</w>
co ca</w>
bu ck
whit man</w>
ver ge</w>
v ou
v ag
us oc</w>
under land</w>
st aged</w>
short fall</w>
shev ard
shevard nad
shevardnad ze</w>
se tt</w>
safe guard</w>
s underland</w>
re id</w>
plum mets</w>
mission ary</w>
hol land</w>
ger ing</w>
frame work</w>
fas c
experi ment</w>
chas ing</w>
beg an</w>
acquit tal</w>
ware house</w>
van u
vanu at
tre ating</w>
sw oop</w>
sur round</w>
shake up</w>
scra mbles</w>
s elect</w>
pl ight</w>
loe b</w>
ke e</w>
k ham
irregular ities</w>
investig ations</w>
her self</w>
gho st</w>
contri bu
contribu tions</w>
colli des</w>
cen sure</w>
blue print</w>
anti-semit ic</w>
ann y</w>
#st- qtr</w>
yr din</w>
twent y-
tack les</w>
t ill</w>
re wards</w>
oc e
no ted</w>
mo u</w>
f lows</w>
e ight-
d j
chernom yrdin</w>
trans- atlantic</w>
shel ves</w>
sh an</w>
pun ch</w>
por e</w>
pe rez</w>
part ici
lo ts</w>
j ong</w>
inter rup
du ck</w>
dec or
aborig inal</w>
ab les</w>
th ri
tea ch</w>
stric ter</w>
stri fe</w>
st un</w>
s f</w>
pl c</w>
mosqu es</w>
mer gers</w>
ja co
iber ia</w>
h un</w>
great est</w>
ex- wife</w>
dil emma</w>
def ector</w>
dal ian</w>
d t</w>
ca reta
c tica</w>
antar ctica</w>
ac compl
## ####</w>
we aring</w>
tre k</w>
ta blo
s ke
require ments</w>
pois oned</w>
plan ting</w>
pil lar</w>
p r</w>
mp his</w>
me mphis</w>
ma ize</w>
lot te</w>
lloy d</w>
hi red</w>
else where</w>
eclip se</w>
confe sses</w>
boy friend</w>
anti- us</w>
annu ally</w>
alloc ates</w>
ac id</w>
walla ce</w>
subur bs</w>
seneg al
senegal ese</w>
par tially</w>
liber als</w>
ir l</w>
flo at</w>
f ty</w>
f ow
ex- soviet</w>
eth anol</w>
dis qualified</w>
bea ches</w>
ar ful</w>
accor ding</w>
youn g
wel comed</w>
scar f</w>
o ath</w>
ne west</w>
mo star</w>
li ver</w>
la g</w>
gall ery</w>
fish er</w>
det ective</w>
cau cus</w>
au dit
anth ony</w>
ag round</w>
ab a</w>
' d</w>
vi ox
viox x</w>
ver mont</w>
tur f</w>
tra sh</w>
tra eus</w>
ti de</w>
st earns</w>
ren owned</w>
rebu kes</w>
po x</w>
pe traeus</w>
paragu ayan</w>
ni k</w>
manag ing</w>
low- cost</w>
health care</w>
fle es</w>
ex poses</w>
du mps</w>
doub led</w>
con n</w>
as best
ab used</w>
thom son</w>
temper atures</w>
stas y</w>
see m</w>
na acp</w>
moder ately</w>
itar ies</w>
it t
inv ade</w>
ec stasy</w>
char ging</w>
catastroph e</w>
broker age</w>
bol t</w>
attend ance</w>
ti p</w>
squee ze</w>
sm outh</w>
port smouth</w>
pon ting</w>
pand as</w>
on- year</w>
on e
occup y</w>
n p</w>
n aked</w>
magist rate</w>
lor ca</w>
ep ic</w>
di m</w>
c tu
attend ants</w>
adequ ate</w>
y ##</w>
wh aling</w>
tu ber
tou ches</w>
t son</w>
sovere ign</w>
sma shes</w>
shif ting</w>
rush die</w>
reve aled</w>
plot ters</w>
p fp</w>
ou gh
loo ted</w>
la h
hea l</w>
gra y</w>
fi x
elim ination</w>
defi ance</w>
comp li
clear ance</w>
cla mp
casu alty</w>
but ton</w>
ander sen</w>
v al</w>
u lat
tra ce</w>
sp ills</w>
sh er</w>
nu n</w>
k hal
inten se</w>
impre ssive</w>
dag estan</w>
bu o
bru ce</w>
arch ives</w>
year- end</w>
tim ing</w>
thie f</w>
postpon ement</w>
n c</w>
m med</w>
ira l</w>
in ate</w>
gradu ate</w>
gol fer</w>
g bag
gbag bo</w>
fore sees</w>
din ho</w>
den nis</w>
chic kens</w>
athle tic</w>
ven ues</w>
un sure</w>
un anim
stel ic</w>
six- month</w>
sexu ally</w>
out breaks</w>
ne c</w>
n ing
midd le
li kes</w>
ko stelic</w>
jeopar dy</w>
ingh am</w>
gor ba
gorba chev</w>
frustr ation</w>
er mo</w>
d der</w>
cad bury</w>
bic y
bhut an</w>
att ending</w>
sle ep</w>
rein force</w>
psychi atric</w>
pakist an-
nad er</w>
museu ms</w>
la bs</w>
in sist</w>
hav ana</w>
g au
do se</w>
war k</w>
ultra -
steph en</w>
recruit ment</w>
pessi m
p tv</w>
ov sky</w>
nab is</w>
lu ge</w>
kn ife</w>
jef f</w>
j fk</w>
invest ing</w>
def ect</w>
con qu
cha rest</w>
can nabis</w>
ar riving</w>
anti- crime</w>
af ptv</w>
x ia
vanuat u</w>
tra ces</w>
to o
sic ily</w>
sh un</w>
reput ation</w>
re uters</w>
medic ines</w>
k id</w>
k ic</w>
juven ile</w>
j p
he in
fu ror</w>
excer pts</w>
empha sizes</w>
ecuador ian</w>
distri but
danc er</w>
cour tro
cooper ative</w>
c fo</w>
z hu</w>
un ders</w>
the on</w>
tan der</w>
sh in</w>
separ ated</w>
san tander</w>
sa ir</w>
re sts</w>
per sian</w>
on- euro</w>
mob utu</w>
metho ds</w>
de x</w>
clem ency</w>
ba shir</w>
at t</w>
wro te</w>
w er
u igh
so y</w>
rever sal</w>
re yn
nam ing</w>
la cking</w>
king dom</w>
gri ef</w>
er i</w>
educ ational</w>
consul tant</w>
clamp down</w>
chocol ate</w>
boo t</w>
bel on
b lower</w>
are z</w>
##- percent</w>
u k
tuber culo
subur ban</w>
sp here</w>
s- royce</w>
roll s-royce</w>
pa inter</w>
me yer</w>
lin ary</w>
jud gment</w>
initi atives</w>
hi de
heal th-
clo thes</w>
banglade sh
# g</w>
wor sen</w>
vo y
schedu les</w>
san j
pessim istic</w>
per su
p ills</w>
mus icians</w>
iss ance</w>
genetic ally</w>
fer din
ferdin and</w>
ent ire</w>
el vis</w>
conten ders</w>
civ ic</w>
ch o</w>
al- sadr</w>
skep ticism</w>
ran ked</w>
fur y</w>
f ying</w>
explan ation</w>
em u</w>
del e
cp i</w>
construc tive</w>
chin ext</w>
cham bers</w>
car t</w>
bul let
amend ments</w>
vir tu
t ist</w>
strateg ies</w>
shr ink</w>
ronal dinho</w>
roman ians</w>
ran ce</w>
pul lback</w>
neg l
life time</w>
l ur
confron ts</w>
chair woman</w>
bu charest</w>
black list</w>
###- year-old</w>
xi amen</w>
war ren</w>
turbul ence</w>
ti e-up</w>
tex aco</w>
snu bs</w>
sna g</w>
ro ot</w>
reyn olds</w>
p raised</w>
nor tel</w>
neu tral</w>
loy alists</w>
jack pot</w>
in gu
id ah
idah o</w>
dis on</w>
dera il</w>
ch rist</w>
bac teria</w>
we ary</w>
wa ch
ty co</w>
tuberculo sis</w>
sub du
springbo ks</w>
sports -
ri gging</w>
p att
lia oning</w>
jp morgan</w>
il ia</w>
ign ores</w>
gh ana
ea gle</w>
du pont</w>
distric ts</w>
cor ner</w>
colum n
careta ker</w>
b is</w>
author ized</w>
adul ts</w>
acquis itions</w>
web b</w>
tribe smen</w>
requ ired</w>
q in
pu lit
mal lorca</w>
lar ge-
h int</w>
h id</w>
gri ps</w>
ener g
delay ing</w>
bra ve</w>
ad ju
##- man</w>
tax pa
surpris ing</w>
suff ici
ro h</w>
ran som</w>
princip al</w>
pain ful</w>
on going</w>
ner ve</w>
negoti ation</w>
manufactu rer</w>
lin smann</w>
k linsmann</w>
he t</w>
glimp se</w>
din i</w>
comb at
b u</w>
am end</w>
wau gh</w>
u ##</w>
restor ing</w>
re think</w>
re t</w>
que z</w>
prescri ption</w>
hu ll</w>
h ke
furn iture</w>
form at</w>
far go</w>
f ills</w>
ey ed</w>
every one</w>
emb races</w>
dau ghters</w>
chronic le</w>
whe el</w>
ug ly</w>
tun a</w>
thro p</w>
territ orial</w>
sit -in</w>
receiv er</w>
re join</w>
me ant</w>
kuch ma</w>
in k
fore ca
demol ition</w>
cur bing</w>
conver t</w>
but ler</w>
brazil ians</w>
bi partisan</w>
## km</w>
vil i</w>
t oms</w>
spir its</w>
reluc tant</w>
paralymp ics</w>
p au
ne wark</w>
med ics</w>
ly -
indefin itely</w>
hang ing</w>
faith ful</w>
encoura ged</w>
dr inks</w>
dec rease</w>
cab in</w>
bad ly</w>
anx iety</w>
# x
x ero
xero x</w>
tit ans</w>
st om
sol ving</w>
ov en</w>
new -
n inten
ninten do</w>
min i
lobby ists</w>
hund red</w>
hin d
har lem</w>
ham mers</w>
fin ished</w>
asbest os</w>
vig il</w>
tu ary</w>
thous and</w>
tel ef
telef onica</w>
sub stance</w>
sanc tion</w>
resol utions</w>
prosecut e</w>
ph i</w>
palestin ian-
p at</w>
near ing</w>
li ved</w>
la o</w>
indic ate</w>
g ling</w>
evol ution</w>
deva stating</w>
com par
brus hes</w>
anch or</w>
accid ental</w>
yanke e</w>
work place</w>
w ade</w>
ti sts</w>
si mil
prostit utes</w>
pla gu
p iz
p -
orph ans</w>
mel tdown</w>
med dling</w>
in ches</w>
hun ts</w>
hu ck
h acker</w>
gusta v</w>
flu ctu
f lowers</w>
en berg</w>
de sec
amp le</w>
#- week</w>
y d</w>
rout ine</w>
rif le</w>
p om
he ir</w>
for gotten</w>
flo yd</w>
fi ery</w>
el an
be st-
batt ing</w>
ax e</w>
antig ua</w>
ak ing</w>
treasur ies</w>
sp ra
sha w</w>
regulat ory</w>
nu de</w>
ma ils</w>
kham ene
khamene i</w>
health- care</w>
du al</w>
custom er</w>
celebr ated</w>
bon o</w>
ti mber</w>
out age</w>
hom age</w>
fin alists</w>
div ides</w>
consul t</w>
com m</w>
car l</w>
al bert</w>
zel aya</w>
son ian</w>
smith sonian</w>
s acking</w>
ra w</w>
mart y
man du</w>
les bian</w>
i mam</w>
fest iv
dis agree</w>
b lun
arab -
air lift</w>
advis ed</w>
w ie</w>
su zu
ss ors</w>
shir t</w>
qualif ication</w>
pr ints</w>
pol is</w>
mu d</w>
ign ored</w>
huck abe
huckabe e</w>
frustr ated</w>
favor able</w>
dissol ves</w>
dis plays</w>
dig it</w>
cb -</w>
bo und
black berry</w>
bal lack</w>
a ks</w>
withdra wn</w>
se ssions</w>
qu iz</w>
prin ting</w>
large- scale</w>
hut u</w>
fru it
e mission</w>
brow ns</w>
bre w
abduc t</w>
uph eld</w>
un easy</w>
sa t</w>
sa ils</w>
re ck
port fol
po wered</w>
out standing</w>
le an
fic tion</w>
d l</w>
courtro om</w>
clear -
ve t</w>
utr ition</w>
subpoen as</w>
sol ved</w>
ship wreck</w>
n utrition</w>
lif eline</w>
li ed</w>
jac kets</w>
hispan ics</w>
haj j</w>
de ple
cour t-
co ff
au di</w>
un constitutional</w>
trea su
te e
se f</w>
sc u</w>
s aga</w>
organiz ing</w>
jan e</w>
impro vements</w>
imple men
h il
gri ev
fac e-
da wn</w>
cos me
bri en</w>
bri an</w>
autom ob
## nd</w>
w ada</w>
tu ition</w>
ti m</w>
through out</w>
sw oman</w>
suppor ter</w>
rut gers</w>
ri ver
re vokes</w>
ple ts</w>
per forming</w>
men em</w>
lea king</w>
jol ie</w>
ip po
hel lo</w>
haw k</w>
enem ies</w>
em i</w>
design ers</w>
cli sts</w>
car ried</w>
bri dges</w>
af fili
ad ore
y on</w>
un a</w>
timber wolves</w>
syn dic
spo ken</w>
re acts</w>
rav ens</w>
pre- election</w>
p ins</w>
p ink</w>
midd les
mess i</w>
i ano</w>
hol y
high- profile</w>
ha ze</w>
ge an</w>
dat ory</w>
char lton</w>
bul let</w>
bo ards</w>
bid ders</w>
ali en</w>
ae gean</w>
v ang
vang ira
vangira i</w>
tw ist</w>
ts vangirai</w>
ten stein</w>
proce ed
proceed ings</w>
p pe</w>
montgom erie</w>
ill icit</w>
f east</w>
er ings</w>
eng age</w>
dra gs</w>
difficul ties</w>
del phi</w>
dal y</w>
correspon dent</w>
column ist</w>
ba sis</w>
antiqu ities</w>
af ta</w>
vinc i</w>
stop ping</w>
shor yu</w>
restruc ture</w>
princip les</w>
pag e
os ama</w>
mo ther
lo vers</w>
je sse</w>
ed itors</w>
dro me</w>
dre s
dis charged</w>
d dy</w>
cor oner</w>
col in</w>
climb ing</w>
asa shoryu</w>
a a</w>
vie wed</w>
swe de</w>
swe ars</w>
ssi l</w>
san to</w>
rob ber</w>
prosp erity</w>
pro cu
pic as
pal ermo</w>
op posing</w>
nor throp</w>
ira s</w>
ir ation</w>
g ence</w>
fo ssil</w>
elec tro
d ner</w>
d ating</w>
cover -up</w>
counter parts</w>
contam ination</w>
c c
bour ses</w>
bomb ardi
bombardi er</w>
bj t</w>
bag o</w>
att a</w>
anti- smoking</w>
accep ting</w>
whe el
tele scope</w>
str ange</w>
snow storm</w>
se y
sal utes</w>
re neg
medi ately</w>
le ic
la x</w>
king pin</w>
im mediately</w>
h one</w>
green e</w>
g ely</w>
elig ible</w>
critic ally</w>
coordin ator</w>
char m</w>
al st
ste pped</w>
ssi er</w>
resol ving</w>
reinfor cements</w>
q ur
partici pants</w>
mon t
middles bro
middlesbro ugh</w>
gal a</w>
g rat
clin tons</w>
c dc</w>
break down</w>
tric het</w>
stu mbles</w>
star r</w>
sea son-
ru th</w>
re affirm</w>
pic king</w>
make over</w>
ignor ing</w>
i ao</w>
hop man</w>
hon y</w>
hiv -
high ways</w>
harmon y</w>
for tis</w>
cor d</w>
cha dian</w>
bor g</w>
th umb
re ed</w>
r il
r ations</w>
peuge ot</w>
nac ional</w>
mosle ms</w>
house hold</w>
fer t
diver ted</w>
derail ment</w>
comple tion</w>
clo ut</w>
char tered</w>
ban ds</w>
ale x</w>
al ities</w>
rum or</w>
reser vo
renov ation</w>
ramp ant</w>
r ington</w>
profe ssion
polit ically</w>
mar ino</w>
li ma</w>
fel ix</w>
dec ry</w>
dec e
de part</w>
cri es</w>
columb us</w>
assur ances</w>
alli anz</w>
wil kinson</w>
us da</w>
sa fina</w>
ray theon</w>
pal mer</w>
ob lig
man -
let ting</w>
har are</w>
foot age</w>
escal ating</w>
equ ities</w>
cyc lon
cross ings</w>
break up</w>
bi ological</w>
be ver
&amp; m</w>
y o</w>
w bo</w>
tit anic</w>
t utu</w>
subdu ed</w>
smo kers</w>
sl ick</w>
rus ed
rused ski</w>
rio ters</w>
requ ires</w>
pric e-
par ad
over shadows</w>
ni x</w>
na ir</w>
mat ch
m ck
kla us</w>
in do
free zing</w>
fer nandez</w>
ea gu
d oo
ch un
bel eagu
an te</w>
wal kout</w>
un ique</w>
swis sair</w>
so e
procu rement</w>
pro p</w>
min im
man hunt</w>
euthan asia</w>
ea rer</w>
ben z</w>
adjour ns</w>
ab s</w>
wol f
vin cent</w>
tor tured</w>
on o</w>
lef t-wing</w>
kar l</w>
k ent</w>
ju ppe</w>
hu mil
ecu adore
convic tions</w>
ck land</w>
child hood</w>
au ckland</w>
ak h</w>
w ill
volun tary</w>
u red</w>
thra sh</w>
te -
t les</w>
su v</w>
stu mps</w>
ster ling</w>
sett ling</w>
ro v</w>
rebu ke</w>
re ig
radic als</w>
qu in
priv ile
pri or</w>
mud slide</w>
gam bia</w>
express way</w>
em bry
dow ning</w>
bell south</w>
b ren
an xi</w>
viol ate</w>
tam e</w>
smal l
re vision</w>
mo i</w>
memo ir</w>
knoc k</w>
k lit
har rison</w>
gra ding</w>
fren ch-
fo unded</w>
f i</w>
di stra
de ton
conten der</w>
con joined</w>
buil ders</w>
bud ge
bree ders</w>
bra dy</w>
bas f</w>
as su
u ci</w>
sub version</w>
sk ul
rog ge</w>
resid ential</w>
repatri ate</w>
pur sues</w>
ox ford</w>
op ers</w>
maurit ius</w>
man sion</w>
leg itim
journal ism</w>
ite z</w>
i ally</w>
homo sexu
foc using</w>
en se</w>
dre w</w>
der iv
def ine</w>
col i</w>
chan nels</w>
bor o</w>
bli zz
ben itez</w>
a to</w>
withdra wing</w>
von n</w>
v or</w>
v oc
uri be</w>
treasu rer</w>
st iff</w>
spen cer</w>
se aled</w>
sanj ani</w>
s oo
resor ts</w>
re sists</w>
raf sanjani</w>
qu ite</w>
ol ive</w>
min i</w>
inc .</w>
gu ides</w>
g b</w>
fla sh
cy clists</w>
ar do</w>
- making</w>
wood ward</w>
vigil ance</w>
ul l
ter ies</w>
so s</w>
sin ki</w>
sha red</w>
s und
qin ghai</w>
q ing
pro lon
man ded</w>
malay sians</w>
lib by</w>
hel sinki</w>
grand son</w>
f u</w>
b acker</w>
aust in</w>
anx ious</w>
w u
ve il</w>
tal lest</w>
resid ent</w>
produc tive</w>
out sour
n ick</w>
li van</w>
jo ke</w>
fre qu
expe dition</w>
cyber space</w>
bar racks</w>
win sky</w>
wal ter</w>
ven d
str ang
re united</w>
my space</w>
mar k
le winsky</w>
k h</w>
j ag
iv or
inf rin
ic ahn</w>
hol mes</w>
dra fts</w>
d ens</w>
crocod ile</w>
compe ting</w>
comman dos</w>
bri d
bar nes</w>
assum es</w>
#n d-quarter</w>
z hen
to bago</w>
stun t</w>
sing ing</w>
ro ve</w>
re present</w>
me ss</w>
loy alty</w>
lat e-
la gs</w>
inter views</w>
ic elan
g ig
front- runner</w>
e up</w>
dec reas
alumin um</w>
ac ted</w>
abor tions</w>
y ards</w>
supp liers</w>
sha q</w>
sa g</w>
s and</w>
pu mps</w>
pit t</w>
picas so</w>
pa d</w>
p its</w>
lie ch
liech tenstein</w>
la v
knoc ked</w>
ie a</w>
hel l</w>
ff ed</w>
ec ti
con doms</w>
car l
bur g
be e</w>
am in</w>
ab b</w>
ye e</w>
wo ol
uni form</w>
un lea
skele ton</w>
second- round</w>
ro b</w>
repla cing</w>
qu ic
pregn ancy</w>
pre mature</w>
m u</w>
lu k
i for</w>
ghana ian</w>
fo ils</w>
extradit es</w>
alcat el</w>
ac as</w>
symbol ic</w>
ste als</w>
sh ri
qu ad
pro te
pred ators</w>
pedoph ile</w>
palme iras</w>
nat ives</w>
mon arch</w>
mat the
ma sk
loc ation</w>
lo aded</w>
instru ments</w>
gener ic</w>
en e</w>
e ts</w>
dig s</w>
celebr ating</w>
b np</w>
as ed</w>
anti- aids</w>
al- maliki</w>
al igned</w>
abol ish</w>
wau kee</w>
wa shes</w>
us er</w>
stru ct</w>
strong man</w>
sino- us</w>
rev ital
o cho
ocho a</w>
mil waukee</w>
ivan ovic</w>
iraq -
gren ada</w>
fun c
flo ur
c ry
bu cs</w>
bi ble</w>
besi eged</w>
anti- nuclear</w>
acceler ates</w>
a ston</w>
under mine</w>
tri athlon</w>
ste p
spani ards</w>
recor ding</w>
prov ider</w>
plagu ed</w>
phil harmon
philharmon ic</w>
mortg ages</w>
mor t
mon ster</w>
lob bies</w>
la ser</w>
ist ry</w>
gen .</w>
dis close</w>
di ox
comb ine</w>
com pul
com o
chem istry</w>
c -
bc-na -gen</w>
attemp ting</w>
yang on</w>
wach ov
wachov ia</w>
th ood</w>
sul livan</w>
sof ia</w>
pup ils</w>
pra ys</w>
pe e</w>
lar sson</w>
l ju
hat -
ham as-
g ate
fun ction</w>
foren sic</w>
dy nasty</w>
de ter</w>
de mos</w>
control ling</w>
ca ve</w>
bri de</w>
bow ling</w>
bl n-
beng als</w>
bau er</w>
b t</w>
arab ian</w>
y man</w>
x vi</w>
vaj pa
vajpa yee</w>
squ ads</w>
ra ik
raik kon
raikkon en</w>
pe st</w>
n l</w>
maz da</w>
hy dro</w>
hamp ers</w>
el e</w>
car acas</w>
buddh a</w>
## ##
w ash</w>
trans it
tack ling</w>
sov ie
scen es</w>
ri e</w>
ne st</w>
me -gen</w>
k arab
karab akh</w>
jun ction</w>
inv it
habit at</w>
gree tings</w>
fo ss
ed it
drough t-
dak ota</w>
cu omo</w>
cor rid
body guard</w>
beleagu ered</w>
ba o</w>
associ ate</w>
###- million-dollar</w>
up ward</w>
tornad oes</w>
soe harto</w>
re v</w>
re ply</w>
que ens</w>
quar antin
plea s</w>
nav igation</w>
home -
grow n</w>
football er</w>
dru g
conce ssion</w>
compli ance</w>
assi sts</w>
voy age</w>
us sis</w>
stre ssed</w>
spani ard</w>
sle e
sanc tuary</w>
reviv ed</w>
renew able</w>
petro chemical</w>
lo ween</w>
hal loween</w>
exemp tion</w>
da o</w>
d ome</w>
clon ed</w>
cen ter-
bangladesh is</w>
bag g
ar n
war lords</w>
symp hony</w>
swa zi</w>
sum it
sumit omo</w>
subpo ena</w>
stro m</w>
stea d
speci alist</w>
smoo thly</w>
sk ids</w>
ri al</w>
rej ecting</w>
r hin
presen ted</w>
phil os
par d</w>
lar gely</w>
holy field</w>
go ta</w>
gest -
fer n
esp n</w>
el le</w>
doom ed</w>
diamon ds</w>
ck ed</w>
ch im
car maker</w>
c arre
bo gota</w>
ban g</w>
au x
trade mark</w>
teen- ag
susta ined</w>
succe ssion</w>
show case</w>
shel ters</w>
scan din
polygam ist</w>
oc h</w>
mud slides</w>
implic ated</w>
il li
hind us</w>
he ated</w>
he at
hat- trick</w>
ger -
fundamental ists</w>
eg an</w>
destro ying</w>
confe ssion</w>
con tested</w>
ban co</w>
an hui</w>
all o</w>
a ek</w>
#, ###.#</w>
transit ional</w>
scol ari</w>
reti en</w>
publish ers</w>
publ ication</w>
pro gre
per forms</w>
o zone</w>
nu clear-
nab s</w>
monarch y</w>
mo dif
mar ries</w>
ko h
jordan ians</w>
i ka</w>
hoolig ans</w>
heal ing</w>
elimin ates</w>
ch retien</w>
cal en
az iz</w>
ar ray</w>
ar gues</w>
anti- missile</w>
se ars</w>
philanthro p
out cry</w>
lu kash
lukash enko</w>
gun fight</w>
guil d</w>
fran cis</w>
dest ination</w>
consul tation</w>
con tention</w>
arch diocese</w>
a spir
un identified</w>
tu mor</w>
sk iers</w>
simil ar</w>
ro mario</w>
pir ated</w>
phil ippo
philippo ussis</w>
per si
parliament arians</w>
p ie
on ium</w>
occu pi
mus even
museven i</w>
man ning</w>
loo se</w>
ligh ting</w>
klit sch
k p
in forman
har t</w>
flo ating</w>
fe dex</w>
domin ance</w>
dee pen
con vinc
bu zz</w>
ad mission</w>
y e</w>
wrong doing</w>
traw ler</w>
su icides</w>
spec if
set backs</w>
sco ts</w>
round -the-
righ tist</w>
k le
four- day</w>
fit ch</w>
euro star</w>
e h
co- founder</w>
co oper</w>
cep tion</w>
c un
c ers</w>
bu re
we i</w>
uph ill</w>
tom my</w>
sup ple
st ic
ser ge
r hy
qur an</w>
privat ize</w>
o h</w>
nomin ate</w>
mete or
jagu ar</w>
f lin
embar ra
de pend
comm er
brea st
bou ght</w>
bar ca</w>
vi agra</w>
ton ight</w>
team mates</w>
suzu ki</w>
sul tan</w>
sou p</w>
s les</w>
rober tson</w>
licen sing</w>
hal ting</w>
ga o</w>
exec ute</w>
dif ference</w>
d ine</w>
cul tiv
cous in</w>
blo gger</w>
bc- me-gen</w>
assi sted</w>
unil ever</w>
tru ste
tel smann</w>
sw at</w>
stra w
sou r</w>
roman ce</w>
re election</w>
pharm ac
mist rial</w>
man datory</w>
john ny</w>
im possible</w>
ic y</w>
h tar</w>
ger ald</w>
g len
exclu sive</w>
dan i
cost- cutting</w>
cl one</w>
ca sey</w>
bla zes</w>
ber telsmann</w>
ant ly</w>
ag ne</w>
tablo id</w>
stu mble</w>
shr inking</w>
sel ler</w>
q ian</w>
ma st
lo tt</w>
klitsch ko</w>
inc iting</w>
yo l</w>
troun ces</w>
sum mon
sn ea
re organization</w>
re counts</w>
qu itting</w>
pos it
pat ch</w>
m ly</w>
leic ester</w>
kath mandu</w>
i po
home coming</w>
he bei</w>
fun ny</w>
flexi ble</w>
entreprene ur</w>
eg g</w>
ed ly</w>
dis sent</w>
clin ics</w>
char lotte</w>
calen dar</w>
c us
bot ched</w>
tu l
trib es</w>
tex ans</w>
small pox</w>
ro s
require ment</w>
rebel -held</w>
read ers</w>
re mit
nine- month</w>
nan cy</w>
n ino</w>
lo han</w>
k shire</w>
it able</w>
imper ial</w>
fe el
expor ter</w>
explo rer</w>
comfor table</w>
chec king</w>
brus h</w>
an them</w>
ta ine
sum ed</w>
str a</w>
ro ws</w>
raf ter</w>
pre sumed</w>
n ity</w>
n if
lacklu ster</w>
invent or</w>
har ds</w>
h ide</w>
fran co</w>
ec tives</w>
con tests</w>
b- share</w>
am ph
ad mira
war- torn</w>
un manned</w>
sud den
physic ist</w>
paralymp ic</w>
organ ic</w>
monteneg rin</w>
m ock</w>
humil i
ho ya</w>
hke ######</w>
franch ise</w>
f ading</w>
ex- premier</w>
enh anced</w>
el ler</w>
bullet in</w>
bre wer</w>
big -
anti bio
amp ut
w ie
vis a-
ull rich</w>
tw enty</w>
surviv ing</w>
sta di
stadi ums</w>
so der
sh ima</w>
s its</w>
outsour cing</w>
mig uel</w>
limit ing</w>
le e
la sting</w>
embar ks</w>
dis closes</w>
dan es</w>
blan ca</w>
avo iding</w>
ya h</w>
vie ira</w>
triump hs</w>
tif ication</w>
sp i</w>
solom ons</w>
si r</w>
shi elds</w>
scri pt</w>
ri m</w>
rela x</w>
pea s
mid night</w>
in fin
human ity</w>
hea da
ha ider</w>
h m
h ip
fa hd</w>
e- commerce</w>
defen se
counter terrorism</w>
clar ify</w>
c ease</w>
bet ter-
bea uti
assaul ting</w>
alleg ing</w>
x y</w>
worl d-
weaken ing</w>
w ise</w>
tra u
to ya</w>
tc u</w>
ta kers</w>
satur n</w>
interven es</w>
integr ity</w>
hot line</w>
ga e</w>
fran co-
en counter</w>
def ault</w>
deal ings</w>
cra w
conten tious</w>
ca vs</w>
an dean</w>
ador n</w>
ab sol
unco vers</w>
un employed</w>
tar io</w>
ta sh</w>
syn drome</w>
sw in
spec ulat
sof tens</w>
self- rule</w>
rus sell</w>
righ t-
reneg ade</w>
re pression</w>
re ign</w>
pac ker</w>
ow ns</w>
on tario</w>
new born</w>
in stalled</w>
home owners</w>
hard liners</w>
half way</w>
gaz a-
for d
experim ental</w>
ev al
eval uation</w>
e iro</w>
d f</w>
condit ion
c r
barbar a</w>
ba var
ator ship</w>
argu ment</w>
admira l</w>
z bank</w>
thir teen</w>
ste in
sex -
sel lers</w>
sculp ture</w>
re play</w>
page ant</w>
mini bus</w>
mar ion</w>
israel- palestinians</w>
in junction</w>
hi ro
h arm
evic tion</w>
ell o</w>
di ar
commer zbank</w>
beat les</w>
bar ring</w>
. ##</w>
w rist</w>
v as
spoke swoman</w>
smugg le</w>
sil k</w>
rit ual</w>
recor ded</w>
re claim</w>
r attle</w>
pur suing</w>
pro vision</w>
pro hib
pe t
money- laundering</w>
modern ize</w>
metro stars</w>
li ability</w>
k man</w>
influ x</w>
en de
e v</w>
dri ft</w>
de scen
co ws</w>
ca yne</w>
c as</w>
bo tt</w>
b ath
ang le</w>
a ided</w>
tam ils</w>
secon ds</w>
relea sing</w>
r ard</w>
phys ics</w>
per ing</w>
open -
n ipp
k line</w>
jo y
ine vit
in land</w>
he fty</w>
fl are</w>
ecuadore an</w>
draf ting</w>
dismant ling</w>
d ged</w>
coun ters</w>
consolid ation</w>
cir cul
byp ass</w>
blan k</w>
at mo
al ber
zar ago
zarago za</w>
win frey</w>
s lated</w>
rein states</w>
pip elines</w>
peps ico</w>
moun taine
hat red</w>
gu itar
gas es</w>
dis counts</w>
crit er
better- than-expected</w>
ur i</w>
six- year</w>
ri p</w>
promo ter</w>
mon toya</w>
ma son</w>
low- key</w>
ke mp</w>
ir an
hu mor</w>
hen an</w>
gri ff
free- trade</w>
fe t
de signs</w>
de e</w>
can ary</w>
ber g
aven tis</w>
assail ants</w>
am ends</w>
ali ens</w>
weaken ed</w>
spel ls</w>
sco uts</w>
ren am
man ship</w>
lloy ds</w>
l ens</w>
intimid ation</w>
hospital ised</w>
har rington</w>
fer rer</w>
ethiop ians</w>
det ect</w>
conn ected</w>
c ake</w>
bail ey</w>
ba e</w>
am ps</w>
alban y</w>
administrat ive</w>
a did
reput ed</w>
rel l</w>
re calling</w>
price- fixing</w>
pac ked</w>
org ans</w>
nic kel</w>
mur phy</w>
michel in</w>
lat or</w>
in stant</w>
heigh tened</w>
guid ance</w>
feel ings</w>
extra ordinary</w>
es man</w>
do dge</w>
deb ated</w>
cro s
con cept</w>
b lown</w>
b ach</w>
austri ans</w>
ar o</w>
yor kers</w>
win nie</w>
ud ed</w>
trans actions</w>
sp rat
slau gh
poore st</w>
par cells</w>
mea sles</w>
lear ned</w>
l ng</w>
ja b</w>
insp ired</w>
g lor
ex ample</w>
effici ent</w>
dic ts</w>
dam aging</w>
cop ter</w>
cooper ating</w>
ch ner</w>
bis cayne</w>
back up</w>
arra igned</w>
a z</w>
te ga</w>
ta il
sk ater</w>
pen h</w>
memor abil
memorabil ia</w>
lif ter</w>
is a
ic bc</w>
ger rard</w>
gen es</w>
fl yweight</w>
facilit ate</w>
dra gon</w>
dis closed</w>
desi re</w>
cor rec
colom bians</w>
c uses</w>
b af
adv entu
yem en
ti res</w>
ti red</w>
t on-
stu died</w>
re moving</w>
pl ut
ph no
phno m</w>
pa c</w>
lo op
len non</w>
ju ror</w>
ine ken</w>
hu ang</w>
head line</w>
he ineken</w>
fel ler</w>
exam ination</w>
er m</w>
domin ica</w>
distrib ute</w>
coun sel
congratul ate</w>
chol ester
an arch
ab la
- long</w>
young sters</w>
tax ation</w>
t ud
samar an
samaran ch</w>
ro polis</w>
public ity</w>
play wright</w>
per il</w>
or dering</w>
north ridge</w>
no se</w>
ne e
montgom ery</w>
mer cy</w>
lu is</w>
log istics</w>
ke y
in stability</w>
ic e
half- year</w>
ge l</w>
est -
ea ves
de signed</w>
com cast</w>
ch y</w>
bli x</w>
ange l</w>
all- out</w>
a .
town ship</w>
team sters</w>
taxpa yers</w>
tad or</w>
t man</w>
slo t</w>
six teen</w>
sa blanca</w>
reviv ing</w>
re ins</w>
mo sley</w>
m g</w>
leon ard</w>
last- ditch</w>
iv eness</w>
hut ch
free man</w>
fire fighter</w>
en ce-
e- mails</w>
dav ies</w>
country wide</w>
clean- up</w>
ca sablanca</w>
wa yne</w>
up graded</w>
snat ch</w>
skir ts</w>
si kh</w>
ric hards</w>
rat io</w>
me th
lo ads</w>
lat ing</w>
lank ans</w>
kin en</w>
k no
just ified</w>
hamp er</w>
fif teen</w>
deepen ing</w>
cry stal</w>
coun ties</w>
choo sing</w>
can tona</w>
campaig ners</w>
bre w</w>
aq sa</w>
anti- piracy</w>
stra y</w>
sk ate</w>
share market</w>
ri os</w>
ri b
ra ging</w>
qing dao</w>
per sec
or tega</w>
mon au
mom ents</w>
may be</w>
mar ga
marga ret</w>
long- awaited</w>
k iss</w>
k ip
j aff
it on</w>
ic ho</w>
hon oring</w>
h ka</w>
escal ate</w>
deriv atives</w>
cris is
cos monau
bill iton</w>
bay lor</w>
anti- taliban</w>
after shocks</w>
suffici ent</w>
s ory</w>
s ore</w>
pre- tax</w>
phys ical</w>
pa ints</w>
ne ph
magn ate</w>
m ore
ja iling</w>
fruit ful</w>
fire fight</w>
dri ve-
dispat ch</w>
conflic ting</w>
compul sory</w>
campaig ner</w>
au ditors</w>
anti- abortion</w>
an n</w>
### cc</w>
wrest ler</w>
wind fall</w>
shoo t-
sha anxi</w>
se wage</w>
s led</w>
s &amp;
rup iah</w>
profession als</w>
premi ers</w>
par alle
paralle l</w>
osa ka</w>
ni xes</w>
neo- nazis</w>
mo use</w>
ma ier</w>
m ic</w>
ip hone</w>
extin ction</w>
escor t</w>
comm ends</w>
asi ans</w>
#.#- magnitude</w>
ulti mate</w>
tal es</w>
surpris ed</w>
st ain</w>
spect acu
spectacu lar</w>
sh asa</w>
sea sons</w>
ov ich</w>
nif er</w>
n ow
mon key</w>
lam y</w>
kin shasa</w>
ka hn</w>
k aka</w>
jen nifer</w>
ir an-
insp iration</w>
impro per</w>
im ag
ign ites</w>
guitar ist</w>
gram mys</w>
day tona</w>
credi ble</w>
competit iveness</w>
can yon</w>
bo gus</w>
blan c</w>
anti- gay</w>
ac es</w>
venezuel ans</w>
vaugh an</w>
tom bs</w>
tan court</w>
tain an</w>
sudden ly</w>
spring board</w>
sof tball</w>
so sa</w>
s way</w>
rus hes</w>
pl en
per jury</w>
mul til
mon a
med ley</w>
m atters</w>
ly on
lig ent</w>
is ers</w>
in as</w>
ik ova</w>
farm land</w>
coll ector</w>
buy back</w>
be tancourt</w>
b risk</w>
vin t
slu mping</w>
she ik</w>
re pa
prot ects</w>
profit able</w>
paris- nice</w>
p ivo
p h</w>
li p</w>
ki wi</w>
ib u</w>
hiro shima</w>
fav re</w>
el ders</w>
defen ses</w>
cre ative</w>
conn or</w>
coll ects</w>
cli ent</w>
cat er
block buster</w>
bagg age</w>
ath an</w>
we t
wa ive</w>
va .</w>
tri- nations</w>
tow ers</w>
su i</w>
stun ica</w>
spec ter</w>
post ing</w>
par adorn</w>
n afta</w>
ma vs</w>
long- distance</w>
light weight</w>
ko stunica</w>
ke te
jer icho</w>
hormon e</w>
hard- liners</w>
fern ando</w>
cur tain</w>
uph old</w>
team mate</w>
sud den</w>
stal ling</w>
st if
sc attered</w>
ru d
rocke feller</w>
ree f</w>
preven ting</w>
plut onium</w>
nipp on</w>
neg ligence</w>
mi o</w>
le ve
kid d</w>
ip r</w>
fal ter</w>
erad icate</w>
dy s
dep th</w>
de ten
cut backs</w>
con tador</w>
buff er</w>
bar ga
ad ers</w>
ad dis</w>
a &amp;m</w>
w ine
vie ques</w>
ug andans</w>
th ough
summon ed</w>
spot ted</w>
post- election</w>
portfol io</w>
play boy</w>
peter son</w>
pe tit
parad ise</w>
ol ang
min eral</w>
me ga</w>
lo ren
lju bic
ljubic ic</w>
kee pers</w>
k gb</w>
j ay</w>
j -
green land</w>
fa x</w>
defense man</w>
conf id
chas es</w>
bel mont</w>
ation ing</w>
ar son
- of-
y ass
yass in</w>
vand als</w>
urn ikova</w>
sur passes</w>
stom ach</w>
shipp ers</w>
pu mas</w>
pre serv
obst acle</w>
o mar</w>
main stream</w>
lo g</w>
kit chen</w>
k an</w>
jol t</w>
inten tion</w>
icelan dic</w>
hea d-
gaz ans</w>
g ris
fe tches</w>
fal k
fac tional</w>
do kic</w>
dis pos
cor ning</w>
confe ssed</w>
concer ts</w>
conc aca
concaca f</w>
clean ing</w>
clean er</w>
atmo sphere</w>
astronom ers</w>
am bu
alle ge</w>
vic h</w>
ur ry</w>
suspic ions</w>
smith kline</w>
sh am
scand al-
ril ey</w>
philanthrop ist</w>
out door</w>
ou ting</w>
od d</w>
mercen aries</w>
lia ison</w>
la id
l illy</w>
k im
inevit able</w>
fert ility</w>
even ing</w>
ent rance</w>
du mped</w>
diagno sed</w>
clar ifies</w>
c ream</w>
bar rage</w>
ac ropolis</w>
wag ner</w>
us hu</w>
tri g
sh -
ro ars</w>
repatri ates</w>
re unite</w>
pres sured</w>
port land</w>
over turned</w>
o z
no- fly</w>
mus h
mov ements</w>
mon santo</w>
ml b</w>
massac res</w>
j acqu
i bra
gra m</w>
ge m</w>
free way</w>
deva stated</w>
col og
c ans</w>
bel ls</w>
ar di</w>
alle vi
ad venture</w>
achie vement</w>
we t</w>
ts u</w>
tra gic</w>
t as</w>
st en</w>
sk aya</w>
sal mon
s cep
re min
palestinian- israeli</w>
pack ages</w>
no ise</w>
min i-
mc g
m m
m ent-
k ay
ivor ian</w>
ingh i</w>
infrin gement</w>
ill es</w>
hard- line</w>
guin ness</w>
gram m</w>
ed o</w>
di ver</w>
bro oks</w>
bo oms</w>
aqu ino</w>
aler ts</w>
al inghi</w>
you ts</w>
x x
visa- free</w>
ti on-
state hood</w>
sol ic
smal l-
se an</w>
sa ak
saak ash
saakash vili</w>
rit a</w>
pick up</w>
p cs</w>
out spoken</w>
la cro
kur sk</w>
int ent</w>
ge t
four teen</w>
fil ming</w>
erad ication</w>
e- hit</w>
descri be</w>
d ous</w>
coordin ated</w>
bree ding</w>
bow lers</w>
boo sted</w>
after shock</w>
xia oping</w>
ter dam</w>
su m</w>
stun ning</w>
snow fall</w>
rot terdam</w>
ram id</w>
py ramid</w>
o e</w>
mass a</w>
laugh s</w>
ko urnikova</w>
k mart</w>
hip -
hip- hop</w>
gu e
grand mother</w>
g ron
fu mes</w>
fos sett</w>
fore stry</w>
d ash</w>
coun ted</w>
corp ses</w>
con rad</w>
clo se
ch iv
ch eng
bc- yugoslavia-kosovo</w>
v est
under lines</w>
t ut
sub -
stu ff</w>
sp ray</w>
sig nations</w>
reservo ir</w>
re signations</w>
pu dong</w>
pivo tal</w>
m ice</w>
lo cks</w>
lan d-
lah ore</w>
jack ie</w>
hop kins</w>
good year</w>
gate way</w>
fre der
fra me</w>
fire arms</w>
dis ne
corre ction</w>
ca st
bo ar
band its</w>
abla ze</w>
y am
whist le
she ik
sheik h</w>
sco ut</w>
q vist</w>
paedoph ile</w>
neph ew</w>
li en</w>
l has
lhas a</w>
france- klm</w>
euro pa</w>
er do
erdo gan</w>
eng aged</w>
dynam o</w>
down ward</w>
cu ll</w>
corpor ation</w>
con tained</w>
columb ine</w>
collabor ation</w>
classi fied</w>
bid der</w>
y k</w>
wh ir
w ipe</w>
vu el
vuel ta</w>
v ince</w>
ud es</w>
u als</w>
thra shes</w>
sk in
scru tin
san ders</w>
s ch</w>
pl ug
par ach
mor tality</w>
lan ger</w>
hun an</w>
hit a
hita chi</w>
gyp sy</w>
exp atri
ed die</w>
def ectors</w>
cra ig</w>
cen s
at ro
adid as</w>
a er</w>
## ##.#</w>
spr ings</w>
speci alists</w>
song writer</w>
si mul
re voke</w>
po w</w>
m ou
lin e-up</w>
igh ted</w>
i- era</w>
hutch ison</w>
han ou
gre g
glob es</w>
experim ents</w>
eaves dropping</w>
don ated</w>
determin ation</w>
dep ends</w>
deliv ered</w>
con taining</w>
camer aman</w>
asy lu
stor my</w>
rac kete
q om
pol i</w>
pat ents</w>
on y
occupi ed</w>
ning xia</w>
mor mon</w>
mon keys</w>
inaugur ate</w>
hoo ds</w>
exclu sion</w>
der -
c ska</w>
bull pen</w>
automob ile</w>
vo te-
tr un
tough en</w>
s bourg</w>
pulit zer</w>
profe ssors</w>
prec ious</w>
pel e</w>
magaz ines</w>
janu ary-
issu ing</w>
is er
h r</w>
h bo</w>
exam s</w>
ex pose</w>
ec o</w>
e quest
dra in</w>
dr a</w>
do h</w>
diver si
discip linary</w>
deterior ating</w>
deb acle</w>
cour ses</w>
coll ective</w>
wid ening</w>
valu ed</w>
under water</w>
the by</w>
so theby</w>
salmon ella</w>
re actions</w>
prepar atory</w>
plea se</w>
pione ering</w>
over throw</w>
oc o</w>
n pt</w>
memor an
labor atory</w>
is man</w>
in ese</w>
fren zy</w>
frank lin</w>
ear l</w>
court- martial</w>
cor ia</w>
conver s
contin ent</w>
ber ra</w>
## th-
v la
twent y##</w>
straw berry</w>
s noo
rod man</w>
r &amp;
param il
paramil itaries</w>
pad illa</w>
outra ged</w>
offen der</w>
lo mer
leon ean</w>
knoc kout</w>
if ying</w>
ffe y</w>
echo es</w>
dun can</w>
develop ers</w>
de regulation</w>
cong lomer
cater pillar</w>
bu ick</w>
bru tality</w>
bo on</w>
be heading</w>
barga in-
b unk
### k</w>
z ed
tran sl
substanti al</w>
rhy th
rela xes</w>
recommend ations</w>
performan ces</w>
pe te</w>
ml n-
min ense</w>
him al
flu minense</w>
fin ns</w>
ex cav
esp an
dut chman</w>
disrup tions</w>
class -
ben az
benaz ir</w>
asylu m-
as sing</w>
a ar
#, ###.##</w>
writ e-
w aco</w>
tz ky</w>
tor res</w>
tin i</w>
stron gest</w>
ro bo
real istic</w>
peps i</w>
out lawed</w>
out law</w>
o tti</w>
mat tel</w>
marri ott</w>
m oc
lu res</w>
land mines</w>
i os</w>
hay den</w>
gre tzky</w>
est a</w>
dis order</w>
co vers</w>
ch un</w>
carto onist</w>
c ds</w>
bre mer</w>
bit ter
ben nett</w>
bas h</w>
um -
stri ps</w>
sm el
sec ular</w>
sain t-
re opened</w>
pre fers</w>
ox y
out post</w>
lear ns</w>
for tunes</w>
fisher ies</w>
expen se</w>
equest rian</w>
drow ns</w>
drag ons</w>
disrup ted</w>
den ying</w>
cour ier</w>
centur ies</w>
bu bble</w>
bar t</w>
augu sta</w>
year- on-year</w>
win less</w>
will ing
willing ness</w>
und a</w>
sk id</w>
sacrif ice</w>
reloc ation</w>
re signing</w>
r ors</w>
oc cur
mon soon</w>
mil f</w>
li stic</w>
lan dis</w>
gro ss</w>
georg ians</w>
fe ma</w>
ex cell
ed f</w>
dis mal</w>
did n</w>
dict atorship</w>
con struct</w>
colog ne</w>
clif f</w>
check points</w>
bow ler</w>
an za</w>
an tes</w>
amaz on
y i</w>
sovie t-
sey chel
s. f.</w>
revamp ed</w>
quarter -final</w>
qu o
oc alan</w>
n ireland</w>
memoran dum</w>
lo us</w>
ling ers</w>
l il
k ofi</w>
it her</w>
ill -
i ii</w>
glen n</w>
fran cs</w>
electric al</w>
disne yland</w>
ch est</w>
carn age</w>
ba ja</w>
arn old</w>
an ony
advis e</w>
sur pass</w>
show ers</w>
pro- government</w>
premi um</w>
pa r</w>
modern ization</w>
mast erc
masterc ard</w>
lyon na
let te</w>
k ate</w>
intercep ts</w>
if a</w>
i an
h ma</w>
free doms</w>
f ing</w>
dit ions</w>
class- action</w>
bec ame</w>
war ms</w>
w ich</w>
u conn</w>
u be</w>
to sses</w>
to mayor</w>
take off</w>
strength ened</w>
star ter</w>
ss ness</w>
sopran os</w>
so tomayor</w>
sl an</w>
satis faction</w>
qom olang
qomolang ma</w>
prosecut ed</w>
proce ssion</w>
pre season</w>
ol d-
molest ation</w>
ling us</w>
lef tists</w>
impor ting</w>
hel ms</w>
for gery</w>
ental ly</w>
dri fts</w>
cri me
cool ing</w>
col o
chil d-
char ts</w>
be slan</w>
b iz
arab ic</w>
am y</w>
accid entally</w>
aborig ines</w>
zz ling</w>
th under
sub stit
stra sbourg</w>
st ow
sp id
samp le</w>
s&amp; p</w>
qa ida</w>
ph illy</w>
peace -
pe d
op t</w>
nat orial</w>
mort ars</w>
mo ss</w>
mira ge</w>
k wan</w>
iv ity</w>
ho d
hm ong</w>
gu ber
guber natorial</w>
espan yol</w>
di ary</w>
de pic
d h</w>
cran e</w>
centen nial</w>
can berra</w>
cal der
c iller</w>
black mail</w>
bar ade
barade i</w>
archit ec
z in
sw allows</w>
s ers</w>
m our</w>
in dec
f di</w>
en ced</w>
el berg</w>
e to</w>
domin ant</w>
disrup tion</w>
cor al</w>
brew ery</w>
## rd</w>
zar dous</w>
v ent</w>
ut d</w>
ta ie
taie x</w>
re eling</w>
re cycling</w>
q i</w>
po in
petro va</w>
pav aro
pavaro tti</w>
offen ses</w>
mal one</w>
m ish</w>
li s</w>
hear tland</w>
ha zardous</w>
gu am</w>
fl p</w>
fin nair</w>
fanta sy</w>
enjo ying</w>
e br
com ra
col on</w>
bur sts</w>
bo om
beauti ful</w>
as sured</w>
an bar</w>
vo id</w>
vege table</w>
valu able</w>
tur b
tu plets</w>
ten ure</w>
spons ored</w>
shri mp</w>
sh y</w>
ru lers</w>
refin eries</w>
rami rez</w>
prev ents</w>
prestig ious</w>
pe an
p bs</w>
non- aligned</w>
no te
le ste</w>
law i</w>
je vich</w>
her nandez</w>
har per</w>
go jevich</w>
fisher man</w>
drive- by</w>
def ers</w>
circu mc
char lie</w>
can dy</w>
by- elections</w>
ble ssing</w>
bla gojevich</w>
bern ard</w>
ast hma</w>
asser ts</w>
anc est
al lawi</w>
addic tion</w>
ab sor
whir l
web sites</w>
we ds</w>
vis ed</w>
tud j
tudj man</w>
though ts</w>
symp toms</w>
stol -
stol- myers</w>
spar ked</w>
sign ature</w>
sel assi
selassi e</w>
rat ive</w>
paraly zed</w>
mis e</w>
lu ther</w>
local s</w>
list en</w>
le x
kar bal
karbal a</w>
jaff na</w>
gun ners</w>
gover nor
fu jit
fish ery</w>
el der</w>
de valuation</w>
de er</w>
day ton</w>
bro th
bri stol-myers</w>
ab bott</w>
y l</w>
west er
text iles</w>
t i</w>
syri ans</w>
suffe red</w>
stra ined</w>
sor os</w>
sh ville</w>
seychel les</w>
sequ el</w>
schia vo</w>
ren tal</w>
rein stated</w>
record- breaking</w>
rad clif
radclif fe</w>
poa ching</w>
ne utr
na shville</w>
manu el</w>
malaw ian</w>
kor ian</w>
ker korian</w>
in fer
hydro power</w>
gri ffey</w>
g run
fore closure</w>
ern ity</w>
cholester ol</w>
breast stroke</w>
bor row</w>
bal listic</w>
arcel or</w>
ad just</w>
w tc</w>
v ic</w>
ste ers</w>
sp ate</w>
skul l</w>
pri ma
prima kov</w>
oh ana</w>
n ist
merchan t</w>
lu mber</w>
im el
dedic ated</w>
d ness</w>
cre dit
contrib utes</w>
co coa</w>
cit i</w>
brea ches</w>
wid ely</w>
victor ious</w>
us u
tel stra</w>
resum ed</w>
re p</w>
ra h
po urs</w>
os car-
oliv er</w>
mis ph
middle weight</w>
mccar thy</w>
her ald</w>
he misph
fore closures</w>
far ra
el bow</w>
el baradei</w>
dispos al</w>
disc o</w>
da w
competit ors</w>
bud gets</w>
bott le</w>
aver ted</w>
aux erre</w>
alger ians</w>
al a
won ders</w>
we mb
wemb ley</w>
w md</w>
un safe</w>
un ites</w>
tou lo
si hanou
re take</w>
re signed</w>
preva ils</w>
lat ino</w>
juli a</w>
in adequate</w>
if c</w>
head way</w>
h ann
guine an</w>
fe uding</w>
em per
ebr d</w>
dea f</w>
counc ill
ch at
broadca sters</w>
blizz ard</w>
birth place</w>
bal ls</w>
a erial</w>
- related</w>
- general</w>
# h</w>
warri or</w>
v or
un ab
temper ature</w>
socie dad</w>
sal ute</w>
proj ected</w>
pro c
previ ously</w>
off erings</w>
no t
mam mo
loy alist</w>
hy nix</w>
hi kers</w>
gla d</w>
g ba</w>
fac t-
f illing</w>
dro gba</w>
double- digit</w>
cu n</w>
class ical</w>
chil uba</w>
cer ti
bo s</w>
bec k</w>
batt ers</w>
bargain- hunting</w>
am d</w>
advis ors</w>
achie ves</w>
ach a</w>
ab acha</w>
a- share</w>
zen eca</w>
wi de-
ten ders</w>
so dom
ro tation</w>
poc ket</w>
p ages</w>
newcom ers</w>
j- league</w>
is n</w>
ic o
gla c
g lu
fra y</w>
fat ig
dol ph</w>
def used</w>
bra kes</w>
b ris
ag li
' an</w>
un ra
stra uss</w>
spea kers</w>
sor t</w>
se k</w>
rein state</w>
re ne
ra cer</w>
qu ist</w>
organiz es</w>
new man</w>
mie ux</w>
mar sh</w>
loy al</w>
lo go</w>
liber alization</w>
le mieux</w>
fi ber</w>
f eld</w>
drow ning</w>
dom en
direc tly</w>
dec iding</w>
deb t-
corrid or</w>
c lan
battle field</w>
auth ors</w>
a it</w>
st ina</w>
s cent</w>
resi stant</w>
re source</w>
proce eds</w>
pist ol</w>
ne il</w>
me t
l ra</w>
jan eiro</w>
in fighting</w>
i as</w>
gam bian</w>
conf ers</w>
californ ians</w>
c ery</w>
zy rev</w>
tough est</w>
to il
toil et</w>
stat oil</w>
snat ches</w>
sla mmed</w>
sihanou k</w>
si zed</w>
se bast
s bury</w>
rober to</w>
pro visions</w>
pre tty</w>
one- china</w>
o' brien</w>
nat al</w>
mc gra
mani pul
lo dge</w>
le tt</w>
ko zyrev</w>
k ol
int act</w>
ge tty</w>
expor ting</w>
eff ecti
col eman</w>
cat ching</w>
bu mper</w>
bu ck</w>
an and</w>
af ford
z ag
year ly</w>
spa red</w>
smo g</w>
rel la</w>
re unions</w>
re form
patt en</w>
olympi ad</w>
k ang
ju ve</w>
inter bank</w>
infiltr ation</w>
go w</w>
fi xes</w>
ende sa</w>
el ding</w>
e timor</w>
deser ves</w>
cosme tics</w>
bol sters</w>
bicy cle</w>
xi 'an</w>
writ ten</w>
wh ites</w>
walla by</w>
vu it
vuit ton</w>
vic ario</w>
transplan ts</w>
tra cy</w>
tel ling</w>
sund ance</w>
ste er</w>
sodom y</w>
sac red</w>
ran dom</w>
po dium</w>
or al</w>
off sets</w>
nag or
multi media</w>
mor rison</w>
mo tive</w>
mo de</w>
ka ren</w>
inv al
i ques</w>
ha o</w>
fund- raiser</w>
foss ils</w>
fl es</w>
expul sions</w>
em ig
el ton</w>
ec ological</w>
dolph in</w>
dis cord</w>
deple ted</w>
del aware</w>
co x
bro aden</w>
bra d</w>
bo asts</w>
under scores</w>
ul tran
ultran ation
top ic</w>
th under</w>
tee th</w>
tan kers</w>
stev en</w>
st oning</w>
soder ling</w>
sharp ton</w>
sh uns</w>
s m</w>
rw andans</w>
ro en</w>
ro -
pa erson</w>
no oc</w>
nee dy</w>
mur al
infin eon</w>
head scarf</w>
han son</w>
gro up
gren ades</w>
ful fill</w>
conver sion</w>
condem ning</w>
cit roen</w>
chi ang</w>
care y</w>
c nooc</w>
boo ts</w>
b bles</w>
assaul ts</w>
asi s</w>
an ders</w>
un defeated</w>
tr an</w>
the aters</w>
sof ter</w>
sl a</w>
sk an
s ands</w>
r alp
ralp h</w>
pan els</w>
organiz er</w>
organ isers</w>
nov a</w>
ling ering</w>
hostage- taking</w>
gr in
free ing</w>
for sberg</w>
e id</w>
dist ances</w>
di vis
deta iled</w>
dan ube</w>
commit tees</w>
c $</w>
ukrain ians</w>
ter bury</w>
stead ily</w>
st ad
serge ant</w>
sa far
republ ics</w>
ray mond</w>
pre fer</w>
plan ted</w>
p ath
n ak
maj ors</w>
lind h</w>
ith a</w>
illu str
had itha</w>
exemp t</w>
equ als</w>
emper or</w>
da y-
clo oney</w>
char t</w>
can terbury</w>
br and
bil bao</w>
bar bs</w>
am bus
addic ts</w>
ter man</w>
sle ep
sky b</w>
sh a</w>
scen ic</w>
reti rees</w>
re make</w>
persu ade</w>
part ly</w>
out burst</w>
n zealand</w>
moder ates</w>
m #</w>
lyonna is</w>
k lu
jeop ardi
iz et
izet beg
izetbeg ovic</w>
h acking</w>
flo p</w>
eng l
embar k</w>
dis solve</w>
confisc ate</w>
con voys</w>
cen tri
can cun</w>
bomb ard
barric hello</w>
at o
ar u</w>
an as</w>
alex and
- linked</w>
ve y</w>
tun nels</w>
trib utes</w>
toulo use</w>
tit ude</w>
spear e</w>
snoo ker</w>
shake speare</w>
sh earer</w>
sara h</w>
ru lings</w>
roy alties</w>
prea cher</w>
pop py</w>
men u</w>
lo ved</w>
leng thy</w>
la gging</w>
l se</w>
kuwa itis</w>
informan t</w>
friend lies</w>
four- nation</w>
explor ing</w>
en tered</w>
en ly</w>
dig est</w>
commun ique</w>
chiv as</w>
c ci</w>
box ers</w>
ump ire</w>
u ho</w>
turbul ent</w>
treasur ys</w>
tol edo</w>
succe eds</w>
sp erm</w>
san tana</w>
run -up</w>
re settlement</w>
re k</w>
prin ce
pest icide</w>
mc gr
mcgr ath</w>
le ton</w>
langu ages</w>
ip l</w>
intellec tu
gyp sies</w>
fujit su</w>
for giv
fact- finding</w>
f ences</w>
el in</w>
cre mat
confeder ations</w>
conce de</w>
con sci
chec ked</w>
c ents</w>
c b</w>
an- american</w>
an ta</w>
alst om</w>
, ###-
work force</w>
surviv ed</w>
spin off</w>
so e</w>
sel lo
sco m</w>
prov iders</w>
pi erre</w>
ow ens</w>
man ia</w>
low e</w>
k ker</w>
ju k</w>
jo kes</w>
jan juk</w>
is i</w>
interfer e</w>
ing o</w>
ing ers</w>
in tri
hel m
hawa i
gu it
exist ence</w>
di allo</w>
dem janjuk</w>
cra zy</w>
co ul
ca ir
bound ary</w>
bob sled</w>
bl under</w>
autonom ous</w>
ase m</w>
argent ines</w>
ar che
an gu
wolf sburg</w>
viol ates</w>
vic tor</w>
under sea</w>
un t</w>
tric ks</w>
tha w</w>
tan ces</w>
syndic ate</w>
sur charge</w>
sp ice</w>
s p</w>
recomm ended</w>
r al
public ly</w>
piz za</w>
par ib
parib as</w>
pac king</w>
p per
norwe gians</w>
mc donnell</w>
lind say</w>
id o</w>
hit a</w>
fo unders</w>
fac t</w>
explo itation</w>
deva station</w>
ce os</w>
bro m</w>
bra ss</w>
be v</w>
bat ter</w>
back stroke</w>
as m</w>
ad rift</w>
ww f</w>
w end
v iral</w>
un ify</w>
un ifor
stol e</w>
stock piles</w>
st es</w>
some times</w>
re pris
play station</w>
pi az
piaz za</w>
p ie</w>
out posts</w>
orph an
oil field</w>
mural it
muralit har
muralithar an</w>
ke ith</w>
ju ice</w>
it t</w>
heav en</w>
fac tors</w>
el ka</w>
d ire</w>
d ary</w>
cong est
con dom</w>
cla mps</w>
bri st
boun ty</w>
b skyb</w>
amazon .com</w>
acti c</w>
th ys
techn ique</w>
tas ks</w>
sw ear</w>
shru g</w>
roo y</w>
rif ts</w>
reloc ate</w>
reg arding</w>
pro ton</w>
nist el
nistel rooy</w>
ner ves</w>
n. j.</w>
mis use</w>
lic ence</w>
inten ded</w>
home made</w>
ge br
fir mly</w>
farra khan</w>
experi ences</w>
de mise</w>
cop y</w>
combat ants</w>
bo de</w>
anti- secession</w>
accep ted</w>
' ve</w>
wit z
volat ility</w>
vit amin</w>
vi era</w>
ta ble
susp ending</w>
sp y
sea son
ro sen
plot ter</w>
pe sos</w>
oper ative</w>
ob am
mon te
let terman</w>
ke egan</w>
k ou
je ter</w>
il ova</w>
host ilities</w>
haun ts</w>
haun t</w>
hart ford</w>
gal ile
fir ings</w>
bu c
br illi
be ers</w>
bas in</w>
assu me</w>
z von
zvon areva</w>
yn n</w>
whit ney</w>
us er-
ud a</w>
three- month</w>
ste en</w>
sp am</w>
slu r</w>
rob in</w>
ren a
rena issance</w>
pe pper</w>
paraly zes</w>
out ages</w>
olymp ian</w>
mut il
le an</w>
kazak stan</w>
k ley</w>
ico ast</w>
ic -
i bility</w>
gu ly</w>
gan guly</w>
face- to-
emo tions</w>
ecuador an</w>
dp r</w>
dor ia</w>
criter ia</w>
con e</w>
brief ing</w>
black outs</w>
bas ket</w>
ar ism</w>
ad am</w>
waiv er</w>
v at</w>
tor re</w>
sur rounds</w>
stock pile</w>
spi elberg</w>
son ia</w>
score less</w>
re launch</w>
poe try</w>
mar tin
mar gins</w>
luc rative</w>
lu cia</w>
l ly</w>
k c</w>
identi fication</w>
ic ek</w>
ic ates</w>
gro cery</w>
fundamental ist</w>
falk lands</w>
come t</w>
che ese</w>
ca de
attra ction</w>
alter natives</w>
x ie</w>
whistle blower</w>
v ine</w>
up grading</w>
ter sen</w>
slee ping</w>
sea food</w>
road blocks</w>
resid ency</w>
polit an</w>
mistak en</w>
metro politan</w>
marty rs</w>
mar ia</w>
liqu id</w>
ir ri
indo -
implemen ting</w>
for ged</w>
five- day</w>
fi asco</w>
ep o</w>
el a</w>
din k</w>
de en</w>
com pon
b am
av i</w>
audit or</w>
angel ina</w>
an elka</w>
thwar ted</w>
rela xed</w>
re al-
pun ishes</w>
premi ums</w>
par cel</w>
leg ality</w>
jo spin</w>
j as
innov ative</w>
goo sen</w>
fl urry</w>
fin alizes</w>
dor f</w>
domen ech</w>
d wind
cra cking</w>
cock pit</w>
c ron
be tis</w>
be re
aut ism</w>
### b</w>
tha i-
sear chers</w>
sc rat
round-the- world</w>
robin ho</w>
releg ation</w>
o' connor</w>
mat ically</w>
ma ori</w>
ma il
la ying</w>
ke st</w>
ju mper</w>
in comes</w>
he sit
gre mio</w>
gib bs</w>
gar den
g .</w>
feat uring</w>
fe -
diver se</w>
demol ish</w>
conver ge</w>
consul ting</w>
coa sts</w>
c ade</w>
bar on</w>
arch ive</w>
an he
am ese</w>
- south</w>
z ni
wo zni
witz ki</w>
wel ter
welter weight</w>
vi er</w>
t ments</w>
spring steen</w>
sp lash</w>
sca res</w>
prince ton</w>
pre feren
pal a</w>
ne ft</w>
mask ed</w>
lo wered</w>
lea fle
j al</w>
it te</w>
ira sia</w>
interfer ing</w>
im plant</w>
hon est</w>
hit ter</w>
fe ather
feather weight</w>
fa st
explo it</w>
empha sis</w>
disarm ing</w>
cre w
com pact</w>
cig ar</w>
chair s</w>
brig ades</w>
bow ls</w>
a irasia</w>
y ama</w>
wy oming</w>
west wood</w>
u els</w>
techn ological</w>
surge ons</w>
steel maker</w>
sn ar
sh atters</w>
ser b-
over dose</w>
o co
mean ing</w>
madagas can</w>
law rence</w>
jef fer
ja il
h ig
flin toff</w>
fe min
ex- rebels</w>
edit orial</w>
down graded</w>
det ectives</w>
dan one</w>
crus ade</w>
councill or</w>
consolid ates</w>
col ors</w>
cla mp</w>
ch a</w>
calder on</w>
belar us
ban e</w>
at er
wu han</w>
vo ked</w>
ven ables</w>
tru m
tribun als</w>
sus an</w>
star -
stabil izing</w>
shut out</w>
see ker</w>
ri x</w>
qu iz
pro- independence</w>
par ity</w>
p id</w>
opin ions</w>
open ness</w>
og na</w>
mobil ize</w>
mission aries</w>
mir ror</w>
minist ries</w>
milit ar
lot us</w>
lo dges</w>
lay off</w>
ign ment</w>
if fe
id a-
i bank</w>
he els</w>
forgiv eness</w>
deten tions</w>
depar ting</w>
de a</w>
da i
d as
cit ibank</w>
ch is
c ec
bol ogna</w>
a bound</w>
tur tle</w>
ts b</w>
tren ds</w>
t ants</w>
sc in
ro bre
robre do</w>
ri ble</w>
refu lly</w>
re scin
ra o</w>
purchas ing</w>
pu zzle</w>
pre view</w>
om en
n uns</w>
mar c</w>
gu iz
go sp
go gh</w>
gen ome</w>
ge ments</w>
fri gate</w>
fair ly</w>
ex- dictator</w>
e tti</w>
do main</w>
di min
cross- straits</w>
circumc ision</w>
cab les</w>
ca refully</w>
budge t-
bu sted</w>
black stone</w>
be tra
avalan ches</w>
ak htar</w>
af raid</w>
wal ls</w>
uigh ur</w>
to golese</w>
ta res</w>
stri ve</w>
stri de</w>
sci ences</w>
sa ki</w>
reform ists</w>
rab ies</w>
pro per</w>
par don
mit ting</w>
mis leading</w>
mat t</w>
m i</w>
leg ion
kis singer</w>
kin kel</w>
is ner</w>
irri gation</w>
inter cept</w>
house holds</w>
hein z</w>
hec tares</w>
glax o</w>
gebr selassie</w>
g ill</w>
f law</w>
eu m</w>
el se</w>
ear ning</w>
e ber
deplo ying</w>
dar k
dam s</w>
conn ect</w>
bar kley</w>
ab aba</w>
woo dy</w>
tour ing</w>
sy rac
syrac use</w>
samp doria</w>
ri viera</w>
rackete ering</w>
pi ano</w>
or mittal</w>
loo t</w>
leg s</w>
la sts</w>
invit ational</w>
inj ects</w>
hon g
heat wave</w>
gr ill</w>
glac ier</w>
ger ry</w>
e ti
di al</w>
comm uters</w>
co ols</w>
bo j</w>
be y</w>
bas s</w>
att rib
arch ery</w>
arcel ormittal</w>
adel aide</w>
ut en
unanim ous</w>
th ick</w>
t ick</w>
stra zeneca</w>
si a-
s ag
ren s</w>
re joins</w>
re di
poll uted</w>
p g</w>
mp y</w>
mogu ls</w>
mistak enly</w>
men to</w>
mcg wire</w>
luk oil</w>
intellectu als</w>
fol ey</w>
floo d
fit z
craw ford</w>
cors ican</w>
constit u
c ba</w>
b n</w>
am os</w>
al- zarqawi</w>
air -
a strazeneca</w>
tur tles</w>
stro kes</w>
sn ake</w>
scient ology</w>
reserv ists</w>
psych ological</w>
prov ided</w>
pea ks</w>
patter n</w>
over shadow</w>
op e</w>
no- karabakh</w>
nan tes</w>
nagor no-karabakh</w>
mona stery</w>
m cra
mcra e</w>
lon don
lo ves</w>
indic tments</w>
inclu sion</w>
in action</w>
h icks</w>
en roll
def aul
damp en</w>
coa st
cam illa</w>
biof uel</w>
##. #-
union ists</w>
un cle</w>
u lous</w>
t ir
sum mon</w>
su la
str ands</w>
stal king</w>
spot lights</w>
show ed</w>
sh ining</w>
re fra
quarantin ed</w>
provoc ative</w>
produc ed</w>
peas ants</w>
ov ed</w>
on ext</w>
o dys
no- show</w>
nichol s</w>
min erals</w>
ma dison</w>
lus aka</w>
liber ties</w>
kraj icek</w>
je ep</w>
ir win</w>
in her
honey well</w>
football ers</w>
festiv ities</w>
explo ded</w>
eur onext</w>
en ce
dissol ved</w>
dis content</w>
dis array</w>
dan ao</w>
crisis -hit</w>
car roll</w>
bulgar ians</w>
ber kshire</w>
bar ings</w>
arre tt</w>
ar is</w>
anim ation</w>
am b
ab er
ab ble</w>
vis ible</w>
v asco</w>
tough ens</w>
ton gue</w>
supre mac
sor row</w>
shoot- out</w>
sha h</w>
sello ff</w>
poll uting</w>
pla inti
p &amp;
o go</w>
mun itions</w>
kam pala</w>
indian- controlled</w>
indefin ite</w>
h mo</w>
grat eful</w>
ferre ira</w>
ear liest</w>
e wing</w>
dra stic</w>
counterfe iting</w>
bran son</w>
adv ancing</w>
a hold</w>
un aware</w>
su vs</w>
spo uses</w>
secon dary</w>
school children</w>
sam uel</w>
sac ra
ri p
rea ks</w>
re hear
pri me
po sted</w>
pa ins</w>
over takes</w>
o use</w>
multil ateral</w>
mob ster</w>
kin der
kinder gar
kic ked</w>
ist er</w>
ingh ouse</w>
inf ec
her al
g ia</w>
fran co
evangel ist</w>
divis ive</w>
dig ging</w>
convers ation</w>
confisc ated</w>
col o</w>
clo sings</w>
cal i</w>
but t</w>
brun o</w>
as ar
anti- poverty</w>
ali to</w>
vol ta</w>
vat ar</w>
vacc inations</w>
ur u</w>
un authorized</w>
tu ch
tuch ova</w>
super sonics</w>
subscri bers</w>
slu m
slum dog</w>
sear ched</w>
scandin avian</w>
sal om
salom on</w>
reig ns</w>
recip es</w>
ra ided</w>
r bs</w>
prov ing</w>
pre dece
predece ssor</w>
ph ony</w>
persec ution</w>
par e</w>
ot ism</w>
note book</w>
no ble</w>
nation alization</w>
mon th-
mi ers</w>
maver ick</w>
lo cu
lit t
inter state</w>
ic ated</w>
han tuchova</w>
gradu ation</w>
go tti</w>
flash point</w>
ff y</w>
fatig ue</w>
ex x
eth ical</w>
et te</w>
enthusi asm</w>
dl ers</w>
diver sion</w>
dis gu
de rers</w>
ch at</w>
cambo dians</w>
cab le
bas ics</w>
bah t</w>
ambu lance</w>
al arms</w>
ag n
afford able</w>
adju sts</w>
abil ities</w>
a vatar</w>
- office</w>
# d</w>
user- busch</w>
transpa rent</w>
tan g</w>
ta o
specif ic</w>
shan xi</w>
sel ig</w>
s mile</w>
rou x</w>
ro sa</w>
restric ted</w>
re tar
ray ama</w>
pre cautions</w>
popul ist</w>
pois on
petro china</w>
over hau
mu rayama</w>
mal uk
loren zo</w>
lo p</w>
l ira</w>
l ille</w>
l '
kic king</w>
iran ian-
injur y-
hu go</w>
hu bei</w>
homosexu ality</w>
her sh
gymna st</w>
govern ment-
fe arful</w>
e .
du i</w>
discip lined</w>
das ch
dasch le</w>
cox net</w>
co- operation</w>
carre four</w>
ar cher</w>
anhe user-busch</w>
ang lo
ac a</w>
wa b</w>
vint age</w>
u ke
ste e
sof ten</w>
smal lest</w>
sever ance</w>
score rs</w>
sch wab</w>
s wells</w>
s cam
ric hes</w>
question able</w>
person ality</w>
one- time</w>
no witzki</w>
mo ea</w>
lu gg
lugg age</w>
lav ish</w>
i en</w>
hyp e</w>
ho e</w>
hid dink</w>
gor ge</w>
fu eling</w>
fle ming</w>
et na</w>
di er</w>
bar gaining</w>
ar ats</w>
air man</w>
a shore</w>
vla di
tele vised</w>
sub marines</w>
squ abble</w>
spee ches</w>
shor ter</w>
ru pee</w>
ri a</w>
preven ted</w>
oxy gen</w>
min us</w>
mechan ics</w>
le on</w>
insp ire</w>
indic t</w>
in bev</w>
hide out</w>
hear st</w>
has san</w>
hang zhou</w>
griev ing</w>
f is</w>
con fu
certif ication</w>
bus -
bombard ment</w>
aven ge</w>
assass inate</w>
al isation</w>
z ine</w>
vend ors</w>
ump ires</w>
two- month</w>
troun ce</w>
tor ched</w>
thir ty-
ta kan
st ering</w>
sal z
sacra mento</w>
s lander</w>
rho de</w>
r ite</w>
pri us</w>
poa chers</w>
pic ket</w>
pe de
ow ed</w>
or a</w>
ne gie</w>
nag ano</w>
mit t</w>
mas ks</w>
li able</w>
lean ing</w>
lau rent</w>
insu red</w>
inf ants</w>
imel da</w>
ho y
hend erson</w>
ha ifa</w>
fab ric
da ve</w>
compa res</w>
car negie</w>
body guards</w>
bo at
bel ize</w>
be e
bal la
back -to-
asia- europe</w>
air liners</w>
ab i
wheel chair</w>
week -long</w>
v ista</w>
trans lator</w>
the at
than k</w>
tan cy</w>
sun ny</w>
sum mits</w>
stre tches</w>
sid ers</w>
seiz ures</w>
san itation</w>
road block</w>
re ra</w>
rain y</w>
no v</w>
newcom er</w>
mu m
me tal
matthe w</w>
loc ate</w>
ho bart</w>
gol fers</w>
fiv b</w>
fi re-
evalu ate</w>
enroll ment</w>
ej ected</w>
ea sy
det ects</w>
del ighted</w>
d- day</w>
chair manship</w>
ch al
bin ding</w>
bal k</w>
austral ia-
atta ches</w>
am gen</w>
af e</w>
ab ra
#x ###m</w>
tro l
ti dal</w>
surro unding</w>
sto ke</w>
stabil ization</w>
se ve
sch il
schil d</w>
s well</w>
s lowed</w>
rain fall</w>
oo s</w>
odys sey</w>
motor ists</w>
min h</w>
mel am
mber g</w>
label ing</w>
im posing</w>
he ath</w>
har old</w>
guil t</w>
gla s
faul ted</w>
extrem ely</w>
du es</w>
dispat ches</w>
del icate</w>
defl ation</w>
concent ration</w>
c io</w>
bor ough</w>
bo o</w>
billi on-euro</w>
bar tol
ar re</w>
anti- u.s.</w>
an gering</w>
aff ecting</w>
ab e</w>
z ulu</w>
we si</w>
unifor ms</w>
un ting</w>
two- week</w>
tion ally</w>
thro at</w>
ta bility</w>
sula wesi</w>
ss woman</w>
ship building</w>
river a</w>
retali ate</w>
restric tion</w>
petit ions</w>
pay roll</w>
p ri</w>
nic klaus</w>
le uke
le d
guit ar</w>
ge red</w>
gan su</w>
establ ishing</w>
defin ition</w>
cyclon e-hit</w>
congest ion</w>
con oco
commemor ation</w>
comman do</w>
ch ip
ca sting</w>
bu sts</w>
bott les</w>
bil ities</w>
bc-na -
attrac ting</w>
at ter</w>
asse sses</w>
adventu rer</w>
adop tions</w>
west inghouse</w>
we l</w>
vou chers</w>
un official</w>
tus s
tra ils</w>
thro wer</w>
spr inger</w>
spar king</w>
sp he
show cases</w>
rus hed</w>
rud d</w>
ro sy</w>
remit tances</w>
re tro
re ct</w>
qu ant
pover ished</w>
plat in
platin um</w>
pay out</w>
patri otism</w>
ore al</w>
o smithkline</w>
may weather</w>
math em
mathem at
jagu ars</w>
infec tious</w>
in san
im poverished</w>
glax osmithkline</w>
fron ts</w>
fen cing</w>
del u
d anny</w>
cricke ter</w>
cow boy</w>
color ful</w>
brit ish-
bla sphe
be ware</w>
bar ge</w>
ban corp</w>
an ce
all er
academ ics</w>
z la</w>
vand alized</w>
thir ds</w>
sign atures</w>
short- course</w>
sc ary</w>
rup p</w>
pac qu
near -
n. h.</w>
n ia</w>
merchan ts</w>
mani pu
ly le</w>
line backer</w>
ite m</w>
ipp ed</w>
hu d</w>
h ir
gest- ever</w>
flo ats</w>
fire cra
em ed</w>
dis ability</w>
deal t</w>
d ant</w>
con temporary</w>
con federation</w>
blan kets</w>
advoc acy</w>
a xes</w>
a venue</w>
wa ke
wa hid</w>
var iety</w>
us- iraq</w>
up state</w>
un popular</w>
ta d</w>
str e</w>
stic king</w>
soviet- era</w>
scri pts</w>
roy alty</w>
re scheduled</w>
per ks</w>
nu re
munici pal
mar quez</w>
mar co</w>
maluk u</w>
lea f</w>
k la</w>
ion ed</w>
ho ok</w>
gosp el</w>
gil lette</w>
gen oa</w>
fo x
exam ining</w>
don ovan</w>
det ection</w>
den k
decreas es</w>
declar ing</w>
cor ner
consul ts</w>
con test
charac ters</w>
car di
brow ser</w>
br e</w>
bor ro
bo e</w>
ban ner</w>
bal ks</w>
ang lo</w>
al tered</w>
al arming</w>
- in-law</w>
w ick</w>
trou pe</w>
techn iques</w>
sn ags</w>
sli pping</w>
scre ens</w>
sch ny
schny der</w>
s ob
rein forces</w>
recip i
recipi ents</w>
rec ipe</w>
pu mping</w>
pra g
po ster</w>
pla stics</w>
oblig ations</w>
ob tain</w>
ne o</w>
ma dele
madele ine</w>
lig a</w>
ke t
k rouge</w>
it z</w>
inv en
in dy
id le</w>
ic t</w>
h off
gron holm</w>
gra v
gat t</w>
er- than-expected</w>
elli s</w>
educ ator</w>
danc ers</w>
control ler</w>
conf er</w>
conduc ted</w>
chan g
brig ade</w>
box -office</w>
at oes</w>
as ser</w>
ab rup
a ren
y ong</w>
wozni ack
wozniack i</w>
wor thy</w>
wel lington</w>
u c</w>
tra iler</w>
three- way</w>
ten or</w>
t sm
t ise</w>
su it
stal in</w>
sin opec</w>
si e</w>
scholar ship</w>
rev .</w>
pur ported</w>
protest ants</w>
po ker</w>
pl ying</w>
p m-
ov ina</w>
observ ation</w>
ne tic</w>
n ate</w>
min e
me z</w>
leuke mia</w>
l- cio</w>
j oc
inter active</w>
go mez</w>
for ges</w>
fla g
f- ##s</w>
em br
elli ott</w>
dy lan</w>
dru mmer</w>
desp air</w>
deport ations</w>
corpor ations</w>
cor zine</w>
concer ning</w>
care ful</w>
bor ing</w>
b rent</w>
assa m</w>
am -
af l-cio</w>
ad missions</w>
ze iro</w>
u mass</w>
tuss le</w>
th riving</w>
stat ues</w>
spor a
spora dic</w>
spo ils</w>
spel ling</w>
snea k</w>
se dan</w>
rum man</w>
re manded</w>
rain bow</w>
qu re
qu eu
q ic
qic hen</w>
pessi mism</w>
per spective</w>
ow es</w>
medi um</w>
lie uten
licen sed</w>
ke y-
in security</w>
hawai ian</w>
gr illing</w>
galile o</w>
g rumman</w>
fore ver</w>
f n</w>
el ements</w>
ec k</w>
e tam
dop e</w>
dec ep
de ur</w>
cru zeiro</w>
consu l</w>
conoco phillips</w>
condol ence</w>
cha ins</w>
cau cuses</w>
bu gs</w>
biz arre</w>
belarus sian</w>
bel oved</w>
b illing</w>
ax a</w>
amph etam
#- shot</w>
whe re
virtu ally</w>
un c
tu zla</w>
ti z</w>
th ard</w>
surve ys</w>
ste alth</w>
sain z</w>
rid den</w>
restric ting</w>
represen tation</w>
rab bis</w>
r ationing</w>
preserv ation</w>
pa y-
pa ve</w>
or tiz</w>
on mobil</w>
o z</w>
lea gu
guiz hou</w>
fun erals</w>
fow ler</w>
for ging</w>
exx onmobil</w>
europe -
e ous</w>
defen ders</w>
commun ist
be d
asylum- seekers</w>
arran gements</w>
ad er</w>
#- d</w>
ud inese</w>
trans formation</w>
ten ts</w>
stand still</w>
sculp tor</w>
psychi at
probab le</w>
over due</w>
nic he</w>
negoti ates</w>
na uru</w>
mea l</w>
may er</w>
m uted</w>
laid -off</w>
lacro sse</w>
k rupp</w>
k ow
gang ster</w>
fron t
fore man</w>
fat ality</w>
excell ent</w>
ec fa</w>
denk tash</w>
crus hing</w>
cros by</w>
ca yman</w>
bre wing</w>
bre ath</w>
bot af
botaf ogo</w>
bi ased</w>
be mo
be half</w>
au x</w>
all- around</w>
al titude</w>
ab usive</w>
von ia</w>
vand alism</w>
thr one</w>
syn chron
sw eat</w>
sla vonia</w>
shor tened</w>
san o</w>
requ iring</w>
rece de</w>
re par
re kin
re formers</w>
rain storms</w>
proc ter</w>
pa ves</w>
nov ak</w>
neighbor hoods</w>
nas h</w>
n. c.</w>
milli on
militi aman</w>
mel ight</w>
manipul ation</w>
li melight</w>
jeffer son</w>
jas on</w>
in stein</w>
hin der</w>
harm ful</w>
gra s</w>
g df</w>
g at</w>
foo ting</w>
f ath
exam ined</w>
ev al</w>
domin ation</w>
dis solution</w>
dis agreement</w>
deleg ations</w>
def ra
corp se</w>
comra des</w>
com missions</w>
col lated</w>
bor is</w>
ber ths</w>
be aring</w>
adri ano</w>
wor m</w>
t cher</w>
st p</w>
ru iz</w>
resp ir
rehabil it
molest ing</w>
lif ters</w>
leh mann</w>
j aya</w>
install ation</w>
ing redi
i rian</w>
he isman</w>
h mos</w>
glas gow</w>
g el
g aff
fu ji</w>
for fe
dru ms</w>
di stant</w>
descri bed</w>
bo e
blan ks</w>
bil dt</w>
ban dit</w>
bal ancing</w>
b iting</w>
anti- israeli</w>
ac lu</w>
z yn
wat ched</w>
v on</w>
us age</w>
under stand</w>
under dog</w>
typ es</w>
tri angle</w>
super star</w>
sli ding</w>
shen ko</w>
sar a</w>
safe guards</w>
sa ke</w>
ro via</w>
rep sol</w>
re els</w>
rat ilova</w>
publ ications</w>
prot ections</w>
nav ratilova</w>
mon rovia</w>
mix edly</w>
mi ris</w>
mar chers</w>
lec ture</w>
le bron</w>
kash miris</w>
k les</w>
jet blue</w>
it aro
itaro d</w>
insul t</w>
id itarod</w>
hor izon</w>
han e
h wa</w>
evangel ical</w>
ed berg</w>
dra gging</w>
di stor
de m</w>
d led</w>
cur ling</w>
co v
bur nt</w>
bull ying</w>
bor neo</w>
bo c</w>
armen ians</w>
aer of
a i-
zu lu
to e</w>
te ddy</w>
tax- cut</w>
st ood</w>
sp lit
snow board</w>
sm ol
slovak ian</w>
sid eline</w>
shut t
sh ame</w>
scol ds</w>
s z
rook ies</w>
ren ounce</w>
re elected</w>
pin ch</w>
part ner
partner ships</w>
observ ed</w>
na om
mor ale</w>
mor -
mon ds</w>
medic ation</w>
main ly</w>
low ay</w>
loop hole</w>
is ms</w>
intensi fied</w>
ho b
gra ff
graff iti</w>
gil ts</w>
du x</w>
du val</w>
dream works</w>
doc tor
d ited</w>
confu ci
brigh ter</w>
br a</w>
bloo m</w>
arre sting</w>
ut i</w>
tsm c</w>
tri- series</w>
test- fires</w>
tac chi</w>
t tel</w>
sus hita</w>
son- in-law</w>
sm ear</w>
sch ul
rob son</w>
pun itive</w>
prot ective</w>
predic tions</w>
pp y</w>
pe tacchi</w>
or il</w>
micro systems</w>
mat sushita</w>
loo sen
leafle ts</w>
ky ard</w>
is co</w>
inj ect</w>
hu gh</w>
guar ding</w>
fla vor</w>
est oril</w>
epis o
el i</w>
cl ings</w>
ch lor
cal edon
c ation</w>
bea m</w>
audi ences</w>
any thing</w>
alcat el-
ac res</w>
z hu
yo s</w>
wh is
us cri
u.s.- backed</w>
u ch</w>
ther mal</w>
ta it
sprat l
spratl ys</w>
sem ite</w>
samp er</w>
pro- western</w>
pr one</w>
non- proliferation</w>
ni el
memb ering</w>
maneu ver</w>
man uscri
m oms</w>
liv ni</w>
lif estyle</w>
len o</w>
laure ates</w>
kor an</w>
kick back</w>
ka unda</w>
ju mp
iz ations</w>
host ility</w>
ger man-
f athers</w>
er se</w>
embr yos</w>
dol ly</w>
conglomer ate</w>
chop py</w>
b low
al ters</w>
air waves</w>
air borne</w>
un armed</w>
u ra
sla ught</w>
short ly</w>
pri stina</w>
poten tially</w>
poly ne
pedoph ilia</w>
pacqu iao</w>
p ful</w>
on slaught</w>
no ds</w>
n tt</w>
mi red</w>
mex ic
mb led</w>
man tle</w>
lo ud</w>
lo ser</w>
lea sing</w>
la d
k ite</w>
ingu al</w>
incen tive</w>
hel pful</w>
gh ua</w>
ge e</w>
fresh man</w>
fluctu ate</w>
fin gers</w>
ex hau
er red</w>
er able</w>
co y</w>
clar ification</w>
bi ker</w>
an ita</w>
af t</w>
ya m</w>
withdraw als</w>
wer der</w>
wan es</w>
wa g</w>
un even</w>
ti juana</w>
su ch</w>
sa ben
saben a</w>
recogn ized</w>
re claims</w>
prote in</w>
pon te</w>
p acks</w>
out back</w>
nat ur
main taining</w>
low ering</w>
k wa
k om
k ac
je ss
jan et</w>
jag r</w>
j ir
ida- linked</w>
hot test</w>
high- ranking</w>
hemisph ere</w>
enh ances</w>
ein dh
eindh oven</w>
demol ishes</w>
blun t</w>
azer i</w>
. ###</w>
wh ip</w>
w c</w>
w as
vigil ant</w>
under cover</w>
u.s.- based</w>
top ples</w>
to ma
teen-ag er</w>
t ile</w>
sup plying</w>
seven- year</w>
score card</w>
sch ne
schne ider</w>
sav im
savim bi</w>
rebu ts</w>
re payment</w>
rac ially</w>
q ingh
provoc ation</w>
prostit ute</w>
pro vokes</w>
pr on
pen sion
pe tt
pardon ed</w>
open ers</w>
no stal
musli m-
min danao</w>
lu ll</w>
led ger</w>
kie fer</w>
kenne th</w>
ken ed</w>
intercep ted</w>
ge ms</w>
gal ore</w>
foreign- funded</w>
flo rence</w>
film makers</w>
fat alities</w>
f ener
fener bah
fenerbah ce</w>
easy jet</w>
e qual
do t</w>
div a</w>
de militar
de emed</w>
con vince</w>
collabor ator</w>
che e
cat alon
bus an</w>
bel gians</w>
bat teries</w>
bar gains</w>
assa il</w>
anti- islam</w>
aerof lot</w>
y asser</w>
wran gle</w>
wet lands</w>
u #</w>
treat ments</w>
th in
ta ir</w>
stri pes</w>
star ving</w>
springbo k</w>
sk aters</w>
sit ting</w>
sing le-
semin ary</w>
scar ves</w>
s killed</w>
ri dic
reserv ations</w>
rede mption</w>
rac ket</w>
prac tical</w>
por tion</w>
part ic
par kinson</w>
out lets</w>
now here</w>
nom o</w>
nato- led</w>
min em</w>
mb a</w>
mar ching</w>
loo ked</w>
lo sers</w>
l cb-</w>
k ib
immun ization</w>
il in</w>
harve y</w>
h ke</w>
gri d
f in</w>
experi enced</w>
egyp tair</w>
e o</w>
e minem</w>
e ch
cross ed</w>
coll ectors</w>
col ony</w>
carl sberg</w>
cal l-
bren ner</w>
blo ss
bel ts</w>
battle ground</w>
anti- aircraft</w>
- lcb-</w>
yo koh
yokoh ama</w>
wel l
viol ence-
ver sat
us- russia</w>
unab om
u. n.
u.n. -
suggest ions</w>
stron eves</w>
se dition</w>
sco rer</w>
rob ber
robber ies</w>
rin ge</w>
rho des</w>
resur gence</w>
r h
ph al
olymp ians</w>
oc al</w>
nex tel</w>
naom i</w>
mic key</w>
melam ine</w>
mel ting</w>
manag ed</w>
leg g</w>
ke well</w>
jin dj
jindj ic</w>
hit -and-
heada che</w>
go ers</w>
g audio</w>
fal tering</w>
eu ve</w>
en qvist</w>
en ez</w>
d jindjic</w>
cur tis</w>
cre at
cosmonau ts</w>
conc us
cho i</w>
car makers</w>
ca stroneves</w>
break fast</w>
belie f</w>
be ar
bc- as-
bal tics</w>
as sure</w>
ww i</w>
v -
us he
un fit</w>
ultranation alist</w>
tur k</w>
ts man</w>
tri ple
tam i
sun a</w>
reli eve</w>
rebu ff</w>
psychiat rist</w>
pro claims</w>
pau la</w>
or p</w>
no tic
net working</w>
near by</w>
n- spi</w>
mid- air</w>
m iz
kick backs</w>
inqu i
inqui ries</w>
i at</w>
hann over</w>
hand led</w>
gu o</w>
fin ishing</w>
embry o</w>
distur ban
cos by</w>
contain ers</w>
coa ster</w>
by rd</w>
ba chel
ba a</w>
ar uba</w>
wre cks</w>
won der
win ston</w>
tur key-
triump h
triumph ant</w>
tran sat
transat lan
transatlan tic</w>
tor turing</w>
ti k
stea dies</w>
sino- u.s.</w>
sh attered</w>
remem br
re starts</w>
re fund</w>
pur due</w>
preva il</w>
plun ging</w>
ph ine</w>
on ers</w>
o tive</w>
nu l
mi xes</w>
me ssier</w>
make up</w>
lo gs</w>
l cd</w>
israel- palestinian</w>
gas quet</w>
gar rison</w>
ga z</w>
ex position</w>
ex c
deliber ate</w>
dani els</w>
cur ator</w>
cu ra
confuci us</w>
commemor ative</w>
cam bridge</w>
bure au
bureau cra
autom otive</w>
anony mous</w>
am ish</w>
[...]
